#version: 0.2 - Trained by `huggingface/tokenizers`
Ġ d
e s
Ã ©
Ġ l
e n
o n
Ġ p
Ġ a
Ġ s
Ġ c
Ġd e
Ġ ,
o u
r e
a n
e r
t i
q u
i s
Ġ .
en t
i n
Ġ e
Ġ m
i t
l e
a r
u n
Ġl a
u r
Ġ qu
Ġ t
Ġ Ã
Ġ un
Ġe t
Ġ f
Ġl e
i l
t e
o r
Ġ n
Ġ v
ĠÃ ł
ti on
Ġ en
ou r
r a
o m
Ġl es
Ã ¨
r Ã©
u s
Ġd es
m ent
Ġ Ã©
e l
an t
r o
a l
Ġa u
es t
Ġ L
Ġ b
r i
a s
m e
c e
on t
Ġ est
Ġ "
Ġp ar
c h
an s
Ġ C
Ġd u
v e
Ġ j
i r
Ġp our
Ġun e
ou s
s i
a u
t a
Ġd Ã©
e u
qu e
a is
Ġ g
Ġ in
a tion
l i
s e
c i
t Ã©
Ġqu e
n e
Ġ re
i re
Ġ A
t re
Ġp l
Ġ P
Ġc om
r es
Ġd ans
Ġc on
e t
Ġ S
a g
Ġqu i
Ġ M
d e
Ġc h
a it
Ġ il
Ġs ur
Ġ h
m p
Ġ rÃ©
Ġp ro
Ġp as
o s
Ġ E
i e
o l
Ġs e
Ġ D
d i
Ã© e
Ġ 1
it Ã©
Ġ o
f f
l es
a t
p p
er s
Ġ I
Ġ (
Ġpl us
Ġ )
Ġ 2
Ġa v
ou v
Ã ª
r an
ur s
on s
en d
Ġ :
Ġ r
Ġa n
a in
Ġ B
Ġa ve
Ġc e
Ġe x
t er
Ã¨ s
t u
a b
Ã¨ re
a ire
Ġn e
Ġave c
i g
Ġt ou
t es
Ġ i
Ġm o
Ã© s
on n
Ġs u
Ġ T
Ġ ou
u l
Ġ F
Ġ J
a le
a m
a c
Ġ R
Ġa c
Ġt r
Ġp rÃ©
g e
qu es
o ir
il le
el le
ĠL e
Ġs on
p r
i en
Ġ N
c es
i v
ag e
it e
u e
t s
Ġp r
u x
Ġs a
Ġs ont
l le
u i
et te
o is
Ġa r
ch e
p e
Ġv ous
i er
Ã© es
Ġj e
ĠI l
Ġ ent
Ġp o
i ent
Ġ G
Ġp eu
0 0
Ġ ra
i c
m b
Ġv o
Ġ V
ĠL a
Ġm ais
an d
u is
c tion
p Ã©
Ġa pp
ĠÃ© ta
i que
Ġau x
in e
or t
Ġs o
Ġ on
Ġ O
m es
Ġt ra
d u
Ġs i
au x
an ce
a ti
Ġau t
Ġs er
en s
u re
in s
Ġ U
Ġ ont
en ce
eu x
Ġd i
ĠL es
Ã ´
Ġn ous
or s
Ġ y
Ġcom p
Ġa l
Ã© n
Ġ -
is e
o g
our s
Ġc ont
Ġc ette
Ã §
. .
Ġa i
il l
is t
Ġf ait
Ġcom me
Ãª me
Ġ H
Ġc a
o c
u t
i on
or m
Ġcon s
Ġ. ..
Ġpar ti
ĠÃ© tÃ©
u m
Ġt e
ant s
Ġp er
Ġa s
Ġs es
ar d
Ġent re
Ġtou t
Ġcom m
ĠÃ ª
te ur
Ġn o
ĠE n
ation s
on d
Ġ2 0
l Ã©
ĠÃ© c
a y
Ġm e
o i
i b
Ġ es
Ġ !
us si
Ġb ien
or d
t en
Ġe lle
ab le
Ġd is
Ã© r
Ġm on
m i
a ce
t r
u b
tion s
Ġm ar
Ã© ri
o t
ĠÃª tre
Ġi mp
ir es
s ent
Ġa t
Ġ 3
ĠdÃ© c
Ġm a
Ġde ux
ou ve
Ġle ur
o re
Ġan n
ouv er
Ã© ra
ment s
on ne
Ġde v
Ġm Ãªme
s er
ou p
Ġac c
Ã ł
si on
ti que
ti f
Ġp e
v i
Ġc es
Ġm Ã©
Ġ ;
al is
Ġp re
Ġf aire
Ġ1 9
p h
Ġa ussi
a d
Ġ ?
pr Ã¨s
a ires
Ġ20 1
ti n
Ġa d
Ġc ar
om b
l is
e ur
ĠJ e
Ġtr Ã¨s
Ã ®
Ġf in
Ġp ers
Ġg ran
Ġl ui
Ġin s
ig n
on c
Ġ or
Ġa m
ĠC h
Ġin ter
i m
end re
Ã ¢
ĠÃ©ta it
p ar
Ġo b
Ã¨ me
Ġ res
Ġex p
Ġpro p
c u
Ġpeu t
Ġt er
le ment
Ġtra v
Ġf or
d Ã©
ti s
Ġc o
Ġs ou
Ġe ff
e c
mp s
te urs
l o
tu re
Ġc el
us e
Ġqu el
a p
li c
Ġs ans
Ġvo tre
n i
t ra
o ire
Ġil s
d es
an g
Ġt ro
ain e
Ġ 4
ĠF ran
Ġen c
ĠP ar
m in
it s
Ġa b
me t
an te
Ġ Q
Ġas s
b le
Ġa g
ale ment
Ġf a
Ġch e
a ient
ent s
ch er
Ġav ait
Ġde r
ou t
al itÃ©
Ġp os
Ġj us
j et
re r
i ci
u ti
Ġ 5
Ã ¹
Ġc l
c t
Ġaut res
Ġ /
Ġm il
ĠÃ© g
our n
Ġo Ã¹
Ã© g
in g
Ġdi ff
Ġ %
Ã¨ res
v en
Ġin f
Ġt ous
v es
Ġm in
l er
Ġs Ã©
Ġcon f
Ġ K
ĠÃ© v
au t
Ã »
Ġp ri
el les
Ġg r
on g
m an
Ġre c
Ġm an
Ġc ol
is s
Ġv i
Ġan s
Ġr en
Ġd ire
Ġ W
Ġa prÃ¨s
Ġpe ti
Ġ ti
ĠC e
f in
p uis
Ġp uis
Ġ uti
Ġpers onn
Ġen v
ĠU n
Ġ ri
in si
om m
ĠrÃ© g
o se
Ġch a
l Ã¨
Ġc er
Ġ2 00
te ment
Ġa ff
Ġp ay
al es
ag es
un e
Ġp ub
ĠM ais
Ġav oir
en ti
Ġd ont
si d
Ġenc ore
v er
ĠdÃ© p
ĠP our
Ġpro f
Ġre p
Ġp h
Ġso ci
Ġcon c
in t
o y
qu i
t ant
Ġte mps
Ġm es
r it
Ġs eu
Ġi m
Ġpro du
omb re
Ġin tÃ©
an c
Ġav ant
Ġs y
i f
Ġe mp
ent e
itÃ© s
it u
is te
Ġau tre
Ġt h
l us
ne ment
tr u
Ã© d
ci p
end ant
Ġd onn
Ġl i
ĠD e
om me
Ġg Ã©n
Ġper met
Ġpo li
Ġtrav a
Ġcont re
e au
Ġo ff
Ġs ous
ur es
Ġd o
ĠQ u
ti tu
Ġc rÃ©
Ġle urs
Ġp or
l a
Ġse c
Ġf il
ĠE t
Ġa insi
el s
Ġf ran
Ġm al
Ġd onc
Ġl ors
Ġf ois
Ġv is
ĠI n
ĠM ar
i d
Ġpre mi
ĠprÃ© sent
E S
Ġuti lis
n es
Ġno tre
Ġpay s
Ġv ie
Ġde puis
n er
Ġen f
en ne
Ġn ombre
i ques
ĠÃ ī
ol u
ol og
ĠÃ© p
Ġc as
Ġ 6
ur o
Ġn i
Ġmo ins
al l
Ġgran d
ch es
ĠO n
Ġra pp
s t
ra it
ĠFran ce
Ãª te
Ġal ors
ou l
ti v
Ġdis p
o b
ĠrÃ© p
c le
tÃ© s
ou te
d re
r u
Ġtr ans
o le
ĠdÃ© b
ĠÃ©g alement
Ã§ ais
o in
e m
i es
Ġcer ta
a v
Ġa ur
u er
Ġj u
Ġj ou
om p
ti ques
ĠA n
ĠA u
Ġd ro
t h
ĠA l
Ġm ont
Ġn ouv
Ġc our
ig ne
Ġtro is
j ours
Ġmon de
ĠE lle
li que
m is
ce p
u es
Ġb eau
Ġc or
Ġcon n
Ġcomm un
ĠÃ© le
ch Ã©
Ġin c
o p
i x
Ġb as
Ġs al
Ġtou te
Ġn on
O N
Ġp ouv
m ment
Ġm ain
ĠN ous
Ġv er
ou pe
m ier
se mb
Ġser a
Ġquel ques
Ġtou jours
in es
ĠdÃ© f
ĠrÃ© s
g an
Ġc ro
Ġs c
on om
Ġso it
ĠU ne
ĠÃ© t
Ġn ouve
c c
Ġm et
t res
ĠgÃ©n Ã©ra
el on
eu re
Ġl ong
ar i
it er
tion n
o si
Ġd it
mb re
Ġ 7
li g
ou le
Ġmil li
l les
v ent
Å ĵ
Ġin di
Ġpas s
Ġg ra
Ġf orm
ĠdÃ© v
mp le
m er
Ġca p
re z
o ci
ĠÃ §
ĠD ans
Ġser vi
rÃ© e
Ġc ent
j our
Ġn Ã©
ĠÃ© qui
Ġ 8
g er
Ġpr in
Ġar ri
an ces
m Ã©
Ġat t
Ġn os
ĠÃ§ a
s u
ri c
ie urs
Ġf on
iv ers
ĠprÃ© c
iv re
Ġes p
Ã© m
o pp
ĠdÃ© j
ĠS i
il itÃ©
Ġpl ace
a te
s es
ri b
Ġh ist
Ġ 0
Ġtou tes
i ons
ti ve
Ġv a
Ġpre mier
Ġfran Ã§ais
qu Ã©
ra i
Ġsu is
a Ã®
g es
Ġc oup
Ġcel a
ag n
e z
il les
Ġf aut
g ra
ces s
Ġm is
om mes
se ment
Ġv ers
Ã´ t
ĠC ette
Ġdiff Ã©r
Ġj our
ro s
Ġ1 8
Ġr est
Ġjus qu
er a
it es
Ġor gan
i Ã¨re
Ġv os
Ġeff et
Ġi d
ille urs
Ġs or
p i
c oup
Ġh ui
p er
pr is
a re
el opp
Ġf em
Ġder ni
ab les
ta t
a teur
Ġ1 0
Ġ '
Ġch ar
at s
r is
en se
Ġb on
Ġann Ã©e
en ir
Ġs itu
ant es
Ġ ro
Ġpar t
pe c
ĠdÃ©j Ãł
Ġqu and
l u
Ġl ib
r Ãª
ag ne
Ġpremi Ã¨re
v Ã©
qu er
v oir
Ã© tÃ©
an ge
Ġfon ction
Ġm i
T I
ĠrÃ© f
at ure
am b
m and
ĠdÃ© m
Ġplus ieurs
en ces
Ġf am
Ġp res
Ġmo is
Ġinf orm
r ent
ĠÃ© tu
Ġt u
Ġb l
Ġm us
ĠV ous
d er
Ġf ond
Ġh ab
Ġparti e
r on
Ġann Ã©es
elle ment
E R
es tion
tÃ© ri
ĠprÃ© sid
Ġ w
Ġbeau coup
Ġpub lic
Ġs ais
ta ts
di c
Ġs ta
Ġpro jet
us es
Ġmo i
l ar
si onn
ain es
as s
00 0
rÃ© s
il s
ĠdÃ©v elopp
Ġimp ort
Ġg ar
Ġtrava il
Ġd ou
Ġdo it
Ġ 9
Ġc et
Ġre g
Ġche z
Ġs ouv
Ġcont ra
n ier
e ment
Ġpersonn es
ais s
Ã ¯
Ġc an
Ġorgan is
Ġ k
c ont
ĠA r
Ġpos si
Ġm om
Ġs t
ĠdÃ© s
Ġpro b
i ch
Ġes s
pÃ© ri
Ġv oir
Ġc li
Ġnouve au
Ġgran de
Ġpar f
jour d
v is
ra tion
Ġl Ã©g
ĠÃ©c onom
Ã¨ ne
g Ã©
Ġs pÃ©
rÃ© sent
ĠrÃ© alis
ent es
Ġf ra
Ġp i
Ġm en
er n
Ã© b
Ġj ours
Ġj eu
Ġn om
se z
Ġc Ã´
Ġc ours
Ġd ur
Ġcha que
Ġf er
Ġf ut
Ġre l
Ġg ouver
Ġder nier
j ou
er t
Ġn ation
E N
Ġv rai
Ġprop os
Ġapp ar
Ġno ta
Ã© lÃ©
a teurs
Ġpr is
Ġav ons
Ġ1 5
Ġl Ãł
t te
Ġsu iv
ci en
Ġtro p
ra s
at h
ĠspÃ© ci
man de
Ġc ul
Ġh omme
c ul
Ġprof es
ĠT h
Ġmo y
Ġl oc
t ri
Ġcel ui
Ġre cher
an de
on e
am ais
Ġcomp te
Ġv ille
is tre
i Ã¨me
Ġgr oupe
Ġs elon
Ġsu pp
n ent
Ġparti cu
Ġs ign
Ġj ourn
ĠdÃ© ta
a z
ĠÃ© ch
li er
Ġri en
u d
Ġau c
Ġpri x
Ġc eux
Ġpo int
ĠPar is
v re
Ġse m
Ġenv ir
Ã´ le
ĠD es
Ġj amais
Ġ Y
r ont
o de
Ġm er
Ġh um
Ġex e
Ġar ti
Ġpeti t
Ġs ite
A N
ain s
Ġenf ants
semb le
ĠP lus
Ġte ch
Ã©ri c
un es
Ġpoli tique
Ġv ol
c Ã©
Ġc in
Ġ â
Ġmom ent
Ġrep rÃ©sent
Ġd om
as se
b les
Ġpouv oir
Ġli eu
ĠR e
Ġe uro
Ġre t
Ġt our
Ġe lles
ri r
Ġnota mment
Ġs p
Ã¨re ment
pr ise
Ġ ord
Ġm ati
p ul
ain t
ĠÃ©qui pe
Ġch er
ĠIl s
i eu
osi tion
Ġb ou
Ġnouv elle
c ur
or te
Ġni ve
Ġt a
Ġa illeurs
Ġp endant
Ġra is
or is
Ġprin cip
o d
R E
tÃ© e
ĠD E
o li
si ons
el l
Ġpl an
ction s
ti er
Ġb es
Ġs ol
Ã» t
Ġex c
Ġi ci
e urs
Ġa fin
ĠÃ©ta ient
Ġn ature
ib le
i le
Ġac tiv
Ġf ais
ien s
at ri
ti e
ĠC on
Ġse mb
Ġor ig
Ġcon se
il i
ati que
Ġ ouv
Ġ1 2
a de
Ġhist oire
n ation
ic ation
Ġres te
Ġpeu vent
Ġren cont
Ġe u
Ġtr ouve
Ġre tr
Ã ī
Ġcon tin
Ġp ra
u it
Ġau jourd
f i
ĠrÃ© c
Ġph ot
tif s
t ro
Ġc elle
Ġ X
o k
or ts
Ġsy st
ill er
Ġre mp
ĠnÃ© cess
Ġt o
ra ph
Ã§ on
t out
ti en
Ġde mand
Ġp a
f s
ĠrÃ©g ion
res s
Ġo p
ĠÃ Ģ
on de
m ar
Ġpr endre
Ġe au
t al
Ġre v
gra m
Ġen g
o v
eur es
Ġcom ment
Ġvo y
Ġp le
Ġs au
er ci
Ã©n Ã©
Ġ z
Ġsouv ent
Ġre f
Ġtr ouv
olu tion
n is
Ġe ux
Ġdro it
Ġc al
Ġal l
au d
Ġcom pr
Ġapp el
Ġac tu
Ġgouver nement
Ġseu l
t ent
Ġcom b
y p
c ri
ĠÃ ¢
Ġmet tre
Ġsu b
Ġfil m
Ġen semble
a i
ĠE uro
p s
Ġcons tru
c teur
Ġ19 9
ur os
Ġmais on
Ġeuro pÃ©
Ġ1 7
ĠprÃ©sid ent
Ġcol le
Ġsu ite
Ġpo pul
ĠR Ã©
Ġv eu
ĠP ro
ĠC ar
or i
le x
Ġt en
is tes
j ec
Ġt ant
U R
ge ment
Ġm at
Ġnive au
ati ve
Ġr ou
ĠD Ã©
is me
ĠJe an
Ġrapp ort
a tre
Ġin d
Ã©ri e
a k
Ġm ag
Ġpr om
ĠC es
I S
ĠrÃ©s ul
Ãª tre
v ous
Ġf ace
i ti
ta tion
Ġmi eux
Ġ &
Ġvo it
b e
g ie
par t
Ġass oci
og raph
Ġe uros
Ġsur tout
Ã¢ ce
Ġmilli ons
Ġb onne
Ġs ens
Ġv en
Ġexe mple
end u
g rÃ©
Ġsa voir
f orm
Ġde mande
a h
Ġc ri
Ġ ouver
v Ã©e
m o
ĠS aint
Ġ Z
Ġf l
Ġp u
Ġme ille
Ġdev ant
Ġpo in
Ġ Åĵ
Ġcerta ins
Ġp ens
ang er
Ġfam ille
p ons
Ġqu estion
rib u
Ġpr Ã¨s
Ġje unes
ĠdÃ©b ut
Ġsi Ã¨
t on
Ġqu alitÃ©
Ġpro gram
Ġat ta
c o
ĠcÃ´ tÃ©
Ġ3 0
di tion
us s
Ġave z
Ġr is
Ġc r
ta ire
Ġla is
Ġv ic
Ġ1 6
Ġpar ce
Ġs our
Ġf Ã©
Ġp Ã©ri
Ġpor te
Ġh eure
Ġâ Ĥ
su ite
ĠâĤ ¬
Ã© li
Ġmo d
Ã¨ g
pris es
oir es
y ant
Ġparti r
Ġl igne
ant Ã©
Ġm ise
Ġprofes sionn
res sion
ĠA prÃ¨s
ten ir
Ġtr ouver
ol es
s s
Ġseu lement
Ġ1 4
Ġprodu its
Ġv oul
Ġser ait
Ġre ven
ĠÃ©ta b
Ġo pÃ©
ten ant
Ġpers onne
Ġ1 1
Ġch ose
ĠN o
A R
Ġam Ã©ric
an ti
g l
di tions
Ġacc ord
Ġcon v
Ġin v
Ġf ac
n Ã©
Ġservi ce
ouve z
Ġra pi
u g
Ġsyst Ã¨me
u c
Ġo pp
Ġc ou
Ã¨ le
d ent
Ġca mp
Ġrecher che
ĠsÃ© cur
Ġh ommes
Ġqu atre
ĠprÃ© v
Ġab s
Ġres pons
Ġd oc
Ġb r
or me
h ait
Ġje une
o que
ĠM on
Ġtech n
Ġsoci Ã©tÃ©
il es
p endant
Ġcons titu
Ġb ar
ĠN e
Ġmin istre
ra in
Ġeff ec
Ġh eures
Ġsou hait
Ġpossi ble
Ġag it
Ġquel que
it al
ri Ã¨re
Ġo cc
Ġaur ait
Ġex pÃ©ri
b ilitÃ©
Ġa ch
it aire
c re
Ġpro ch
ĠdÃ© ci
ri er
uer re
Ġvrai ment
Ġinter nation
ĠgÃ©nÃ©ra l
Ġan im
Ġse p
Ġav aient
m a
Ġl ar
ard s
TI ON
Ġt Ã©lÃ©
olog ie
Ġacc ue
Ġpo si
Ġth e
Ġfem me
Ġma j
Ġv ue
Ġas sez
o w
Ġt Ãªte
Ġaut ant
al y
Ġl it
Ġo c
Ġf ont
Ġ1 3
Ġg ros
Ġrapi de
Ġrec onn
Ġm ort
T E
Ġpeti te
os si
Ġacc omp
Ġmin u
Ġfor me
Ġch ois
iv ent
Ġser ont
Ã© rÃ©
L E
Ġarti cle
e b
Ġfa Ã§on
ĠEuro pe
oi x
Ġb Ã©nÃ©
Ġd Ã¨s
i ers
Ġparti cip
lÃ© ment
ran d
an ci
ĠS a
g ent
Ġun ivers
Ġservi ces
Ġtrav ers
ĠC el
Ġb i
Ġfem mes
Ġv Ã©
Ġti tre
I N
Ġl im
aÃ® tre
Ġman iÃ¨re
Ġ us
ri que
ti l
ĠÅĵ u
onne ment
Ġgr Ã¢ce
ne t
is ion
c ture
Ġnombre ux
Ã© ro
Ġsu jet
Ġab ord
o it
x te
l in
ĠC an
ĠdÃ©ta il
Ġg ens
Ġbes oin
Ġar rÃª
Ġsi mp
Ġpub li
Ġemp l
Ġ 000
Ġpour rait
ais e
Ġh au
Ġparticu li
ien ne
c er
Ġpas ser
Ġl oi
Ġc ir
a di
ĠA m
ten tion
Ġv ale
ie d
i tion
Ġdes s
Ġapp r
ĠdÃ©velopp ement
ĠdÃ©c lar
res se
v ier
Ġentre prise
Ġqu ar
Ã©r ence
Ġim m
Ġapp ro
ĠÃ©t ran
g u
ti r
Ġre ce
ĠrÃ©p ond
or itÃ©
Ġar tis
Ġdonn er
min ist
Ġ is
ve c
ĠO r
ĠM ont
c les
Ġai de
Ġt ourn
ĠprÃ© f
Ġcent re
l am
Ġ +
g ment
Ġd iv
Ġal ler
Ġf r
Ġderni Ã¨re
ĠdÃ©c ouv
ĠS ur
Ġat te
Ġs ommes
Ġrais on
Ġocc as
ĠM a
m Ã©e
m Ãªme
Ġmar chÃ©
Ġ _
Ġ2 5
u el
Ġcont r
Ġp ouvez
Ġd ist
Ġprodu it
Ġpas se
Ġch oix
ac t
an e
Ġhab it
Ġl iv
ut Ã´t
Ġnouv elles
qu el
Ġpar c
t tes
Ġv u
Ġpi Ã¨
ra ge
ĠC om
Ġcl as
Ġcor ps
Ġcul ture
Ġres s
Ġob jec
Ġch amb
te mps
qu oi
Ġpro v
mb res
f ois
Ġpro c
Ġin ves
d it
o ph
Ġs Ã©rie
k e
Ġsitu ation
Ġcha mp
ĠÃ©ta t
os es
use ment
Ġob jet
Ġav is
Ġf eu
Ġe mb
Ġg Ã©
Ġdisp on
Ġl og
ĠrÃ© se
Ġl oin
Ġa yant
ag er
Ġsu ff
ĠS on
Ġass ur
is c
aÃ® t
Ġv Ã©r
Ã¨ rent
ĠrÃ© du
Ġent ra
Ġpar ta
v al
Ġen se
Ġc i
aiss ance
Ġn um
Ã¨ te
Ġpl utÃ´t
Ġjus te
Ġpl u
Ġins t
Ġr Ã¨g
Ġmes ure
Ġt able
Ġc oule
a me
ier re
ĠdÃ© fin
l ac
Ġd onne
Ġth Ã©
Ã© ment
ĠrÃ© ser
Ġen d
v ant
Ġs antÃ©
Ġg en
ĠS e
ĠsÃ©cur itÃ©
re t
Ġsem aine
tÃ© g
qu ent
Ġca dre
Ġad minist
ill age
ul ti
Ġl o
ĠA vec
or ter
ille t
ra is
ĠC omm
Ġdis c
u li
ici le
Ġch ange
o Ã»t
p l
Ġme mbres
os er
Ġan cien
ri e
Ġcomm en
Ġpoin ts
Ġs us
ĠintÃ© rÃª
Ġsais on
Ġveu t
a ta
Ġcom pÃ©
Ġmon di
Ġsu cc
Ġp ied
ot h
Ġsec ond
Ġminu tes
Ġl ang
Ġes ti
Ġet c
ĠP h
Ġreg ard
Ġa jou
Ġen suite
Ġg uerre
Ġoff re
Ã¨ tres
Ġvi ol
i a
Ġpr end
di d
r y
Ġl ivre
Ġbas e
z e
ĠÃ© tant
Ġb an
Ġauc un
b il
U nis
Ġm or
Ġf ort
x im
Ġau gment
Ġprop re
ĠÃ©le ct
o h
Ġt ard
y n
Ġmat ch
Ã©ra tion
ĠÃ© ner
ur ent
u le
Ġfa ci
au v
alis te
Ġinform ations
l ab
en si
Ġsemb le
ĠÃ©tu di
ĠintÃ© ri
Ġs oir
Ġpass Ã©
ur i
Ġentre prises
Ġparf ait
Ġs Ã»
us se
ĠÃ©c rit
Ã «
Ġr end
Ġa mb
ĠG r
l ent
ais se
Ġret our
Ġ ur
Ġaut om
Ġan ti
ib les
Ġca use
Ġun ique
Ġc uis
Ã¢ te
os Ã©
y pe
ite ment
a ch
ĠIn ter
Ġ19 8
Ġsu per
Ġch i
Ġgrand s
Åĵ ur
is ation
Ġann on
us tri
du c
Ġp ort
au l
ĠE s
ĠprÃ©c is
au che
Ġass ure
Ġform ation
Ġdonn Ã©es
Ġre Ã§
Ġch oses
Ġsi mple
en de
ĠM e
Ġp ense
Ġche f
le t
li e
Ġdeux iÃ¨me
Ġter rit
alitÃ© s
Ġt omb
Ġn Ã©g
Ġseu le
l Ã©e
Ġoc cu
Ġapp lic
g ue
Ġan aly
Ġt ent
Ġp an
qu elle
oc k
Ġaut our
Ġad ap
Ġfin anci
or ation
Ġoccas ion
x e
ra ient
Ġcan did
Ġch ac
Ġdi ri
Ġh aut
Ġaur a
ĠmÃ© di
ti ent
Ġacc Ã¨s
Ġla quelle
pr it
Ġm ouve
an che
Ġdire c
ĠS t
Ġsal le
Ġdoc u
r il
ta it
Ġv al
Ġexp lo
r ant
Ġma i
Ġoff ici
Ġvi dÃ©
ac es
ĠS h
Ġcon ditions
s Ã©
Ġc it
Ġpro g
le ction
l y
Ġparf ois
ĠM al
Ġid Ã©e
an n
ore r
Ġmain tenant
Ġpeti ts
Ġcin q
Ġcolle c
Ġpl ais
Ġcons er
Ġa li
cri p
Ġsy n
ve z
Ġenvir on
ch Ã©s
a pp
Ġac cep
Ġb al
Ġauc une
Ġprop ri
Ġb ut
ou d
2 0
ĠrÃ© un
lo y
ĠÃ© lÃ©
Ġre m
ci e
Ġdes tin
l Ã¨me
Ġs enti
Ġconc ern
Ġqu oi
Ã§ ois
om e
ĠC omme
anc er
Ġt ri
p es
ĠCh ar
Ġter re
Ġpuis s
O U
A L
Ġenf ant
Ġr om
er re
j e
Ġac tion
Ġr Ã´le
an vier
ĠT out
f ici
Ġv ient
Ġd oute
Ġpour su
Ãª mes
ĠdiffÃ©r ents
ĠpÃ©ri ode
Ġ5 0
Ġatt end
ĠprÃ© s
Ġ2 4
Ġpr Ãª
Ġ201 2
ĠfranÃ§ais e
si que
Ġind ustri
O M
vi d
Ġcons omm
Ġb elle
able ment
pec ta
ĠE tat
Ġou b
Ġob lig
Ġdev en
ĠÃ© qu
Ġ1 00
a Ã¯
Ġprogram me
Ġso i
Ġmar i
ven tion
cep tion
en nes
ĠB ar
I I
Ġdo ivent
ĠÃ©p oque
Ġcon te
Ġentra Ã®
Ġmati n
o ins
Ġb at
Ġin dÃ©
pe ct
tÃ© es
ĠCh a
Ġai me
Ġcons Ã©
Ġa lle
Ġb ois
Ġprop ose
ĠS u
Ġgra tu
ĠQu Ã©b
Ġ201 5
is sion
ĠCel a
Ġprob lÃ¨me
Ġlors que
Ġaff ir
Ġcap it
Ġeffec tu
Ġvoy age
Ġma Ã®
EN T
Ġ201 4
Ġnouve aux
ĠrÃ© v
Ġv endre
qu ant
onc Ã©
Ġtrans p
Ġa ir
ĠT r
c k
Ġp ol
s on
Ġb out
Ġm ulti
ĠL A
ve ment
Ġr endre
Ġmo di
i me
O R
qu is
oc ra
Ġter me
alis ation
Ġcon du
Ġf ig
v ers
Ġp Ã¨re
Ġmo t
ta ble
Ġm as
ti ves
Ġj anvier
u ve
Ġorig in
l ace
Ġob ser
Ġqu o
Ã©ri que
Ġdev rait
i ance
oup es
Ġse in
Ġd ivers
ĠC l
Ġman if
ĠÃ© lÃ¨
Ġo f
es tions
I T
c on
ĠAl ors
p ond
ĠI s
Ġt on
ac itÃ©
m en
ĠdÃ© ce
l ise
ĠÃ©conom ique
Ġord re
a ur
Ġju in
Ġam Ã©li
Ġcommun au
in dre
Ġ201 3
Ġimport ant
k i
mÃ© di
Ġo ct
ti ce
Ġmar s
Ã¨ de
ĠO u
Ġav ais
Ġt ype
Ġdonn Ã©
Ġ2 1
Ġte mp
Ġpar ler
ati f
age ment
Ġl um
i onn
Ġdro its
rÃ© es
ĠS elon
Ġmus ique
our g
Ġpour quoi
ac k
Ġnombre uses
Ġfa v
ĠE x
Ġv ont
et s
ĠL ors
Ġactiv itÃ©
Ġesp ace
Ġn uit
Ġactiv itÃ©s
te mbre
Ġf ille
ĠexpÃ©ri ence
re g
Ġutilis ation
Ġf ourn
ĠnÃ©cess aire
Ġen qu
ab ilitÃ©
Ġin iti
Ġlong ue
Ġan ci
Ġjourn Ã©e
Ġy eux
C E
Ġ ir
Ġris que
Ġrencont re
orm ais
Ġp Ã©
Ġ201 6
Ġapp rÃ©
Ġd ate
Ġcl ub
des s
Ġb Ã¢
u y
et er
Ġpra tique
it ation
l and
Ġcont en
Ġfor ce
Ġnation ale
Ġcomm une
Ġt end
Ġmil ieu
Ġr ue
ĠQuÃ©b ec
m on
ad a
is er
ĠCon se
de c
ĠD u
ĠD ieu
b o
ĠsiÃ¨ cle
ĠC er
Ġorig ine
av ant
f or
ĠdÃ© g
ĠdÃ© par
ard in
se ur
d a
Ġpoli tiques
Ġs tra
Ġ19 7
b er
Ġaff aires
re ux
di en
Ġs ac
Ġess enti
Ġsou ff
Ġv ois
Ġeff ic
ĠD i
Ġc iv
ĠrÃ©sul tats
Ġf i
Ġprodu ction
Ġ *
ĠP r
ĠÃī tats
Ġg auche
ĠP rÃ©
ĠÃ©c ri
Ġsi x
Ġar t
Ġenvir onnement
Ġa j
ĠÅĵu vre
Ã¨ mes
Ġre lig
Ġexp li
Ġcerta ines
Ġ201 1
Ġpr ise
se ments
Ġhist or
Ġutilis er
ati ves
ĠprÃ©sent e
ĠopÃ© ra
al if
Ġv ac
Ġpeu p
Ġar gent
Ġp age
ĠÃ©tab lis
in er
ĠdÃ©ce mbre
ob re
Ġsucc Ã¨s
Ġcons ul
Ġa mi
f ique
Ġes prit
it aires
iss ant
Ġmeille ur
ĠB r
ar de
ĠP as
Ġl ut
Ġvis ite
Ġgran des
Ġim age
ĠÃ©c ole
ĠC ol
olog ique
Ġs pecta
Ġmati Ã¨re
Ġfil s
Ġplais ir
Ġsep tembre
ien nent
Ġg estion
Ġl un
ati ques
Ġsc Ã¨ne
Ġsu pÃ©ri
si g
U E
ve mbre
on es
ĠdiffÃ©r entes
Ġt Ã©m
Ġ2 2
Ġchar ge
Ġpopul ation
Ġv ari
Ġdiff ic
Ġmoy en
tÃ© ra
Ġre tra
Ġpri v
Ġqu estions
ĠA f
Ġav ril
Ġma tÃ©ri
c s
Ġinform ation
tive ment
ĠcrÃ© ation
5 0
Ġvo ix
ĠDe puis
onn es
Ġmar que
te z
du ction
Ġb o
Ġpar ten
Ġl iste
ĠintÃ© ress
ĠC or
tin g
d am
Ġau prÃ¨s
Ġf ix
ĠÃī tat
ĠA lle
Ġh y
Ġpres que
Ġen fin
di o
ci dent
Ġi dÃ©
Ġinves tis
L e
ĠFran Ã§ois
it able
R A
Ġv illage
Ġh a
Ġpr en
Ġtrav aux
Ġchac un
Ġqu it
Ġvale ur
Ġjou er
e d
Ġdur ant
l ant
Ġvol ont
Ġple in
Ġt aux
Ġgen re
ĠdÃ©s ormais
Ġpremi ers
Ġexp lique
Ġper mis
Ġ201 0
ĠA insi
Ġju illet
ĠS er
Ġ201 7
Ġlib er
ĠbÃ©nÃ© fici
Ġpar mi
ĠmÃ© dic
Ġag rÃ©
Ġcomp lÃ¨
ĠQu and
Ġp ati
ill Ã©
Ã© c
Ġs tru
al og
i Ã©
ĠConse il
Ġv iv
Ġcel les
Ġp ous
Ġc Åĵur
Ġrapide ment
Ġp ap
Ã« l
Ġres pec
s age
ĠsÃ© lection
re ment
er ce
Ġh Ã´
Ġen ti
ten u
Ġv it
Ġcomm erci
ĠM ich
me di
Ġ4 0
Ġmo de
Ġchi ff
ch i
Ġdro ite
s y
Ġex ist
Ġhab itu
and is
Ġa p
Ġsimp lement
Ġcomb at
b re
Ġ2 3
Ġau teur
Ġt oi
Ġno vembre
l an
Ġoct obre
Ġins titu
ci pe
Ġcamp agne
alis tes
Ġam our
ter n
o int
Ġquo ti
Ġph y
Ġdi x
Ã© cu
te ction
I L
ĠdÃ©c ision
y c
m ain
Ġempl oi
at oire
Ġlais ser
ent re
t oire
Ġtrouv Ã©
Ġdi man
ri g
Ġcon sid
S S
Ġm Ã¨re
Ġle t
ĠsÃ» r
f ier
Ġs ait
ĠdÃ©c ouver
h e
Ġcent ra
r ou
il li
Ġcontr Ã´le
qu Ã©e
ĠintÃ©rÃª t
res pond
Ġj eux
Ġparticu lier
Ġf ab
ni ques
Ġderni ers
ĠdÃ©couv rir
Ġsec teur
Ġou til
Ġaut or
Ġsu d
ag ner
Ġdev ient
c teurs
ĠA b
ĠdÃ© part
Ġmouve ment
ro it
Ġpe ine
Ġcomp os
titu de
Ġp at
ĠrÃ©se au
ĠeuropÃ© enne
Ġt ot
ĠE T
Ġpl a
A TION
Ġal b
y th
Ġphot os
ĠprÃ©s ence
N E
Ġf rÃ©
ĠÃ¢ ge
Ġim ag
ĠmÃ© dec
ĠintÃ©ri eur
Ġb ord
Ġr oute
Ã¨ se
Ġn ord
oy er
v rier
Ġvic ti
Ġinst all
Ġch au
Ġd ossi
ĠÃª tes
ĠTh e
ous e
ĠS y
Ġpour tant
Ġmanif est
I C
Ġle quel
ĠÃ©v Ã©
Ġdire ction
ĠcrÃ© er
ĠdÃ© n
ĠFran Ã§ais
i de
Ġemp loy
Ġobjec tif
o ie
Ġali ment
Ġdiff icile
Ġposi tion
Ġm auv
Ġbl anc
Ġd ol
Ġplu part
Ġex iste
Ġst y
Ġconf ir
Ġcli ents
ve ur
in Ã©
Ġcor respond
si dÃ©
Ġparticuli Ã¨rement
Ġes c
ĠAn g
Ġv ite
Ġdiman che
Ġpub lique
Ġex tra
Ġchamb re
Ġdis par
Ġderni Ã¨res
ter min
Ġcher che
ci er
Ġver sion
ad es
Ġn av
c an
pp e
Ġm un
ĠA s
Ġai der
ĠP e
r ons
au te
Ġg ard
ti ers
ĠÃ©tu de
Ġpl ac
Ġz one
Ġfra is
Ġen reg
Ġcro is
Ġlong temps
ĠA c
Ġmin ist
ĠdÃ©m ar
ar t
Ġsou lig
ĠE tats
l Ãł
ta ge
Ġtrois iÃ¨me
Ġc u
h Ã©
osi tions
ĠV o
di tionn
ĠrÃ©p on
Ã© l
ĠprÃ©c Ã©d
Ġpoli ce
or ie
Ġcar te
Ġ iss
Ġn oir
ĠM an
Ġdom aine
ĠprÃ© par
c ent
ac tion
i ce
Ġte xte
Ġorganis ation
Ġpos s
Ġex tÃ©ri
Ġo eu
Ġmod Ã¨le
Ġcro iss
Ġmilli ards
ĠB el
v res
p end
Ġre mar
Ġt est
ĠÃ©tu des
Ġsem aines
I E
Ġsign if
Ġcons ta
ĠmÃ© th
Ġn eu
Ġam is
Ġdol lar
ci ence
Ġapp are
Ġk m
ch ar
Ġalb um
Ġ19 6
Ġan d
Ġess ay
ch ant
Ġprojet s
Ġlors qu
Ġv ivre
Ġf le
3 0
Ġter rain
mis sion
Ġad op
Ġob tenir
Ġr Ãª
Ġter min
vis ion
Ġmal grÃ©
ĠvidÃ© o
Ġcom pris
er ie
Ġ200 9
i eux
Ġconc er
t o
ti Ã©
ĠT e
Ġins tru
ti ne
p rÃ©
a rer
Ġconse il
Ġg u
Ġnation al
Ġpres se
h ic
Ġto ta
Ġent rÃ©e
Ġse x
Ġcerta ine
Ġsa v
ces si
Ġre j
l s
ĠL E
Ġjou eurs
is sement
y s
Ġvendre di
Ġb les
D E
ĠfÃ© vrier
Ġsoci ale
Ġso ient
Ġche min
Ġrapp el
Ġdire cteur
Ġpar le
ĠC ons
cre di
Ġ ran
p ub
Ġmoy ens
Ġcontra ire
ig ue
ou n
Ġs ort
o te
Ġcr ise
Ġf our
si e
lÃ¨ mes
or Ã©
Ġar ch
Ġmo der
ĠdÃ©m ocra
ĠG u
Ġcomp agn
Ġd ra
Ġrest aur
Ġ200 8
Ġman que
ti c
ĠA d
Ġv enir
m atique
ran ce
ĠdÃ©clar Ã©
Ġr u
in d
Ġin n
Ġpropri Ã©
Ġhabit ants
Ġan gl
f ic
Ġapplic ation
ĠP R
Ġsor tie
Ġvoit ure
ĠdÃ© li
ĠCom ment
Ġpuis que
ĠÃ ®
Ġlar ge
v ir
ĠÃ©ner gie
Ġannon ce
Ġsa medi
Ġprob lÃ¨mes
ĠP re
Ġpar ents
t or
ĠE N
ĠNo tre
Ġso li
Ġcompr endre
Ġ $
Ġarri vÃ©e
ĠNe w
ne ments
Ġdocu ment
Ġb ud
Ġsy mp
Ġl anc
ĠdÃ©f ense
Ġb e
v ie
as h
ĠD a
Ġre pr
l ir
in ce
v a
Ġmo ts
Ġt ar
Ġcon sidÃ©
Ġlun di
us Ã©
Ġex ig
crip tion
Ġper form
Ġaff aire
Ġr ent
en tif
Ãª tes
ĠrÃ©g uli
ĠÃ©conom ie
ĠCan ada
ist ance
ĠÃ©lÃ© ments
in ation
Ġg lo
ĠÃ© n
Ġcuis ine
Ġce pendant
ĠvÃ© hic
ĠdÃ©par tement
i o
Ġcol lab
Ġc Ã©
e k
Ġterrit oire
ĠA pp
est re
Ġar mÃ©e
ĠÃ©tran g
Ġb ure
Ġpermet tre
ĠB ien
vi du
Ġa it
ĠB en
de z
ĠÃ©v iter
ĠB er
ap on
A G
Ġl ire
Ġtechn ique
Ã¨ nes
Ġemp Ãª
au me
l it
Ġag ric
jou ter
Ġexp ri
ĠP ierre
Ġpro che
Ġpro tection
Ġcit oy
d ire
se urs
Ġpro cess
in te
Ġconstru ction
o des
Ġdiffic ul
Ġpeti tes
Ġqu alif
Ġ Â
ĠEs p
ĠA ss
Ġconn u
Ġsor te
g ence
as e
or tÃ©
o ign
Ġdiri ge
ĠRÃ© pub
ĠD ES
Ġarri ve
Ġdur Ã©e
Ġindi vidu
ĠC a
Ġexc ell
Ġj ardin
es te
ĠrÃ© alitÃ©
ou is
ar itÃ©
onn er
ĠA ut
Ġc am
Ġesp Ã¨
ĠN ic
Ġv e
b es
ĠdÃ© termin
Ġn orm
ĠI N
ais on
ĠB l
Ġmulti p
or k
ici p
Ġa che
A C
ĠÃ©v al
Ġjeu di
Ġcomp ar
u te
ĠN ord
it h
L a
Ġretr ouver
Ġpass age
Ġmes ures
Ġsoci al
Ġ2 8
Ġ2 6
Ġp Ã©n
Ġt ran
o z
Ġsou tien
Ġliber tÃ©
ance ment
Ã©d er
Ġcomm and
Ġcontin u
ven ir
Ġenqu Ãªte
Ġenv ie
v Ã©s
Ġcroiss ance
u tÃ©
Ġil lus
met tre
ĠamÃ©ric ain
Ġgr oupes
Ġex am
Ġprocess us
g Ã©e
Ġcl a
ĠÃ© duc
Ġ2 7
Ġcerta in
at es
Ġassoci ation
Ġmar di
in i
ĠE st
Ġc ra
Ġ- -
Ġmer credi
in a
il Ãł
Ġex tr
Ġbl og
Ġpeu x
Ġfais ant
Ġrec omm
ĠrÃ© uss
Ġa oÃ»t
Ġadminist ra
ĠQ ue
ĠV al
Ġdirec tement
ill on
v ille
an i
Ġp sy
ĠO b
Ġb u
Ġdollar s
Ġann oncÃ©
Ġta ille
Ġple ine
Ġcl asse
Ġress our
Ġmoy enne
Ġles qu
h a
Ġf ru
ĠB re
ĠvÃ©r itable
ac tÃ©
ĠA t
ĠdÃ©ci dÃ©
Ġdev enir
Ġtrans form
in aire
Ġins tal
Ġde mi
M ENT
ĠmÃ© l
is p
or de
Ġfaci le
ĠmÃ© m
Ġcommun i
g ne
f ait
Ġcomm ande
ur Ã©
Ġsta tu
Ġla iss
qu Ã©s
Ġretr ouv
Ġlang ue
Ġassure r
M E
ĠrÃ©pond re
Ġlib re
Ġc ouver
Ġsal ari
ĠgÃ©nÃ©ra le
ĠrÃ©sul tat
Ã¢ tre
ĠbÃ¢ ti
Ġs ang
o x
t ures
Ġro i
Ġpl ate
Ġt andis
ĠS ar
sid ent
Ġjus tice
O UR
Ġapp li
Ġcomm ence
Ġpeup le
ĠT ra
o ot
Ġn u
l ande
Ġv ente
ig nement
ois e
Ġ19 4
Ġf aud
Ġproch ain
m agne
ĠsÃ© jour
Ġar b
Ġcont ribu
Ġn omm
ĠUn ion
Ġ >
Ġf all
ĠC our
Ġt rib
Ġde me
ĠpiÃ¨ ces
Ġvac ances
ign es
Ġent end
Ġpos te
Ġder riÃ¨re
Ġh ors
c om
Ġex Ã©cu
cien tif
Ġs ensi
olu tions
Ġphot o
Ġmont re
Ġmun icip
ĠT ous
du it
Ġid Ã©es
Ã¨ ve
Ġes pÃ©
Ġac tions
Ġte x
Ġrou ge
ĠE lles
f ace
Ġfor te
Ġf ro
Ġren for
ĠG o
ĠconsÃ© qu
is sent
A U
Ġs in
la i
Ġbes oins
ĠS al
Ġ200 7
a ment
ti tion
Ġv ais
i k
Ġfer me
ar es
ĠF in
Ġgar de
ĠS ud
Ġfor ces
Ġs olution
Ã¢te au
Ġmaj oritÃ©
Ġp al
Ġpersonn el
Ġcommunau tÃ©
ĠÃ©lÃ¨ ves
Ġtra in
u les
is ter
ĠP S
Ġfonction n
c rit
a ie
Ġtrava iller
Ġd Ã»
Ġco Ã»
us ion
ĠInter net
Ġf ou
Ġrest er
et tes
Ġsec onde
Ġcoule ur
Ġcompr end
Ġs ites
ĠRÃ©pub lique
d uis
Ġretr ouve
Ġtra itement
Ġcar act
Ġpremi Ã¨res
Ġcons ac
iv er
Ġc at
A I
u elle
Ġlit tÃ©ra
Ġtot al
Ġor ient
Ġm Ãªmes
Ġim ages
Ġdou ble
ĠdÃ© t
l en
Ġsor ti
Ġm Ã¨tres
Ġou tre
Ġ6 0
ĠnÃ©g oci
Ġs cientif
Ġpro tÃ©
Ġh Ã©s
ĠR ob
Ġcontra t
Ġsty le
Ġconf iance
Ġsour ce
Ġsa tis
ĠQu el
Ġp atri
agn Ã©
A S
ar s
Ġmis sion
ĠEn fin
di que
Ġtrans f
c is
A T
Ġmain s
ĠG rand
Ġvic toire
m at
ĠAlle magne
ro p
ĠrÃ©g ime
ĠC o
Ġpouv ait
. -
ĠR en
Ġv ing
Ġp il
r Ã¨s
Ġdossi er
Ġaccue ill
Ġg ui
Ġch ale
Ã© rer
ĠAf rique
Ġinf lu
g Ã©s
ĠD U
Ġsitu Ã©
ĠS p
Ġsupp lÃ©ment
Ġb ru
Ġsoci aux
Ġcoule urs
ĠCe pendant
ur r
ĠC et
Ġli eux
rÃ© al
Ġca tÃ©g
Ġpour ra
Ġt al
Ġaut oris
v ation
E C
g ique
am a
Ġma ch
Ġtoute fois
ti Ã¨re
Ġper du
Ġav enir
ĠC omp
Ġ3 1
Ġcar actÃ©
Ġrespons able
avant age
Ġfin alement
Ġb ras
Ġquar tier
Ġcli ent
Ġcin Ã©m
Ġdispon ible
Ġin qui
onn Ã©
ograph ie
ĠindÃ© pend
Ġpossi bilitÃ©
or mes
Ġsu ivre
Ġrom an
end ra
Ġmondi ale
Ġvo ie
ĠT ou
Ġprofessionn els
ĠG e
Ġcar riÃ¨re
ĠIn s
Ġangl ais
Ã¨ les
Ġdi pl
h eure
Ġ2 9
Ġat tention
Ġcon ne
Ġco de
on y
Ġnum Ã©ro
d ite
de mment
Ġpro t
Ġanaly se
ĠU S
r ist
ti m
Ġdemand er
Ġt yp
id s
si f
Ġcon dam
Ġlum iÃ¨re
O S
Ġactu ellement
Ã©ra l
Ġlo gement
Ġliv res
it ant
ĠrÃ©pon se
Ġsuiv i
Ġcal me
Ġlais se
Ġch ans
lÃ© g
d el
Ġsor tir
ĠJ oh
che ment
i ra
Ġl ien
ĠCer ta
an o
Ġmeille ure
Ġg am
ĠB e
Ġimp orte
Ġarti cles
Ġw e
il os
Ġs omme
Ġid entif
Ġtech niques
ĠrÃ© sid
ĠL ib
Ġoub li
mo ins
Ġf u
Ġconcern ant
Ġoccu p
Ġim mÃ©di
Ġd avantage
Ġsuff is
Ġn our
ĠP uis
Ġextr Ãªme
ĠJ us
ĠP l
on ique
Ġso le
ĠI tal
Ġma xim
Ġfin ale
os s
Ġsc ol
ĠÃ© dition
si eur
ĠpiÃ¨ ce
ĠÃ©ta is
Ġrep ro
Ġad resse
ĠT oute
g h
Ġme mbre
Ġfond s
Ġquoti dien
ĠrÃ©alis er
Ġ =
Ġjou e
Ġco p
m Ã©s
an moins
Ġra s
Ġre d
Ġp ou
ĠH ol
an a
Ġpe au
ĠP ri
ol Ã©
Ã´ me
il ib
ĠAn d
Ġv eux
re c
Ġcommun ication
Ġins tant
ve ill
semb lÃ©e
Ġend roit
c ons
L es
ĠÃ© vi
is Ã©
ĠM ad
as t
Ġparti es
Ġab and
Ġtra ditionn
Ġin t
Ġch anger
Ġpermet tant
Ġouver ture
ĠC H
ci eux
ĠS ch
Ġaff i
Ġav ent
Ġres pect
Ġsole il
Ġimport ante
Ġh om
Ġ erre
ĠrÃ© ussi
Ġaccue il
Ġrel ation
Ġsi m
O L
ĠrÃ© par
Ġex erci
Ġhau te
g et
ati s
M ar
ĠrÃ© vÃ©
Ġinternation al
Ġprof iter
Ã§ u
Ġ. .
ĠA jouter
Ġs h
ĠUn ivers
Ġrecomm and
en sion
Ġfam illes
Ġressour ces
ĠreÃ§ u
Ġ8 0
ĠR oy
Ġcomp lex
Ġv illes
Ġpor ter
Ġid enti
ain te
alog ue
Ġb el
y on
Ã§ ant
ĠprÃ© p
ay s
Ġsu c
Ġpra tiques
Ġindi quÃ©
Ġcol lÃ¨
ĠdÃ©b at
Ġchange ment
Ġinternation ale
Ġla b
Ġsyn dic
Ġl ois
Ġco eur
Ġf era
1 9
Ġtr ou
Ġadminist ration
ĠJ ac
Ġac teurs
Ġju ge
Ġmar che
Ġar r
Ġconn aÃ®tre
dess us
ta ires
ĠM Ãªme
Ġvolont Ã©
Ã© tÃ©s
yn am
Ġmin im
Ġdist ribu
ĠD eux
Ġense ign
Ġlut te
t ur
Ġmal ad
Ġfait s
Ġdisp osition
Ġproch aine
l or
Ġjou eur
Ġdes c
er ts
ĠP eu
d o
Ġf isc
ou x
ir s
ch ent
ag Ã©
Ġcir cul
ti t
Ġs il
atri ce
Ġn et
olog iques
us er
Ġconn aiss
Ġter r
Ġpe ur
Ġrel ations
ul ation
Ġinter ro
M P
Ġ... .
Ġdev ait
Ġ x
ĠintÃ© g
Ã¨ que
ie z
Ġf Ã©d
tiv itÃ©
ati fs
Ġpermet tent
ĠPh ili
ĠT u
o pÃ©
Ġcour t
Ġprin cipe
Ġf es
en n
Ġsuiv ant
1 0
Ã§ ons
Ġautor itÃ©s
Ġan g
Ġfais ait
ĠÃ©v ent
Ġb le
k a
C I
Ġper d
c tr
Ġbles s
Ġutilis Ã©
ĠrÃ©f Ã©rence
Ġh or
Ġc y
Ġg az
onc er
Ġob s
ĠC ON
Ġv in
ĠDÃ© c
Ġprop res
ĠÃ©v olution
Ġcontin ue
Ġh ar
Ġfaci lement
ĠdÃ© sig
Ġst ock
Ġc ab
Ġmag ni
Ġeffet s
Ġcompagn ie
ot te
Ġcha Ã®
ĠS es
Ã¨ tre
Ġpuiss ance
Ġpermet tra
Ġj oli
ne ur
tionn el
E L
ĠMont rÃ©al
Ġb ons
Ġmo bil
Ġdire ct
Ġch ance
ĠCh ine
Ġc ru
l ation
ĠcaractÃ© ris
ens es
Ġpublic s
ĠopÃ© ration
on ge
Ġb aisse
Ġfait es
ĠÃ©tudi ants
Ġcolle ction
Ġri ches
Ġmauv ais
Ġhistor ique
Ġajou tÃ©
Ġenv oy
ĠM me
ĠAu jourd
ap it
Ġpersonn ages
Ġou i
alis me
f e
Ġs oup
ct ures
Ġphy sique
ĠI I
ni es
ol as
Ġlog ici
ĠS te
Ġcon cep
g Ã©n
Ġcontin uer
Ġanci enne
h eur
Ã¨ ge
res ser
Ġb our
Ġpro xim
Ġfam ili
Ġparti s
Ġpro cÃ©
ob il
Ġal li
Ġpsy ch
ar a
ro y
Ġarri ver
Ġdis tin
ur ant
i Ã¨res
Ġs ent
Ġprom o
ais sent
ĠÃ® le
S E
Ġcour se
Ġminist Ã¨re
Ġcap acitÃ©
ĠA U
Ġbure au
Ġur b
Ġw eb
ĠcÃ© lÃ¨
Ġeffic ace
tiv al
Ġouver t
Ġsp or
ĠrÃ¨g les
Ġex cep
Ġf ron
aire ment
Ġre le
Ġre ti
Ġpa ix
Ġimp ression
ĠagrÃ© able
l ine
omm age
Ġre b
ĠN on
Ġdou ce
Ġqu ant
Ġqu elle
Ġus age
ĠmÃ©di as
Ġproxim itÃ©
ĠamÃ©ric aine
ĠintÃ© gra
Ġcaract Ã¨re
Ġpens er
as te
Ġha usse
Ġme illeurs
ite z
O I
Ġg agner
Ġconn aissance
Ġexe mp
Ġm u
Ġv ir
Ġv ites
am ment
Ġro y
Ġdisp ose
Ġdisc ours
ĠeuropÃ© en
ĠS ans
ure r
Ġ200 6
Ġsy mb
Ġinter net
que t
ĠsÃ© par
Ġb re
ĠH ar
Ġouv rage
Ġter mes
Ġv ra
Ġglo b
Ġm ic
Ã© ros
u p
er m
Ġh ier
Ġmoi tiÃ©
Q UE
Ġarch ite
ĠrÃ©alis Ã©
ĠEn tre
ĠM es
Ġs Ã©ri
du re
Ġremp lac
it Ã©e
ĠÃ©p is
Ġvale urs
Ġpart out
f t
Ġstru cture
as i
ĠM o
Ġfilm s
Ġ3 5
p ital
Ġpr on
di a
Ġparfait ement
Ġ5 00
alis Ã©
Ġconc urr
ĠMich el
Ġconse ils
Ġexc lus
ĠM ac
Ġno te
h i
alis er
Ġf oot
ĠM Ã©
ĠmÃ© can
ten ti
Ġarri Ã¨re
Ġch oc
ĠÃ©qui pes
ĠF ace
Ġrecher ches
Ġf it
Ġis lam
re ur
Ġb onnes
Ġappar tement
ĠÃ©val u
Ġach at
Ġâ Ģ
ig h
Ġdispon ibles
Ġvi a
m m
Ġmil itaire
Ġchau ff
ĠJoh n
Ġchois ir
ilos oph
ĠComm ission
ĠL ouis
ĠMar ie
ĠB on
ĠdÃ©fin i
b all
Ġvo ire
ĠF or
Ġle cture
Ġcomm erce
Ġatt endre
ve ux
ĠP er
ro is
Ġchamb res
Ġs an
ch Ã©e
en tis
ĠrÃ©se aux
Ã© tique
Ġl our
es se
Ġfa ible
Ġach eter
ib ilitÃ©
Ġqu anti
Ġcandid at
ch a
Ġ19 5
ĠtÃ©m oign
ĠÃ©duc ation
Ġmalad ie
ĠB ou
Ġalle mand
Ġdemand Ã©
ĠÃ©c ran
ĠE l
ĠrÃ©f lex
ĠcinÃ©m a
ĠÃ©le ctions
ti enne
Ġajou ter
Ġm and
Ġav ance
Ġm Ã©r
ĠmÃ©m oire
cu le
Ġprofessionn el
E T
Ġassur ance
g n
ĠR ussi
ĠS oci
ĠextÃ©ri eur
Ġca d
ĠÃ©tablis sement
Ġprincip al
ĠÃ©qui p
Ġg al
Ġpo ids
Ġv Ã©ri
Ġimport ance
Ġdeven u
Ġac quis
w e
Ġar mes
Ġpied s
Ġr yth
Ġcomp ter
ĠP aul
Ġsitu Ã©e
onne ur
Ġpour rez
ĠapprÃ© ci
ĠÃ©g lise
Ġat ti
Ġapp elle
Ġtrava ill
Ġsal on
Ġp ages
v itÃ©
ĠM us
Ġapp orter
est ation
Ġg oÃ»t
ib li
ĠprÃ©c ise
C h
it y
Ġm aire
p ort
ĠB eau
Ġvi eux
i Ã©s
C H
Ġ200 0
Ġappro che
Ġpe in
Ġav oc
v age
ĠM er
Ġuti lise
pr en
Ġconten u
Ġvicti mes
Ġpuis se
Ġcher cher
Ġpre uve
ĠÃ©le ctr
Ġconsomm ation
Ġmo teur
Ġconcer ne
Ġatta que
Ġchois i
Ġparc ours
Ġj uri
Ġf ich
ient Ã´t
ou re
Ġins pi
Ġtota lement
it ent
Ġconv ain
Ġen ne
ru p
Ġ ital
Ġsoi rÃ©e
Ġa f
Ġsep t
Ġunique ment
Ġesti me
Ġs tu
enti elle
Ġgar anti
t an
ic k
ĠPar ti
Ġabs ence
Ġmari age
ĠreprÃ©sent e
Ġcro ire
ul ture
Ġconte xte
Ġparta ge
ul aire
Ġoff rir
Ġ7 0
ĠA lex
Ġdi z
Ġc ath
Ġatte indre
Ġh yp
e x
Ġin tro
Ġaj oute
tionn elle
Ġsouhait e
ch ir
or ta
Ġso ins
ĠV er
ĠlÃ©g is
Ġpersonn age
Ġrais ons
Ġris ques
Ġcapit ale
Ġmes sage
Ġcomm ission
Ġv olu
Ġai mer
ĠÃ©v o
Ġc ouv
Ġsuff it
ĠS Ã©
f ication
Ġlet tre
Ã©r ant
Ġopp osition
Ġinn ov
ĠprÃ©sent er
Ġd ynam
ĠNic olas
E n
D I
Ġpap ier
Ġn ul
Ġpo tenti
Ġtemp Ã©ra
Ġcontr Ã´
Ġmag as
ĠÃ©c r
Ġvo te
Ġm ur
ĠG ran
Ġsouv enir
Ġ200 5
ri ce
Ġmont ant
Ġord in
Ġnature lle
Ġpubli Ã©
Ġanci ens
n a
Ġr endu
Ġren dez
Ġfor mes
Ġph ilosoph
Ġb a
Ġren se
Ġdev oir
Ãª t
ag ue
ĠamÃ©li orer
Ġp au
Ġk il
Ġobjet s
O P
res si
ĠcrÃ© Ã©
Ġcol on
Ġposs Ã¨de
Ġhum an
Ġcommun es
u me
ĠdÃ©c is
Ġautom atique
R I
Ġesp Ã¨re
ad er
Ġfav oris
ĠÃ©qu ilib
ĠItal ie
Ġpropos er
ĠÃ© li
Ġloc aux
Ġch in
Ġfil les
ĠÃ©ch app
Ġti ent
ci ences
Ġhau teur
ĠfÃ© min
ĠprÃ©v u
Ġreven ir
Ġtrava ille
Ġvis age
Ġjus tif
Ġdi min
r un
Ġquel qu
Ġutilis ateurs
ĠÃ©c ou
A P
ĠVo tre
Ġpay er
onom ie
Ġanim aux
m ont
Ġb ata
ĠT ur
ĠdÃ©velopp er
Ġacc ro
U S
b ourg
m ine
ĠRussi e
ĠC OM
c ar
Ġoeu vre
ig e
ras se
Ġdess us
Ġnav ig
Ġ4 5
Ġcommen cÃ©
ra ges
Ġconc ent
ĠrÃ© cu
Ġpuis qu
Ġmar chÃ©s
Ġfav or
Ġfait e
ĠCha que
Ġh iver
Ġcoup le
Ġense ignement
Ġpres sion
Ġimp ossi
Ġb anc
as ser
ĠMar c
Ġatte int
ĠR a
Ġm ent
ĠA ff
Ġtend ance
ou er
ur ation
il an
ĠÃ©v olu
ĠQ ui
tÃ© gie
Ġparta ger
ang Ã©
l ait
ĠgÃ©nÃ©ra lement
Ġconte mp
o o
ĠCh ris
ĠL ES
Ġph Ã©n
Ġoutil s
Ġpan ier
Ġaff ec
Ġj a
ĠA F
Ġf aute
Ġser vir
ĠG ar
Ġcir cons
Ġwe ek
Ġrev anche
Ġcal cul
Ġtrib un
ĠB an
Ġsol d
Ġex ac
ĠC ont
ang es
ĠnÃ©cess aires
Ġprof ond
Ġpour raient
Ġbud get
g ues
Ġmo b
Ġmus ic
Ġtransp ort
Ġpra ti
Ġindustri e
Ġten u
Ġme ur
Ġfr Ã¨re
Ġveu lent
Ġprof onde
Ġvites se
Ġrespons abilitÃ©
ĠdÃ©p end
Ġent endu
l itÃ©
ie ment
Ġent endre
Ġf urent
Ġv ain
Ġpro l
Ġent our
Ġh uit
i ve
ous se
Ġper man
Ġindi que
Ġcon dition
del Ãł
Ġt enir
ĠM in
Ġt Ã´t
Ġsur face
Ġh onneur
rÃ© taire
d s
Ġin ten
oin dre
ĠT our
ĠrÃ©guli Ã¨rement
Ġju di
Ġf ant
Ġam Ã©n
ĠO N
ĠM or
ĠEsp agne
Ġm orts
Ġpro ches
ĠC entre
Ġs olutions
Ġp Ã©d
Ġenreg istre
s ant
Ġb rit
Ġartis tes
Ġrel ative
Ġac cessi
ĠS eu
A M
Ã´ ne
Ġver t
Ġdisp osi
Ġv end
ĠA g
J e
bo ok
Ġmont rer
o ch
onn Ã©e
l l
ari at
ĠdÃ©m ont
Ġenv is
1 5
ĠÃ© lo
Ġren ouv
ĠprÃª t
Ġcon j
Ġb ientÃ´t
ĠrÃ©du ire
Ġabs olu
Ġmor ce
z z
Ġl u
Ġpri m
Ġenc our
ĠdiffÃ©r ence
Ġlar gement
ul er
Ġc m
Ġcitoy ens
ĠCh rist
Ġen j
Ġimp os
Ġsc Ã©n
Ġch an
Ġexist ence
f iques
du ire
Ġb ran
Ġti tres
Ġsoci Ã©tÃ©s
Ġc os
Ġving t
Ġsatis f
Ġ9 0
Ã© t
Ġcro y
ari o
Ġfig ure
o lique
ĠJ u
Ġsalari Ã©s
ti ens
l aire
n Ã©s
ĠE m
Ġad ul
Ġfra pp
m ant
ri d
Ġmondi al
Ġinter prÃ©
Ġjourn al
ĠR ou
Ġg o
ol y
Ġall ait
Ġmilli ers
ĠPhili ppe
Ġobjec tifs
Ġt es
Ġnouv el
Ġgam me
Ġexerci ce
ĠintÃ©rÃª ts
1 2
ĠL ond
and es
ĠphÃ©n om
Ġqu asi
Ġ ign
Ġz ones
Ġtou che
Ġhui le
Ġl ignes
Ġcri tique
Ġcons cience
Ġparticip er
ign er
Ġc Ã©rÃ©
Ġd os
Ġt Ã¢
le y
Ġcour ant
t rÃ©
Ġappare il
ĠÃ©p re
u els
Ġlanc Ã©
ĠÃ©ta pe
ĠÃ©conom iques
ten ces
Ġpriv il
ĠdÃ©ta ils
Ġran g
Ġcoup s
Ġp ois
olog ies
Ġa ra
us tra
Ġcan adi
b y
Ġstra tÃ©gie
qu Ã©es
l Ã©s
ograph ique
ĠÃ©vÃ© nement
Ġclas sique
Ġtrouve rez
lÃ¨ ve
Ġsyst Ã¨mes
Ġpoli ci
Ġch ant
Ġpro s
Ġb ande
ĠrÃ©g ions
ĠsiÃ¨ ge
f Ã©
Ġprincip aux
ĠÃ© mo
Ġstra tÃ©g
Ġvis ion
ĠÃ©tran ger
Ġf us
Ġentre tien
Ġdess in
ĠE c
ann ique
Ġrapp elle
ce mment
Ġsour ces
Ġmar ch
Ġchiff re
Ġqu in
Ġs igne
ĠUnivers itÃ©
Ġh os
Ġparticip ation
tionn aire
Ġkil om
ar ch
ĠÃ© l
Ġdocu ments
ĠG en
Ġ os
as tique
Ġb elles
ĠÃ©c oles
ĠcomplÃ¨ tement
Ġfor cÃ©
Ġtar if
Ġpris on
ĠnÃ© anmoins
Ġv iennent
er g
Ġexp osition
Ġfonction s
ĠY ork
Ġref us
f ond
uis se
Ġacc us
Ġdisc ussi
Ġt re
Ġmod Ã¨les
Ġfa veur
Ġav anc
Ġvoul u
ve ille
Ġco ord
ĠM i
a tement
Ġappel Ã©
Ġspecta cle
Ġgard er
Ġv ent
ĠmaÃ® tre
Ġ3 6
Ġp Ãª
gl ise
m ation
Ġ tis
Ġco Ã»t
ou e
Ã ¼
Ġch rÃ©
ol d
Ġexp ression
Ġbon heur
ĠcÃ©lÃ¨ bre
Ġsau f
au de
di ction
Ġpoursu iv
ĠÃ©cri v
ter re
n Ã©e
ab il
ĠCerta ins
Ġneu f
ĠG al
Ġper dre
ir ent
ĠmaÃ® tr
Ġprov o
ĠH e
Ġ19 3
ĠCh e
ĠS ta
Ġrec ue
Ġexp lic
ous s
Ġsupp ort
Ġsoli d
ĠS ec
Ġmic ro
ĠdÃ© r
Ġcandid ats
Ġretra ite
ĠR D
Ġappr endre
ĠIs ra
Ġop in
iv es
Ġret ourn
og le
Ġau teurs
Ġla c
at t
Ġenti Ã¨rement
Ġparten aires
aul t
in tes
c al
mo ine
ĠM erci
Ã©r ences
ĠDa vid
Ġdifficul tÃ©s
Ġcla ir
Ġopp os
Ġac te
ĠB ern
Ã©ra p
Ġm anger
Ġh on
ĠprÃ©sent Ã©
ĠthÃ© Ã¢tre
Ġtex tes
Ġexplo itation
Ġnum Ã©rique
c a
Ġex er
Ġfac il
Ġfaud ra
ĠH en
Ġeng age
Ġsp ort
ĠÃ©le ction
Ġm Ã©n
ĠD ire
Ġidenti tÃ©
Ġcentra le
Ġfonction nement
ou reux
ĠR E
ĠrÃ©cu pÃ©
ĠPrÃ© sident
Ġaur aient
ionn at
en ez
1 8
Ġre qu
ĠC rÃ©
ĠD Ã¨s
ĠLors que
Ġ200 4
our ir
oi ci
ĠsupÃ©ri eur
ge ments
Ġrep as
si ques
te ments
Ġpo se
Ġat tra
rais on
Ġco opÃ©
Ġartis te
Ġcommen cer
ĠdÃ©p lace
Ġviol ence
ĠS am
Ġinter ven
Ġinter vention
Ġpau vre
Ġb oule
ur a
ĠÃ©vÃ© nements
ĠP AR
ĠC as
Ġf Ãªte
is se
Ġfru its
ĠopÃ©ra tions
Ġconstitu e
ĠX V
tis me
ĠA vant
Ġfab ric
ĠCha mp
ĠarrÃª t
ri mer
Ġco in
ĠV ille
ĠP endant
ĠÃ© m
ĠE d
ĠGe or
au tes
dess ous
Ġdis cip
ĠchaÃ® ne
Ġsoci ales
ĠBel gique
ĠÃ©t end
ci d
Ġconc ours
Ġesp oir
R ES
it ter
Ġfin al
ĠQu ant
Ġal tern
ag nes
u ff
ĠvÃ©r itÃ©
ĠespÃ¨ ce
O T
ĠidÃ© al
Ġsenti ment
Ġ3 2
ĠfrÃ© qu
Ġdi men
Ġreven us
Ġl ic
Ġrespons ables
Ġvo ilÃł
Ġv oud
Ġp isc
Ġaugment ation
ĠPre mier
Ġav ions
Ġmagni fique
g i
ĠR Ã©s
Ġn aissance
on ie
Ã® te
mon ie
Ġgra ph
ĠdÃ©couver te
ĠrÃ© pÃ©
l age
Ġag ence
ĠdÃ©c or
de ur
Ġins crit
ĠAm Ã©rique
Ġre mb
Ġins cri
Ġprofessionn elle
Ġche veux
Ġenreg ist
c r
Ġeff orts
h ors
fi ce
ĠJ apon
ĠcompÃ© tences
Ġpopul aire
Ġouv rir
Ġmus ul
ĠmÃ©l ange
m Ã©es
Ġrev ient
ĠcomplÃ¨ te
Ġcommuni quÃ©
ĠmatÃ©ri el
ĠJac ques
Ġconsid Ã©ra
Ġb us
Ġcap able
al d
igne ur
Ġnature l
Ġf en
Ġl ende
ĠrÃ© el
Ġpour ront
ĠD onc
Ġprob ablement
Ġsus p
Ġth Ã¨me
Ġche val
Ġpris es
in et
ĠN ouv
Ġmis es
Ġlim ite
ĠChar les
ĠU N
v ient
am es
Ġprogram mes
Ġeng agement
Ġprincip ale
Ġcomp li
Ġper te
Ġser aient
U I
oule z
Ġmoder ne
Ġdist ance
Ġjudi ci
Ġs om
Ġsta tion
Ġiss ue
Ġa per
Ġcomp lÃ©
Ġmaxim um
ĠP a
Ġci el
ĠrÃ© cemment
ass Ã©
ĠR om
Ġfin ancement
1 4
t y
Ġmais ons
Ġpri vÃ©
Ġgratu it
Ġprincip alement
k s
Ġgar an
un g
Ġdivers es
onn Ã©es
ĠR Ã©g
Ġpass ant
Ġfin i
o ff
Ġh as
Ġfut ur
Ġrec ru
Ġatt ribu
ĠT ru
ĠcÃ´ tÃ©s
Ġactu el
ĠmÃ©dec in
Ġind isp
p el
ĠP al
ĠA cc
ĠÃ©lect or
Ġcomp let
ĠÃ¢ me
ĠD om
Ġt or
Ġpar lement
ĠdÃ© di
Ġ ul
mi di
Ġavant age
ĠC al
ĠÃ©vi demment
Ġpar is
ĠV i
Ġaccomp agn
Ġimpossi ble
ĠprotÃ© ger
Ġhy d
ĠD el
ĠE mp
Ġtra duction
f orme
ĠÃ©ch ange
d is
ĠG ra
ri ch
Ġch Ã¢teau
Ġoub lier
ĠB our
Ġ3 00
ĠÃ© lÃ©ment
v el
Ġad vers
Ġl iens
Ġessenti el
T S
or ies
Ġlende main
Ġimp act
Ġri che
Ġconf ort
ub lic
Ġactu elle
uc lÃ©
Ġl ance
heure usement
Ġunivers itÃ©
n ous
ĠÃ© lab
ĠB ra
ĠLond res
le terre
on ce
m Ãªmes
Ġsujet s
Ġconf Ã©rence
al ise
Ġconstru ire
Ġf oi
Ġa Ã©ro
Ġlesqu els
ĠN ation
b ert
ĠC oupe
Ġprov ince
ĠtÃ©lÃ© vision
S I
ĠdÃ© l
Ġra c
Ġtable au
ĠÃ© mission
Ġcon ven
Ġban que
Ġrece voir
ĠrÃ©f orme
Ġtyp es
ĠpÃ© tro
alis Ã©e
Ġdeme ure
ĠL u
ĠGo ogle
Ġpl ans
A B
Ġch ron
v Ã©es
Ġv aut
Ġinvestis sement
Ġb ra
ĠF er
ĠcatÃ©g orie
is Ã©e
Ġregard er
ĠprÃ© t
ĠA ir
ur g
n ie
ĠmÃ©th ode
Ġpor tes
Ġexp l
Ġlog ique
Ġpens Ã©e
Ġp en
ĠSar k
Ã¨ tes
ĠW eb
ĠÃ©le vÃ©
Ġhum aine
ti g
ĠN Ã©
i z
Ġouver te
Ġh Ã©b
Ġerre ur
Ġdom icile
Ġcontemp or
Ġpos er
Ġpubli ques
Ġb ain
tu e
Ġseul s
Ġve ille
Ġprofes seur
ĠÃ©li min
Ġaur ont
Ġnomm Ã©
ĠL igue
Ġsign al
1 1
Ġde hors
ĠO ui
ĠPour tant
Ġinstall ation
Ġras semb
a w
Ġpat ron
Ġfond ament
Ġen tier
Ġpers pec
Ġg ri
Ġsec rÃ©taire
ĠToute fois
Ġpar ole
ver se
i Ã©e
iss ait
Ġinf Ã©ri
Ġal er
Ġdes ign
est er
Ġdev raient
ag og
Ġti ers
Ġe ut
Ġcar tes
Ġfall ait
Ġv entes
ĠrÃ©alis ation
u tÃ©s
ĠÃ©cri re
ĠMal grÃ©
ĠmÃ© tro
Ġch asse
Ġmil itaires
Ġl ancer
Ġac qu
Ġrem ont
Ġlaiss Ã©
ĠrÃ©un ion
9 0
Ġam en
Ġpati ents
un is
ĠA C
ĠprÃ©sent s
o ts
ĠpropriÃ© taire
o il
or tement
Ġob tenu
Ġmo indre
ibli oth
Ġpropri Ã©tÃ©
ĠL Ã©
ĠT V
Ġf ar
ĠPar mi
Ġinflu ence
ĠvÃ©hic ule
Ġst and
ĠAng leterre
Ġesp agn
ĠprocÃ© dure
f r
Ġch aud
Ġchiff res
ĠV oici
Ġciv il
ĠdÃ© ch
Ġquanti tÃ©
Ġexpli quer
Ġmer ci
Ġamb iance
ĠC am
Ġra cont
ĠP C
ĠdÃ© tru
Ġpisc ine
ĠarrÃª tÃ©
ĠrÃ© ac
Ġkilom Ã¨tres
ĠV oir
Ġass is
Ġt op
Ġaffir me
Ġc re
Ġrapp ro
AI RE
Ġm ig
Ġso in
Ġcomp lÃ©ment
ĠÃ© lu
ĠAs semblÃ©e
Ġp Ã¢
oz y
ĠHol lande
Ġa mp
s ons
Ġprof it
de m
Ġheure ux
Ġstatu t
Ġclas sement
ĠÃ© mer
ĠS tra
Ġlet tres
ux e
Ġbeau tÃ©
Ġexpli quÃ©
Ġex pÃ©
ĠdÃ©ci de
Ġeng ag
um Ã©
ou b
Ġvicti me
Ġcap ital
Ġhum ain
Ġavent ure
ag ers
Ġf re
Ġjou Ã©
ĠconsÃ©qu ences
ta b
Ġc rit
Ġempl ois
1 7
Ġcon ver
Ġf ront
s te
Ġv ill
m age
es ti
Ġorigin al
Ġin gÃ©n
a x
ĠÃ© lus
ux elles
ĠRob ert
ĠB as
c in
Ã ĥ
ĠJ uli
I ER
P our
Ġp ur
Ġreg r
I V
Ġoff res
Ġph ase
Ġchar gÃ©
ĠarrÃª ter
rÃ©s il
Ġenv ers
ĠPar lement
ĠprÃ©sid entielle
Ġsur prise
k ing
Ġten ue
r itÃ©
Ġindi c
Ġimm obil
ter ie
v ait
Ġfinanci Ã¨re
Ġryth me
ĠrÃ©ser ve
Ġentre r
ĠGran de
Ġpatri moine
Ġmom ents
ĠbÃ¢ti ment
Ġ200 3
Ġrec ours
ĠprÃ© ser
g Ã©es
Ġbou che
Ġp ont
Ġmach ine
ĠprÃ©par ation
os t
ten us
Ġdirige ants
ĠtÃ©lÃ© char
ĠMon sieur
ĠB o
Ġcomp tes
Ġnive aux
Ġalle z
Ġouv re
Ġd ange
ĠNo Ã«l
l at
ĠrÃª ve
an ne
Ġdisp os
Ġc itÃ©
Ġn uclÃ©
os ph
ĠC ap
Ġassoci ations
Ġen ch
Ġeffectu er
Ġdev ra
ĠÃ ĩ
Ġtribun al
ĠCel ui
Ġemp run
Ġb Ã©b
Ġser t
ĠS Ã©n
re ts
Ġcertaine ment
Ġf id
S T
Ġscientif ique
Ġloc al
Ġad j
Ġre mer
Ġimport ants
t ons
Ġt ur
Ġvoul oir
Ġchans on
ph e
Ġessay er
ĠÃī c
ĠMar tin
ĠÃ© che
ph one
ra y
Ġindisp ens
Ġproc Ã¨s
Ġar gu
ĠPri x
Ġsuiv ante
Ġrest ent
ĠSark ozy
ĠÃ© mis
ĠF ond
ĠdÃ©f ait
ĠL yon
Ġm ine
ĠFace book
Ġun itÃ©
ĠG Ã©n
Ġm ou
Ġtoi le
us ses
ien nes
ort un
Ġreven u
c te
Ġbe aux
Ġsignif ie
ces sion
ĠP ays
in o
Ġ19 2
Ġcomp orte
ĠH ist
Ġpouv ons
Ġtechn ologie
ĠD on
Ġaut oritÃ©
ic ations
Ġimp li
ow s
g o
g on
Ġconn aÃ®t
ĠBr uxelles
Ġtran qu
Ġfoot ball
Ġca de
Ġb ac
Ġcha uss
Ġter rasse
Ġcl airement
Ġven u
4 0
Ġbien s
titu tion
ĠH er
Ġrep os
or table
ĠN os
ĠM ag
Ġdo ig
Ġaugment er
ĠÃ©g ard
u il
Ġur gence
Ġri vi
ri ques
ĠrÃ©du ction
Ġbata ille
a f
Ġm ille
Ġam ende
lic itÃ©
ĠF re
Ġquit ter
ĠprÃ©p arer
1 6
ĠAu c
ĠvÃ©hic ules
ĠMais on
Ġta x
ĠmÃ© tier
Ġaut o
an ie
ĠdÃ©mar che
ori z
ĠÃ© vid
Ġfr om
ĠÃ©lÃ¨ ve
ĠT rois
Ġ200 2
Ġat ten
Ġjeunes se
atri Ã¨me
iv al
Ġcomm er
k y
ĠexpÃ©ri ment
Ġchin ois
ĠÅĵu vres
ĠS uisse
Ã©lÃ© b
n ant
Ġpropos Ã©
p ri
Ġsu g
s h
n o
ĠcompÃ© tition
ĠLe ur
ĠCh amb
ta ient
ĠJ Ã©s
de ment
ĠTr ans
Ġcom itÃ©
ĠforcÃ© ment
Ġloc ales
Ġ3 3
Ġou est
Ġcompr en
ĠimmÃ©di atement
ten ue
ĠA li
Ġconse iller
O C
Ġai d
ĠrÃ¨g le
ĠIsra Ã«l
Ġprop osition
ĠA N
Ġpl at
Ġbrit annique
Ġs ing
ĠT w
Ġra dio
ĠTr Ã¨s
Ġla it
Ġabsolu ment
Ġra y
Ġt ap
Ġb ate
ĠÃ© dite
ĠeuropÃ© ens
Ġinqui Ã©
Ġminim um
Ġli qui
ĠdÃ©f aut
Ġperform ance
ĠC Ã´
Ġas si
Ġpl aces
Ġau rez
ĠprÃ©sent ation
Ġvi de
Ġcollab or
Ġtent er
Ġo re
Ã® t
ĠrÃ© d
ĠpÃª che
ĠrÃ©flex ion
Ġloc ation
es s
Ġcont rib
ĠU E
ĠGr Ã¢ce
w s
Ġfes tival
ra le
Ġd on
Ġsur veill
Ġannon ces
ĠB al
Ġsur v
ĠP at
ĠcrÃ© dit
Ġpas sionn
Ġrej oindre
Ġver re
Ġrencont res
Ġav ion
Ġsom met
k er
Ġtri m
Ġd oule
ob ile
d om
ta tions
Ġv oulez
u ves
ĠÃ©tablis sements
f ort
Ġobser v
ti an
ĠSer vi
Ã©ra le
i ant
Ġexam en
Ġimp res
ĠPour quoi
Ġdis cu
ol a
Ġdom in
Ġemb ar
ĠJ eux
ĠÃĩ a
ĠhÃ´ pital
Ġvoyage urs
Ã´ ts
Ġr usse
ro g
Ġsou mis
Ġcomment aires
Ġaff ich
m atiques
Ġvoul ait
Ġbl oc
ĠÃ©trang ers
ĠH am
Ġtrouv ent
Ġcondu it
Ġmodi fier
Ġfa me
ie use
Ġtra itÃ©
Ġpri vÃ©e
ĠÃ©c oute
he im
Ġappr entis
y e
Ġphot ograph
Ġsymp ath
ĠgÃ©nÃ©ra tion
I l
Ġsold ats
ĠL o
Ġt ab
ĠÃ©lect rique
Ġfa ibles
Ġf as
Ġc Ã©lÃ©b
Ġcomp osÃ©
p in
Ġimport antes
Ġfor tement
Ġlogici el
con te
Ġac cident
Ġrapp orts
Ġs it
ci ens
olog ue
tiv itÃ©s
oc cu
ĠÃ©ch elle
Ġg agn
un er
ĠreprÃ©sent ant
Ġexp os
Ġse xe
ĠA P
Ġcer tif
ĠV in
Ġp are
ĠA R
tru ction
ĠtempÃ©ra ture
ĠP ers
1 3
Ġ201 8
ill Ã©e
Ġcel lu
Ġfle urs
li ge
Ġpl age
ric itÃ©
Ġj ur
d on
Ġp ierre
Ġsoulig ne
ay e
Ġrepr endre
Ġm ens
ĠrÃ©g lement
Ġp Ã©r
Ġpor tÃ©e
ĠJÃ©s us
Ġprivil Ã©g
Ġca fÃ©
Ġg lis
Ġesp aces
ĠR o
ĠnÃ©cess itÃ©
lus ion
ĠM c
est ations
ĠAss oci
8 0
ĠR et
Ġmes s
ort h
Ġfran co
Ġcent aines
ĠespÃ¨ ces
Ġvo c
Ġble u
ĠdÃ© lai
Ġfourn is
ĠÃ©crit ure
Ġmo des
Ġac tes
Q U
igne ments
Ġrece ttes
ĠTou tes
ĠâĢ ¢
ta gne
Ġvra ie
Ġde main
tis sement
Ġcomm is
Ġj apon
Ã© qu
Ġl is
Ġqu atriÃ¨me
Ġas pect
u Ã©
Ġc oupe
Ġconf lit
ti Ã¨res
ĠÃ©valu ation
Ġbu ts
Ġrencont rer
Ġban ques
Ġciv ile
Ġaux qu
mi ques
Ã¨ che
Ġpro ven
at oires
Ġgra ve
Ġa Ã©ri
ĠdÃ©p enses
ĠdÃ© si
ĠJ o
al lÃ¨
Ġre mettre
t ta
Ġh er
b lement
ĠT er
Ġsta de
s Ã©e
t ers
Ġrece tte
b Ã©
Ġconf ront
Ġnom s
p ire
Ġtra ite
Ġfor um
Ġse ction
Ġ200 1
Ġpas sion
Ã¨ ce
Ġsim il
Ġvolu me
Ġsou tenir
Ġv Ã©g
ĠsupplÃ©ment aires
Ġordin ateur
Ġappar aÃ®t
o od
Ġ19 0
Ġlesqu elles
Ġe aux
Ġcon ception
Ġpolici ers
ĠvidÃ© os
AN T
Ġd anger
Ġloc ale
Ġra conte
i ale
ĠdÃ©couver t
Ġdisp ositions
v aux
ĠrÃ©f lÃ©
and er
Ġm am
Ġd ic
ĠAF P
ĠempÃª cher
Ġre prises
Ġren v
Ġsau ve
Ġfro id
Ġdis que
Ġdom aines
ĠL i
land ais
Ġtomb er
Ġb omb
Ġdiv er
ne y
Ġoc cident
ĠdÃ©p lac
Ġmauv aise
Ġfor Ãªt
Ġhyp oth
Ġchamp ionnat
ouv rez
Ġeffic acitÃ©
Ġdur able
h Ã©r
ĠC ro
m un
Ġre mis
Ġtota le
Ġ15 0
Ġ #
Ġterr oris
Ġarri vÃ©
rÃ© h
Ġdisposi tif
ĠS c
Ġconcep t
y st
Ġch apit
Ġdifficul tÃ©
ĠSoci Ã©tÃ©
ĠS an
ĠB ro
x ion
ĠintÃ©ress ant
Ġrec ord
Ġre prise
ĠPlus ieurs
Ġm asse
ĠQuel ques
Ġsu cre
Ġrece v
ĠdÃ© lic
r en
l og
Ġret ard
um er
Ġopp ortun
Ġc ant
Ġchange ments
onn Ã©s
ĠW i
Ġmus Ã©e
Ġche fs
ou Ã©
Ġmouve ments
c Ã©e
Ġconnaiss ances
ĠT oul
ven u
Ġmar ques
Ġinstitu tions
ci pÃ©
Ġfra g
Ġtomb e
v in
Ġb ilan
Ġir rÃ©
ig u
or es
Ġmont agne
Ġform at
Ġvi ce
Ġhabitu de
ĠIns titu
Ġpouv ant
ĠdÃ©b ar
ĠsupÃ©ri eure
lique z
ch Ã©es
itu de
Ġinter n
Ġti rer
Ġb ais
ĠhÃ©b er
Ġrelig ion
ĠV ic
Ġt ente
Ġprodu ire
Ġpor tÃ©
fi Ã©
ĠG re
Ġmand at
Ġsub s
g a
Ġcomplex e
Ġinstal ler
Ġch ute
Ġd ois
p it
Ġm eu
di ens
ric k
p ro
Ġs ciences
ĠÃ©c la
Ġcir cu
Ġde vez
au ff
ĠA D
ĠK ar
Ġemploy Ã©s
ĠMar se
ĠprÃ© occu
ĠPR O
h am
Ġapp ris
ĠlÃ©g Ã¨rement
ĠM as
a illes
ĠV I
Ã©m ie
Ġaur ais
Ġno ter
ĠP L
and re
Ġfab ri
oc ation
ĠO p
Ġpoursu ivre
Ġaf ric
Ġc rain
Ã Ī
Ġj oie
ĠC ong
ol ue
ber g
ne au
n Ã©es
ĠC D
in ique
Ġjourn aliste
ĠR ich
ol s
R AN
ing ton
Ġsecond es
ĠgÃ©n Ã©
Ġreconn u
ĠL ire
Ġcomp ortement
Ġconcurr ence
Ġport ant
ĠR ome
Ã©ri r
i h
Ġj ui
id itÃ©
ro its
ĠT erre
a taire
Ġ3 4
s ur
Ġh i
ĠM os
Ġiniti ative
Ġmo tiv
ĠbÃ©nÃ©fici er
Ġrenouv el
ĠlÃ©g iti
Ġchale ur
l Ã©es
Ġopin ion
Ġman i
Ġavoc at
ĠdÃ©mocra tie
Ġs cience
Ġpos t
it a
Ġconc ert
ĠÃ©quilib re
Ġchamp ion
ĠI mp
tri ce
Ã´ mage
alis Ã©s
Ġprin temps
ĠC onc
Ġmultip les
os se
Ġjourn alistes
Ġatt ent
Ġcont ent
Ġcircons t
ra t
Ġag ir
ta il
Ġtrava illeurs
Ġexp erts
Ġcondu ite
ti ble
m ans
Ġvis iter
ĠÃ©ch anges
Ġscol aire
Ġag ents
ĠlÃ©gis l
ĠS A
oi le
m ie
ĠRD V
Ġson d
all Ã©e
ĠdÃ©cis ions
Ġsal les
Ġdistribu tion
ur Ã©e
ĠCon f
Ġconn ais
Ġapp orte
par ole
ĠamÃ©ric ains
u elles
Ãªte ments
Ġscientif iques
ĠdÃ©p utÃ©
Ġo ise
T C
Ġassur Ã©
Ġsec ret
Ġac teur
ons es
Ġinc ar
Ġvo ici
Ġtrans par
Ġsta tis
Ġuti le
Ġutilis ateur
M A
Ġti r
o tes
ĠÃ© par
Ġdynam ique
Ġv ise
e ction
Ġaff ront
ĠÃ©pis ode
Ġaccueill ir
Ġmil it
Ġra dic
ĠEn suite
Ġorganis ations
ist an
ĠC E
ĠS im
ĠF l
Ġvoit ures
Ġrec ons
ĠrÃ©v olution
Ã´ mes
ĠfranÃ§ais es
ĠN i
Ġau quel
AG E
ĠrÃ©p onses
ĠrÃ©s istance
lis ation
ĠO ff
Ġces se
ĠextrÃªme ment
Ġ7 5
Ġmin i
ĠA v
Ġbr Ã»
Ġin vent
d y
ĠdÃ©c la
Ġnet t
Ġra re
Ġjudici aire
Ġh Ã©ros
qu ait
d ie
ĠPar ce
Ġconne c
Ġfinanci ers
Ġgros ses
ĠdÃ©f endre
Ġpren nent
Ġcollab oration
ĠspÃ©ci fique
Ġpa iement
Ġprincip es
Ġdonn ent
ĠsÃ© ance
ra ine
ĠAl g
ro id
Ġp ure
ri ers
Ġcar b
ĠAn ne
ĠÃ©p ouse
Ġconser v
Ġp ire
l ut
Ġh an
ma il
Ġmain tenir
orm Ã©ment
m ise
ĠK e
Ġh oriz
Ġaffir mÃ©
Ġm ass
Ġimm ig
os itÃ©
our t
h o
Ġcons iste
ĠphÃ©nom Ã¨ne
I G
Ġall ons
ĠdÃ©j e
ri el
Ġg enti
Ġb ul
Ġsin on
Ġtra dition
Ġsu it
Ġj amb
Ġhum ains
Ġaccep ter
Ġcon tient
Ġf aux
il a
Ġaffi che
Ġpublic ation
Ġb lo
Ġrem ise
Ġfinanci er
Ã§ a
al le
Ġcent res
Ġcircul ation
Ġsign Ã©
ĠC A
Ġar me
pec ts
2 5
U L
Ġ4 00
Ġtal ent
om as
ill ant
ra k
Ġn ette
Ġp Ã¢te
ĠW e
Ġsimp les
Ġenv oyer
Ġconser ver
Ġch Ã´mage
ĠreprÃ©sent ants
mar t
Ġplan Ã¨te
ĠSy rie
ĠdÃ©b u
ĠÂ ²
Ġinc onn
Ġacc Ã©der
Ġs ouver
I B
Ġviv ant
l ure
r om
i tions
ĠE r
m s
ĠprÃ©cÃ©d ent
Ġal co
Ġpoin te
Ġproc Ã©d
ĠmÃ© tal
Ġcli mat
ĠprÃ©cis Ã©
ti mis
Ġtr uc
Ġgratu itement
Ġac cess
c y
Ġr ues
Ġmatch s
ĠgÃ© rer
ĠA V
is Ã©s
ĠdÃ©p utÃ©s
ign Ã©e
Ġbar re
ĠC ent
rup tion
Ġin tention
le ts
Ġ3 7
ĠBern ard
ol at
ĠI II
V ous
Ġf ile
Ġass ass
ĠM at
i al
Ġapp ui
ĠM A
ĠpÃ©d agog
Ġ4 8
f er
enti el
Ġad oles
Ġmob ile
ĠhÃ´ tes
ĠO li
Ġconsul ter
Ġpopul ations
Ġgui de
Ġmen ace
ĠdÃ©s ir
Ġcherche urs
Ġutilis ant
Ġau di
Ġconv ient
ĠD is
Ġli Ã©s
Ġvisite urs
igue ur
ĠÃ©pre uve
par avant
Ġimp ri
tra tion
ti es
Ġeff ort
Ġdis ait
T ER
ĠrÃ© ag
Ġab ou
Ġbl anche
Ġv aste
ven ue
ĠÃ©lectr onique
Ġmar quÃ©
ĠD er
Ġmont rÃ©
Ġrestaur ant
di enne
Ġmont er
Ġconse ill
Ġfourn ir
ĠrÃ©f ug
Ġra ss
Ġpol y
Ġfr Ã¨res
ul p
Ġmer veille
Ġtr oupes
Ġt rÃ©s
Ġconstru it
ĠM ic
Ġre li
me ub
Ġesti mÃ©
ĠlittÃ©ra ture
ĠdÃ©clar ation
ran ge
ĠNouv elle
ĠmÃ©th odes
ad is
ĠsÃ©ri eux
Ġapp uy
Ġdipl om
ĠRoy aume
Ġri g
Ġb y
Ġ rand
Ġch at
Ġ @
Ġinter ne
Ġbru it
Ġb all
Ġreconn aissance
Ġsil ence
Ã©d Ã©ration
Ġb iblioth
ĠV ers
ĠM ain
Ġtechn ologies
Ã©ri ques
Ġcrit Ã¨res
Ġcr Ã¨me
Ġinform atique
ub e
ĠA ra
Ġv igueur
Ġsit ue
Ġl Ã¢
P E
a el
cie use
ĠTru mp
ĠP or
ĠD ani
Ġin j
Ġbi o
Ġpoursu it
is tique
ist ant
tionn aires
Ġnour rit
Ã ¶
ĠÃ©tab li
Ġph ra
ve urs
Ġc lÃ©
Ġmilli on
Ġle cteur
Ġapplic ations
Ġprog rÃ¨s
c itÃ©
Ġlang ues
Ġb ro
Ġs Ã©n
ĠÃ©tab lir
Ġparti cipe
ĠM onde
u ellement
ĠrÃ©c it
Ġapp ari
Ġparti cipÃ©
ĠrÃ©du it
Ġimp rÃ©
Ġenf ance
j a
ĠP en
ĠA ussi
Ġacc ent
Ġad ore
ul Ã©
Ġmon u
Ġex ception
ais es
ĠVo ilÃł
Ġaj out
ĠS au
ĠAm Ã©ric
ĠcoÃ» ts
Ġdi alogue
ĠconsidÃ© rÃ©
r ants
ĠÃ©ta ge
6 0
Ġ 00
Ġrivi Ã¨re
Ġlong ues
Ġorganis Ã©
Ã©c ois
Ġal lÃ©
Ġpromo tion
Ġchac une
ĠP OUR
ĠvÃ© cu
Ġfin ir
Ġessenti ellement
Ġop tion
ĠD en
ti se
Ġremar qu
ĠcaractÃ©ris tiques
Ġrappel er
en tin
Ġmeille ures
ou dre
Ġen le
ĠAu tre
ri ent
ĠbÃ©b Ã©
Ġdeven ue
y r
Ġdu re
Ġcour age
Ġmen tionn
Ġlongue ur
ĠÃ©qu ival
Ġgaran tie
ĠPeu t
est es
bil itÃ©s
Ġsp ir
Ġpouvoir s
an es
ĠS ous
Ġsemb lent
ĠconsÃ©qu ence
Ġr ares
y d
Ġis ol
Ġm Ãª
Ġter res
d its
ĠrÃ© ellement
ta ine
Ġne ige
ĠV an
ign on
Ġprog ressi
ĠC N
Ġph ar
vid us
Ã© dÃ©
Ġmagas in
ĠMarse ille
Ġrespec ter
u k
ĠP i
Ġdis ent
m oi
ĠmÃ©dec ins
ĠÃ©c ar
M I
Ġun s
ĠT or
Ġai m
Ġgros se
ĠDÃ©c ouvrez
Ġjus tement
ĠcompÃ© ti
Ġexcell ent
Ġ3 8
ĠrÃ©uss ite
Ġindi vidus
c ou
ĠAl ain
qu ie
Ġno tes
Ġcri min
Ġdans e
Ġinc ont
Ġutilis Ã©s
Ġg are
Ġ199 9
Ġparticuli ers
Ġm m
ap tis
Ġin titu
ĠÃ©lÃ© g
ĠÃ© di
is sez
Ġatt endant
tien nent
Ġprincip ales
Ġcri tiques
Ġmen er
Ġapp ort
ĠhÃ©s itez
Ġdiff us
Ġqu Ã©b
ĠlÃ©g Ã¨re
Ġav er
Ġparticip ants
ata ires
ĠcompÃ© t
Ġdev ons
Ġmag az
ĠPro f
as tro
ta in
Ġanim al
Ġreg arde
Ġtourn er
Ġconf ortable
ĠL Ãł
ĠnÃ©goci ations
ens itÃ©
Ġle ader
II I
Ġcomment aire
Ġconsomm ateurs
P S
ra tions
Ġh e
ĠR h
Ġarb it
Ġvis ant
ing s
ĠrÃ©c omp
mi Ã¨re
era i
Ġrelig ieux
Ġm yth
Ġprol ong
Ġpein ture
Ġorganis me
c omm
Ġop timis
9 9
Ġm ix
Ã§ ait
et h
s tÃ©
Ġperform ances
Ġfaud rait
Ġmus ici
ĠF ab
Ġann ivers
ĠS ainte
ĠHen ri
ĠComm un
Ġd ig
j u
ĠrÃ¨g lement
cul aire
Ġaccomp agner
ĠG uerre
Ġrenfor cer
R O
Ġapprentis sage
Ġmati Ã¨res
Ġfra Ã®
Ġcomb ien
Ġsouhait ez
ĠS T
Ã© v
ales tin
Ġm urs
ĠLa urent
ĠprÃ©v oit
Ġacc Ã©lÃ©
Ġdou b
ouve au
Ġcer tes
Ġsuiv ants
o ient
Ġsour ire
Ġch angÃ©
ar y
Ġlang age
Ã©d ie
tu elle
Ġno ire
ĠAng el
ĠÅĵ il
ĠHist oire
Ġdiff usion
Ġsec teurs
ĠdÃ© rou
ĠreÃ§ oit
7 0
Ġparticuli Ã¨re
ĠindÃ©pend ance
ĠV ol
Ġpossi bles
ĠprÃ©v ue
Ġsitu ations
Ġpar aÃ®t
oy en
Ġgo Ã»
Ġjuri dique
Ġpos tes
ony me
Ġlim ites
ĠW ind
Ġdou x
Ġavant ages
ĠrÃ©c ol
ĠÃ© b
Ġprom en
ĠM oi
ĠrÃ©sid ence
Ġinscri re
Ġn ormes
Ġcomb in
ch on
g yp
Ġc lo
ĠJ ourn
id er
Ġcab inet
ĠexpÃ©ri ences
Ġliv raison
Ġdemand es
el d
Ġmat ern
Ġdes ser
Ġchans ons
Ġprop ositions
Ġentre pren
onn ant
Ġfron tiÃ¨re
Ġexp er
Ġmen tion
ĠcrÃ© e
Ġbas s
Ġatt ente
Ġclas ses
Ġarb res
Ġhan dic
ti le
gu Ã©
ot o
Ġan c
Ġce ci
Ġf ol
ĠP os
us te
ĠrÃ©f Ã©r
Ġtr ente
Ġexpri mer
Ġimpres sionn
Ġcollec tif
p t
Ġm ys
ĠthÃ© orie
Ġad ress
ĠmaÃ® tres
Ġs el
Ġv ar
ĠM et
Ġmorce aux
ĠP Ã©
Ġsau ver
Ġfeu illes
Ġpl antes
Ġde tte
Ġspir itu
ĠfrÃ© quent
Ġtrim estre
ĠrÃ©c lam
ol f
ĠÃ©c lai
l os
Ġ199 0
Ġexac tement
ĠdÃ©fin ition
Ġorganis er
Ġf ati
ĠBan que
Ġh ommage
Ġg rec
U N
ĠEx p
Ġcor rec
Ġproc ure
ĠÃ©lect ricitÃ©
A n
Ġro se
Ġform er
Ġh Ã©r
ĠentraÃ® neur
ĠS E
Ġbo Ã®te
ĠAssoci ation
Ġimm ense
ĠprÃ©cis Ã©ment
Ġexig e
l d
Ġc uri
re ction
ĠK h
Ġra l
ĠcoopÃ© ration
Ġaliment ation
n el
ĠTh Ã©
Ġcommerci al
ĠEm man
ĠÃ ¨
auv res
ĠA ux
Ġstru ctures
Ġutilis Ã©e
Ġfonction ne
Ġb oul
tu g
al i
ĠL uc
ras tru
Ġm ul
g ies
Ġc ens
Ġbas se
og ne
Ġr ond
Ġrev ue
Ġindispens able
r ine
ta bles
Ã© sie
Ġc yc
Ġpar oles
ĠÃ©g alitÃ©
Ġdiz aines
Ġsyn th
Ġinc roy
Ã´ les
ĠInstitu t
Ġplac Ã©
Ġsus cep
is mes
Ġsuffis amment
Ġ4 2
v o
w a
ĠÃ©trang Ã¨res
Ġminu te
Ġ ombre
ĠrÃ©p ublic
Ġdiv ision
ĠrÃ© ception
Ġrej oint
oir s
Ġterrit ori
av ier
Ġtra fic
Ġprop or
ra l
Ġpl ong
ĠdÃ©couv re
ĠprÃª ts
ĠeuropÃ© ennes
Ġim meub
Ġoccu pe
ĠO s
Ġp el
Ġv Ãªtements
orde aux
g in
Ã ¡
Ġappare ils
ĠT Ã©lÃ©
Ġs aint
Ġin ti
Ġall ant
y l
di er
Ġinter mÃ©di
Ã©g al
Ġcat alogue
ĠdÃ©v oil
Ġactu alitÃ©
eu e
au tÃ©
Ġ5 5
ĠD r
ĠcÃ´ te
ens er
Ġp ain
ĠdÃ©fin ir
ĠIn de
Ġenvoy Ã©
Ġappli quer
k in
oli e
ac itÃ©s
Ġfeu ille
Ġsoulig nÃ©
Ġtransp orts
Ġaut h
ĠnuclÃ© aire
ĠamÃ©li oration
Ġautom ne
ke ting
Ġparfait e
Ġdesc end
m osph
G E
agn os
Ġau paravant
Ġp iste
Ġdestin ation
p or
Ġp es
Ġsa ur
ĠaÃ©ro port
ĠCe ci
Ġannivers aire
ĠprÃ© al
ĠdÃ©c rit
ĠÃī glise
Ġv as
az z
Ġquar t
Ġhas ard
a ments
Ġsc and
ĠÃ© lar
ite ur
it ations
ĠTh omas
n ov
Ġmaj or
Ġfle ur
Ġp auvres
ĠJ ose
u mes
ĠspÃ©ci fiques
Ġg uer
ĠdÃ©p os
Ġenti Ã¨re
ĠA ustra
Ġenseign ants
om pe
ĠSu per
ĠF rÃ©
Ġdonn ant
ul g
ĠintÃ©gra tion
Ġimp oser
ff e
ĠR ec
Ġsurveill ance
l as
Ġcro it
ĠB ur
Ġul tra
Ġoblig ation
Ġsub st
Ġcouver ture
Ġ3 9
Ġnorm al
D F
ĠdÃ© ri
o ft
Ġmen ac
vie w
i as
Ġaccessi ble
Ġpar allÃ¨
Ġap os
ĠvÃ© lo
Ġrelative ment
si ve
Ġadul tes
ograph iques
p ol
ĠÃ©quipe ments
ĠdÃ© ser
Ġse rez
P A
ĠÃ©ner gÃ©
Ġchale ure
Ġac tifs
Ġt uer
Ġl y
pe au
ĠpropriÃ© taires
Ġminist res
Ġempl ace
Ġven ait
Ġmodi fication
Ġcentra l
Ġhuman itÃ©
ĠC eux
Ġpotenti el
Ġaut onom
Ġpar am
I F
vis ions
y a
Ġartis tique
igh t
ĠI ci
ĠTw itter
ter a
Ġlo gements
ĠdÃ©fait e
ĠB ay
Ġat mosph
ĠmÃ© da
ĠOb ama
Ġesc al
Ġalco ol
ĠconsÃ© quent
Ġti tu
Ġ4 4
Ġinstru ment
ĠÃ©che c
Ġ er
Å ¿
Ġis ra
cur itÃ©
I X
Åĵ urs
or ique
en ci
Ġprin ce
ch et
Ġappr end
ĠdÃ©c len
Ġcon Ã§
Ġmis sions
Ġmet tent
Ġin uti
Ġg agnÃ©
Ġdonn Ã©e
Ġconn ue
ĠP ort
Ġoblig atoire
Ġn Ã©e
Ġagric ulture
Ġenc ad
Ġl yc
Ġmon sieur
Ġr ub
ĠB rÃ©sil
b as
n om
Ġpar lÃ©
Ġcal end
ĠA sie
ĠrÃ©p u
ĠrÃ©v Ã¨le
ĠdÃ©je uner
Ġre lÃ¨ve
oly mp
Ġch ien
Ġreconn aÃ®tre
Ġchoc olat
Ġf an
che z
en tique
Ġatta ques
V E
Ġextra ord
ĠÃ©n orme
Ġcap acitÃ©s
Ġja une
ĠC elle
Ġinf rastru
Ġsc ore
ĠAlg Ã©rie
Ġex ten
Ġper tin
on te
ĠGr oupe
eu ille
Ġbar b
Ġchar ges
Ġsemb l
Ġtrava illÃ©
ĠdÃ©li v
Ġre pris
ĠMar oc
Ġcomm iss
ĠsupplÃ©ment aire
Ġra di
Ġarchite cture
ĠOu est
on ction
ill ard
fi ces
P ierre
Ġlab or
Ġinvestis sements
ĠBre f
ĠreprÃ©sent ent
Ġchar me
Ġpati ent
ĠI r
ĠbÃ¢ti ments
ĠMac ron
Ġm it
ĠmÃ©r ite
Ġch ante
d ation
Ġ olymp
Ġju gement
Ġparf um
k o
la h
Ġtou cher
OU S
lic ation
ĠG i
Ġprof il
di es
T RE
Ġsoci aliste
Ġsc ru
u tion
ag u
ĠR es
Ġmal adi
Ġ18 0
b on
Ġfacil iter
ĠW ash
Ġvie ille
ĠprÃ©occu p
Ġli Ã©es
Ġf ans
ĠdÃ©f end
Ġrepr end
Ġenne mi
Ġcon g
ĠdÃ©termin er
m itÃ©
ĠS in
Ġparten aire
Ġf ic
tin s
ĠexÃ©cu tion
Ġarr ond
ĠD an
Ġan ne
Ġsenti r
at ur
ĠrÃ© mun
ĠsiÃ¨ cles
Ġenj eux
Ġb eur
ĠdÃ©c Ã¨s
ta le
Ġcontra ts
Ġsc ulp
grÃ© di
Ġfi che
Ġimp ose
Ġimp Ã´t
ĠT ot
ĠrÃ© elle
Ġprov in
Ġpe int
Ã¨ vres
ĠAnd rÃ©
Ãª tres
Ġsy stÃ©
Ġcam Ã©ra
ĠspÃ©ci aliste
Ġi P
Ġprofonde ur
Ġpro je
Ġins cription
Ġplu ie
ĠCl aude
ĠvÃ©ri fier
Ġinv ite
Ġm ath
Ġfabric ation
ĠvÃ©r it
man n
Ġimmobil ier
ĠT ar
Ġai mÃ©
Ġri re
l aires
ĠD im
ic a
om Ã©
Ġouv rages
Ġr ur
Ġphilosoph ie
ĠdiffÃ©r ent
Ġhandic ap
Ġchapit re
Ġven us
ĠreprÃ©sent ation
ĠL iv
Ġres semb
Ġtourn Ã©e
Ġappari tion
di ques
ĠmaÃ®tr ise
au g
b i
Ġdimen sion
Ġfich iers
ĠJ ack
Ġcontin ent
Ġhist oires
Ġintern autes
Ġam oureux
ĠC O
ĠscÃ©n ario
Ġus ine
ve au
Ġin dem
Ġn ar
ĠAc tu
Ġcat astro
s a
Ġcapit aine
Ġappar tient
Ġdiz aine
fic ations
ĠX X
ĠWash ington
Ġhistor iques
Ġch ap
ente ment
ri en
ĠGr Ã¨ce
r omp
ĠÃ© pr
Ġfa Ã§
Ġb Ã©
ĠA h
Ġcol is
Ġf oule
ĠlÃ©g umes
B C
Ġpeup les
Ġen ce
ĠD ou
Ġann onc
g arde
ĠrÃ©alis Ã©e
ĠÃ© th
Ġsolid aritÃ©
Ġvois in
Ġbl an
ci de
ĠÃ©v Ãª
en a
Ġform ations
ĠB ordeaux
Ġc ris
r in
ĠÃ©vid ence
Ġne z
Ġmanifest ations
I R
ĠInter nation
Ġp omp
ĠdÃ© gra
IN E
Ġoffici el
ĠdÃ©c ret
Ġprim aire
Ġreg ret
Ġpossi bilitÃ©s
Ġinter dit
Ġven ue
Ġc ancer
b res
y m
Ġoffici elle
Ġinnov ation
Ġg uit
Ġstu dio
ĠprÃ©f Ã©rÃ©
ĠPe tit
Ġautre ment
Ġfourn it
in Ã©e
ĠH aute
t ants
ĠEn c
Ġblanc s
Ġvois ins
ĠBr un
Ġdoule ur
Ġsec ours
Ġjoli e
cr its
ouv oir
ĠD ra
ĠsÃ© qu
Ġmet tant
Ġcol Ã¨re
ĠdÃ©c ro
Ġ6 5
Ġcha mps
Ġ0 4
Ġb oute
Ġeffec tivement
Ġremp lace
Ġlib Ã©ra
us h
Ġconf ig
Ġform ule
Ġcomp ati
i mes
Ġest hÃ©
Ġmanifest ation
Ġcon qu
Ġmani pul
Ġmaladi es
Ġag ent
ĠdÃ©velopp e
ĠEmman uel
Ġ199 8
Ġrec ul
k et
ĠcoÃ» te
Ġquar tiers
Ġhum our
Ġsa vent
ĠP o
Ġ4 3
Ġsignif ic
ĠWind ows
Ġperspec tive
Ġconfir mÃ©
s bourg
ge ois
ĠqualitÃ© s
ĠI ran
ĠB i
ĠÃ©quip Ã©e
Ġenf er
Ġcirconst ances
qu in
Ġhy per
Ġretrouv Ã©
ĠdÃ©f i
Ġconstitu ent
Ġremp ortÃ©
e il
ra ire
Ġas semblÃ©e
Ġtranqu ille
m y
Ġparten ariat
ĠÃ©cou ter
ri ble
Ġterrit oires
Ġhum aines
Ġn a
c tes
ce voir
Ġm onn
Ġsac ri
Ġvi ande
tionn els
ĠÃ©mis sions
ĠCan adi
Ġgar Ã§on
ĠrÃ©s olution
c el
um ul
Ġbou tique
ĠdÃ©mocra tique
on f
Ã© rÃ©s
Ġun if
Ġro b
Ġdivers itÃ©
duis ent
t t
Ġpens Ã©
Ġdossi ers
ĠrÃ© di
ĠF C
I n
ĠprÃ©t end
Ġinc ap
Ġmain tien
Ġfich ier
ĠDani el
tu de
Ġsal aire
U n
Ġfen Ãªtre
L ES
Ġadap ter
ĠF orm
Ġfran ch
Ġatt entes
Ġtra iter
ie ur
Ġv ivent
ĠL in
le ur
M S
Ġdispon ibilitÃ©
iter ran
Ġf un
c ol
Ġalle mande
Ġmilli ard
ĠF i
Ġinv itÃ©s
Ġpren ant
ĠcollÃ¨ gues
Ġaccomp agnÃ©
ĠS P
P ar
Ġremplac er
Ġamb ass
Ġno tion
Ġro ck
ĠindÃ© pendant
Ġpar ois
ch n
ĠU MP
ĠdÃ©f ic
Ġconsid Ã¨re
ille ts
ĠAr t
p le
Ġapp u
ĠsÃ©ri es
or Ã©e
Ġsuper be
Ġa ient
w n
ĠS N
ĠT a
Ġgra s
ĠÃ©c lat
Ġp un
ĠrÃ© action
Ġgr is
ĠCom itÃ©
ĠpÃ©tro le
Ã© taire
Ġfron tiÃ¨res
ad Ã©mie
4 5
ell ent
Ġcy cle
ĠL ab
ĠrÃ©gion al
Ġcour te
Ã® tre
ui de
olog ne
Ġb or
Ġg agne
Ġpays age
illi am
en nent
ĠrÃ©pon du
ĠW al
Ġcondam nÃ©
ĠF il
Ġro be
Ġcondu ire
Ã©m atiques
omb res
v ue
Ġbate au
ĠÃ©p au
ĠmÃ©dic aments
Ġs ki
Ġpal ais
ĠE UR
it ch
ĠR app
Ġinternation ales
Ġat h
Ġcomp rÃ©h
Ġ0 1
Ġbas es
ĠR ien
Ġs mart
cÃ© an
du its
ĠapprÃ© cie
ĠA S
ĠcrÃ© Ã©e
Ġam ateurs
Ġver tu
Ġb ris
ri es
lis te
Ġquit te
A D
Ġd r
ĠS UR
Ġmusul mans
ĠON U
Ġla issant
Ġdi am
Ġpris onn
Ġre par
Ġal g
anc Ã©
Ġac tif
ĠrÃ© alise
Ġdiffic iles
Ġtour ne
Ġt ac
Ġh u
p a
Ġdou che
Ġadoles c
ĠmatÃ©ri aux
Ġad mi
ro ir
Ġra men
Ġeffectu Ã©
2 00
Ġcircu it
Ġra m
n itÃ©
Ġa si
Ġ201 9
ĠC ath
ĠC R
I TE
Ġcoup les
w ay
Ġdev ront
Ġsouvenir s
ĠdÃ©velopp Ã©
Ġesc la
Ġle cteurs
ĠJus qu
ĠlÃ©g er
Ġru p
ĠsÃ© v
e reur
I QUE
ĠG ab
Ġpol lu
Ġtu Ã©
crip tions
end ar
ĠdÃ© lÃ©
Ã¨ dent
Ġoccu per
Ġpersonn elle
Ġra cc
ĠOu tre
Ġtour isme
Ġproch aines
ot t
ĠEuro pÃ©
Ġe Ã»t
Ġcomp osition
Ġclub s
ĠPat rick
Ġrestaur ants
y ez
ti ver
Ġacc usÃ©
Ġv allÃ©e
ro b
Ġdis ant
Ġautom obile
Ġpr estations
ĠJ Ã©r
Ġaut onomie
Ġretourn er
Ġmont Ã©e
Ġc oc
i cher
ĠmÃ© tÃ©
Ġins uff
ĠT ri
Ġsa id
Ġpass Ã©e
Ġm Ã¢
Ġf ins
ĠÃ©ta pes
ĠtÃ¢ che
itÃ© es
Ġconc lu
Ġgu Ã¨re
ĠempÃª che
ĠprÃ©f Ã¨re
ch auff
Ġl ancement
ĠS tÃ©
Ġcalend rier
mb l
Ã ¤
Ġab at
Ġil lÃ©g
or y
ĠChamb re
Ġdess ous
ch at
Ġli Ã©
Ã¨ vre
Ġess ai
Ġvill ages
Ġdiscussi on
Ġaliment aire
Ġrencont rÃ©
Ġmarch and
res sions
b an
si de
ĠdÃ©c lin
Ġmess ages
Ġsc Ã¨nes
ĠN ations
ĠTur quie
Ġautomatique ment
Ġremb our
ill a
ĠMa x
Ġmal heureusement
ĠA L
Ġvain que
ĠÃ© tern
Ġdi agnos
ĠD ar
re use
Ġbud gÃ©
n y
Ġcl Ã©s
ĠG uy
ĠA z
Ġ0 3
b ie
Ġsou ci
gyp te
ĠF ait
Ġpuiss ant
Ġv ins
ou che
ĠW illiam
U ni
O G
Ġbat tre
ĠF Ã©dÃ©ration
ti bles
le c
Ġg re
Ġv an
it Ã´t
Ġtermin Ã©
Ġob tient
l ines
Ġfin ance
Ġpan ne
Ġc oul
Ġpar ent
Ġmaj eur
ĠMain tenant
ais ons
Ġtourn oi
Ġautoris ation
Ġch ances
ĠD isp
h ous
Ġbeur re
Ġun itÃ©s
ĠN ap
Ġorganis mes
Ġtarif s
Ġnourrit ure
Ġoff ert
T T
Ġb illet
Ġe m
ĠcatÃ©g ories
i ces
Ġend roits
il er
us t
b a
Ġrou ges
ĠintÃ© resse
Ġtent Ã©
tre r
l ing
ĠG er
Ġplate au
ĠintÃ©g rer
Ġlut ter
ĠOr gan
m ique
Ġg our
r ise
in eux
ĠV is
Ġw h
Ġin verse
Ġdiscussi ons
ĠprÃ© cip
Ġv ague
ĠÃ©le cteurs
Ġtransf ert
Ġ4 9
Ġisra Ã©li
ĠChris tian
Ġm ol
Ġg lace
ar o
Ġoff rent
Ġre jet
Ġimp lant
grÃ©di ents
Ġbr ut
z a
or a
ait re
ĠAn n
Ġsa vez
Ġprom et
Ġital ien
un d
Ġfac teurs
Ġch im
Ġcollec tivitÃ©s
Ġmor ale
ĠE v
ĠN orm
A l
Ġpublic itÃ©
ĠÃ©c art
Ġf ir
Ġmagaz ine
Ġculture l
Ġcl ass
Ġappro pri
Ġfl am
Ġcu ir
ĠN et
F F
ĠsÃ» re
Ġc ur
ĠM ath
Ġg este
ran te
r ome
Ġemplace ment
Ġriches se
Ġ25 0
Ġach ats
Ġfor tes
Ġclas siques
Ġcuis son
ĠÃ©volu er
Ġbel ge
ĠI V
ĠÃ©v ac
2 2
Ġf ine
Ġtrouv ait
ĠmÃ©dec ine
ĠJose ph
at ures
Ġdange reux
t ori
Ġin Ã©d
Ġas pects
Ġeng ager
ch ait
Ġsatis fait
ĠÃ©quipe ment
x ique
Ġstatis tiques
Ġor ch
Ġar ts
ĠApp le
I D
ou ff
Ġac tive
ĠcollÃ¨ ge
Ġl uxe
ĠdÃ©place ment
Ġcommunau tÃ©s
Ġcellu les
S A
Ġvo ter
Ġfinanci Ã¨res
ĠH a
ar re
Ġinvestis seurs
Ġjus que
Ġfin it
Ġexcell ente
ati n
Ġmo dÃ©
Ġfin ances
ĠdÃ© te
ĠCl ub
P R
Ġvo ies
Ġgr Ã¨ve
mp e
ph ones
oure use
uss itÃ´t
Ġsoli de
ĠS av
Ġ18 8
ĠÃ©dite ur
ĠMich ael
Ġconfir me
Ġprog ression
Ġcon Ã§u
ra c
Ġprob lÃ©
Ġpil ote
Ġch ir
Ġorigin ale
ĠÃ©conom ies
on iques
Ã ³
di um
Åĵ u
Ġord onn
Ġmont rent
Ġen n
di Ã©
ĠM ay
ĠspÃ©ci al
Ġplate forme
ĠE X
is h
Ġp istes
ĠN ouveau
Ġh Ã©
ĠTot al
al ie
ĠJ ames
ĠcÃ©rÃ© monie
Ġop tim
Ġcompos Ã©e
Ġinstal lÃ©
Ġl in
or p
r ite
Ġbless Ã©s
ĠÃ©criv ain
Ġbure aux
ĠToul ouse
Ġref use
ĠprÃ©sid ence
ac tions
Ġ198 0
re tte
ĠRich ard
Ġser v
tu me
ĠL or
ĠL ac
Ġrou tes
Ġculture lle
ĠP lan
Ġ6 00
Ġre met
ĠO c
t oires
OI R
Ġadvers aire
d itÃ©
ĠSe igneur
U RE
Ġviol ences
Ġord inaire
m ond
Ġconsta ter
Ġat titude
ra ins
p Ã¨re
Ġmas cul
ĠprÃ© vention
Ġress enti
Ġmagas ins
au ts
p os
Ġgratu ite
Ġb illets
ĠC in
ok ies
Ġnavig ation
Ġidentif ier
ĠdÃ©b ats
Ġprom is
ve t
Ġrent rer
Ġfl ux
Ġv iens
Ġtrans ition
Ġmar keting
Ġdou ze
Ġpri or
h ab
ĠM oh
Ġcommand es
ĠBeau coup
Ġb er
con que
Ġnaturelle ment
og a
Ġerre urs
Ġter mine
Ġf asse
Ġab us
om mande
Ġinstitu tion
Ġfix e
Ġexig ences
ouver nement
Ġag issait
tÃ©ri eur
Ġ0 6
o iles
Ġpos ses
Ġadap tÃ©
ĠhÃ´ te
ĠÃ© chÃ©
Ġth at
Ġc lic
I M
ĠR eu
tra it
Ġfavor able
Ġsemb lait
Ġpl ant
Ġancien nes
Ġd a
ke y
Ġreti rer
Ġ199 7
Ġvoul ais
Ġmag ist
Ġo eil
Ġenne mis
al a
Ġtest s
Ġp ul
Ġcomb ats
Ġc ible
Ġf e
Ġimp Ã´ts
Ġ4 6
Ġar bre
Ġappel er
Ġpla que
ot on
Ġ4 7
ĠprÃ©v ues
ti Ã¨me
ĠC L
C O
ĠÃ©t ro
Ġv ig
ĠD Ã©s
Ġto it
Ġarr Ãªte
Ġcompr om
Ġt res
Ġpr Ãªte
Ġas c
9 5
Ġpersonn els
ĠStÃ© ph
Ġtemp or
Q u
Ġa mple
Ġpl ats
ĠrÃ©cupÃ© rer
Ġcant on
Ġth Ã¨mes
ĠfÃ©d Ã©ral
Ġcou che
at er
Ġpr ud
Ġt ours
ĠdÃ©c ri
Ġex trÃ©
ĠF es
ĠStra sbourg
qu ante
ĠY ou
ĠmÃ© ta
or ce
C e
ĠamÃ©n agement
Ġsuiv antes
Ġconsta tÃ©
Ġargu ment
Ġf Ãªtes
Ġra p
Ġfran c
ĠP oli
ĠM oyen
Ġsou d
ĠMad ame
ĠC li
Ġsyndic ats
ol o
Ġconv ers
Ġfame ux
ĠMar ine
Ġth erm
r Ã¨te
Ġs tres
Ġtra duit
Ġg as
ĠmÃ© tiers
il ier
Ġa x
Ġpar king
Ġmen u
Ġrense ignements
Ġf ur
Ġeng agÃ©
ou est
ĠB ri
Ġtr omp
ĠH omme
ĠB a
ĠÃ©tran ge
Ġal ent
Ġad hÃ©
Ġf ier
Ġiss us
Ġval oris
Ġ om
D e
Ġm ons
Ġoffici ellement
Ġent hous
ĠdiffÃ©r ente
Ġport ent
abil itÃ©s
Ġprodu cteurs
ag Ã©e
rÃ© g
il Ã©
Ġign or
Ġpri oritÃ©
Ġindi ce
qui Ã¨me
Ġ12 0
Ġfran cs
Ġorganis Ã©e
ĠChrist oph
Ġmar ge
in Ã©s
ĠM Ã©d
ĠM AR
onne ments
ĠI v
Ġcontribu tion
l ot
o Ã¯
oy age
tu el
ri ez
ĠespÃ© rons
Ġ199 5
Ġ5 2
Ġn er
Ġl ing
x ic
ĠdÃ©r oul
Ġmach ines
Ġop tions
Ġinc lus
ten ance
ĠS il
Ġc ous
ĠentraÃ® nement
Ġoff ensi
p o
i des
Ġdes cription
ĠOli vier
ĠrÃ© tab
tionn elles
Ġimag iner
ĠD Ãī
Ġcath olique
AN S
ces seur
ĠBer lin
Ġd orm
Ġal titude
Ġquin ze
al er
ĠF A
ĠNation al
Ġmen Ã©e
and a
ĠD urant
au re
Ġpriv Ã©s
Ġfavoris er
Ġaccess oires
Ġtransform ation
Ġb is
ue il
ĠServi ce
Ġferme ture
F rance
u ation
Ġsp a
Ġfamili ale
Ġar m
ĠP rÃ©sent
Ġp av
ĠprÃ©cÃ©d ente
Ġm ourir
Ġbre f
Ġquit tÃ©
Ġt ort
Ġar tif
tra ge
Ġ18 7
Ġcar rÃ©
Ġsus c
ĠentraÃ® ne
Ġscru tin
Ġobs ta
QU ES
Ġpleine ment
ĠrÃ©fug iÃ©s
ĠGu ill
Ġaccep tÃ©
Ġp ier
Ġs tim
Ġlim iter
Ġb ains
eu f
ĠÃ©qui pÃ©
Ġdispar u
to ine
ĠV en
Ġca us
ĠP an
Ġroy aume
Ġcontrib uer
ĠPr in
Ã¨ ques
Ġpa pe
ĠrÃ©uss ir
Ġpersonn alitÃ©
Ġbout on
Ġanim ation
ra m
Ġc Ã¢
m ens
Ġconsac rÃ©
Ġpl omb
Ġm ac
Ã© rÃ©e
Ġoise aux
Ġcontraire ment
Ġscol aires
Ġmilit ants
Ġw ith
ĠCh ez
us ter
Ġrep ose
i dÃ©
Ġatmosph Ã¨re
Ã©ra ble
v ages
Ġet h
ĠT unis
ĠdÃ© ses
Ġconvain cre
ise z
Ġg Ãª
ines s
ĠrÃ¨g ne
Ġaler te
ĠdÃ©m ons
Ġexemp les
e use
ĠprÃ©c ision
Ġcon vention
Ġinsuff is
Ġcade au
Ġti re
ĠP ic
Ġinternation aux
Ġmai rie
Ġsupp ri
Ġess ais
Ġsensi ble
Ġrec on
Ġlyc Ã©e
ot tes
Ġfru it
Ġambass ade
m ins
Ġpuis sent
en g
Ġara be
Ġv endu
Ġinv itÃ©
ĠinterprÃ© tation
Ġadap tation
Ġg ro
ĠW h
ĠM O
ĠV e
Ġdestin Ã©
Ġst ar
Ġg endar
Ġagric ole
Ġlogici els
Ġextraord inaire
Ġglob ale
ĠA j
ĠF lor
Ġsorti es
ĠSt ar
ĠdÃ©ch ets
ĠB u
F ran
ign ons
Ġadop tÃ©
prÃ© sident
Ġbi ais
ĠÃ©t oiles
si m
li ers
ĠR ol
Ġgaranti r
Ġretra it
ve iller
A r
Ġp Ã©nÃ©
Ġs able
l its
Ã Ń
tr ont
Ġjapon ais
Ġform ul
2 1
ĠstratÃ©g ique
Ġmont agnes
Ġtent ative
Ġper tur
ĠrÃ©alis ateur
if ication
ĠrÃ©v olu
Ġcom Ã©
ĠS tre
le ct
Ġcer veau
ĠÃ©p aisse
ĠÃ©tudi ant
Ġenv elopp
ĠrÃ© nov
ĠfraÃ® che
Ġrenfor ce
Ã©rap ie
Ġmorce au
Ġta xe
Ãª tement
Ġl Ã©
o igne
ĠIn f
Ġsign es
Ġaccue ille
Ġplac er
c Ã©s
ĠLors qu
Ġatt endu
Ġca che
Ġrent rÃ©e
Ġdoig ts
Ġpas sent
er se
or n
Ġref usÃ©
Ġsais ons
om o
Ġmi di
am i
Ġpouv aient
ĠdÃ©cla re
is tÃ©
ĠC F
ĠrÃ©d action
ĠbÃ©nÃ© fice
lan tique
Ġami tiÃ©
ci a
ĠD V
ĠÃ©nergÃ© tique
in ture
ati e
Ġprof ite
Ġdis s
end ie
Ġ18 6
ĠÃ©vi dent
ĠB os
Ġvol s
Ġav ancer
ĠÃ©v oque
ĠintÃ© grÃ©
ag nement
Ġinter view
Ġinc er
Ġen vi
Ġsou tenu
er ies
Ġtrou bles
ĠReu ters
Ġcri ti
ill y
Ġde grÃ©
Ġchauss ures
ĠrÃ© jou
Ġche vaux
ĠGeor ges
ag a
ĠAt tention
Ġt om
ard ins
S P
Ġgraph ique
Ġassoci Ã©
Ġ orth
Ġprogressi vement
Ġam ie
Ġprin ces
Ġpar venir
ut ri
ĠdÃ©p loy
Ġbiblioth Ã¨que
Ġli Ã©e
es ses
Ġrup ture
3 5
ĠN ice
ĠspÃ©ci ale
Ġpous se
Ġmen Ã©
ĠquÃ©b Ã©cois
Ġdev iennent
Ġcommerci ale
ĠI m
ou f
ĠrÃ©guli Ã¨re
Ã® tes
ond es
ĠR os
ĠVin cent
Ġtis su
Ġpropos ons
r Ã¨
Ġacquis ition
Ġtra ces
Ġcollec tive
ĠF N
ĠA gence
ĠÃ©tudi er
ĠÃ©p ous
ĠCÃ´ te
Ġass istance
Ġaccomp agne
ign ant
Ġremp lir
Ġab ond
Ġin aug
Ġper pÃ©
ie uses
Ġoubli Ã©
ĠprÃ©sent es
Ġbr ill
Ġtransform er
ĠD oc
ĠÃ© tions
Ġoblig ations
fe ction
Ġcommer ces
ĠBre tagne
ĠAff aires
Ġauxqu els
Ġsouff le
ĠCa mp
Ġas semb
Ã©rap eu
pr endre
ĠFes tival
end es
Ġres semble
ĠFrÃ© d
ON T
ĠA M
Ġconn us
Ġess ence
Ġp oule
li Ã©
Ġm oul
ĠrÃ©p ert
Ġcri me
t ante
Ġconsul tation
Ġf Ã»t
Ġca uses
Ġd ommage
Ã¨s es
ĠdÃ©fini tivement
Ġ199 6
at or
ĠapprÃ©ci Ã©
IS E
Ġrestaur ation
ĠAn ti
Ġdispar ition
duis ant
ĠdÃ©ci der
Ġle ad
Ġpo Ã©sie
ĠM un
ĠDon ald
ĠspÃ©ci alistes
Ġar ra
de urs
Ġre ine
Ġinc lu
Ġa xe
ĠQ U
z aine
2 4
C A
ĠÃ©chapp er
Ġving taine
ĠI rak
Ġinf ir
Ġau dio
ĠÃ© ditions
Ġco okies
ĠL ar
Ġposi tif
ĠS antÃ©
oli ques
Ã©m ique
ress Ã©
Ġbul le
Ġqu Ãªte
or iste
h t
ĠB lac
lo w
th e
l on
ĠAustra lie
ĠrÃ©s oudre
Ġregr oup
ĠE ss
Ġinter venir
Ġb ron
Ġphra se
Ġchron ique
ĠdÃ©c oration
Ġespagn ol
Ġcours es
d ans
Ġinstall ations
olog ues
Ġinc on
Ġaudi ence
Ġt onnes
Ġ8 00
or ge
Ġmam an
Ġinstru ments
Ġma d
Ġpubli Ã©e
f a
Ġconten us
Ġenqu Ãª
Ġc ib
ĠintÃ©ri eure
Ġgra ves
Ġaid era
ouv Ã©
ĠCer tes
ĠAlex andre
Ġf um
Ġg out
Ġten sion
ĠB Ã©
Ġtra it
Ġg el
d ou
ĠF e
Ġle ver
ĠS itu
ĠL ong
Ġun ion
ĠtÃ©lÃ© ph
Ġpl astique
ĠIn form
a e
ĠentraÃ® ner
ri ct
ĠÃ©mo tion
Ġdit es
ĠsystÃ© matique
Ġvis ites
Ġdev i
Ġm Ã¨ne
Ġ197 0
Ġpier res
Ġv esti
Ġcandid ature
ĠF ront
Ġfor ts
cid ents
Ġf ib
Ġd Ã®
Ġquasi ment
Ġre je
i ze
Ġenvir ons
Ġcin quiÃ¨me
ĠPe ti
Ġenv ah
Ġp ic
ĠÃ® les
duc ation
fi Ã©e
ĠC G
Ġmunicip al
ĠR adi
TION S
ĠÃª tres
Ġass ister
ER S
ĠAr g
ĠB le
Ġbas Ã©
ch ette
ti cle
AN CE
Ġsu ici
cri min
oy ez
arch ie
Ġposi tions
Ġ ulti
f ense
ĠC ode
Ġde b
ign ent
Ġv ues
Ġmal ade
ĠE ric
Ġache tÃ©
Ġsta ge
si er
ĠF a
Ġmusul man
Ġpropos Ã©s
si Ã¨re
Ġquel les
Ġ5 4
Ãī S
Ġincroy able
Ġsur f
Ġbles sÃ©
ĠintermÃ©di aire
Ġai ment
Ġnation ales
Ġsign ature
Ġann uel
ĠG au
Ġobser ver
Ġinc omp
ĠB ourg
Ġautonom e
Ġpl ages
ĠW all
ĠÃ©pis odes
Ġre la
or tÃ©s
C F
Ġex ter
alis Ã©es
Ġgar dien
Ġra rement
Ġh onn
Ġre voir
o ter
Ġdev aient
Ġs ombre
Ġin ex
Ġob lige
v olution
ĠO U
ib lement
Ġvis ible
Ġenregistre ment
Ġsim ul
Ġfac ul
ĠdÃ© lÃ©g
Ġdirec te
ĠprocÃ©d ures
or ld
Ġpri me
Ġad mis
ol is
ĠR i
ag o
Ġregr oupe
ĠAuc un
Ġsenti ments
Ġfond Ã©
ag nies
Ġlib Ã©ration
j i
Ġdiscu ter
Ġb ri
Ġb ag
Ġaccomp agnement
ill ir
Ġvoy ages
ĠR ay
or b
Ġchan tier
ne z
Ġar chÃ©
ci le
Ġalent ours
ĠA fin
ĠreprÃ©sent er
Ġrais onn
U ne
Ġser veur
f ie
h er
Ġmonn aie
Ġno y
Ġv ag
Ġconf lits
ant al
Ġnature lles
Ġexper tise
Ġdestin Ã©e
Ġp s
Ġ199 4
Ġvo ient
ĠB ru
Ġa ussitÃ´t
h ib
Ġa igu
ĠQu elle
I A
Ġ5 3
ĠS m
Ġcommuni quer
d en
ĠapprÃ© cier
Ġlib res
Ġav en
Ġcoup er
Ġaugment Ã©
ĠconsidÃ© rer
Ġpopul aires
Ġress or
Ġk g
s en
Ġmod alitÃ©s
Ã¨ nement
Ġfu ite
Ġpl ainte
ili ation
Ġ5 6
Ġconne xion
Ġchan teur
Ġdouce ur
ĠgÃ©nÃ©ra tions
Ġsymp a
ĠH ug
Ġinstru ction
Ġsymb ole
ĠprÃ©sent ent
Ġpor tail
Ġrappel Ã©
Ġarrond issement
Ġuti les
lÃ¨ te
Ġsav ait
ĠGr en
ĠP ra
it t
Ġs Åĵur
Ġartis an
ĠrÃ©g ler
Ġorient ation
2 3
as ion
lis sement
Ġ18 5
g uer
ĠCerta ines
AG ES
Ġsol o
Ġpays ages
Ġsais ir
ĠRÃ©g ion
v elopp
ĠH ong
Ġdiscip line
oin te
Ġfond ateur
ill Ã©s
ĠN or
Ġbass in
eb dom
Ġcad res
Ġre dÃ©
ĠrÃ©gion ale
te au
Ġfro ide
ow n
Ġinc endie
Ġdu c
ign Ã©
Ġaffront er
or able
ire r
a il
Ġgouver n
ebdom ad
ĠM y
Ġbat terie
Ġchau de
ad o
Ġarri vent
Ġmo tifs
Ġcom te
Ġexten sion
Ġin grÃ©dients
ĠNÃ© anmoins
Ġench aÃ®
Ġju gÃ©
ĠprocÃ© dÃ©
ĠÃ©quival ent
ĠrÃ©v ol
Ġcul te
Ġd ents
Ġ5 7
Ġgouver nements
Ġcomp agnies
Ġconn aissent
it z
ĠGeor ge
Ġr onde
Ġ1 000
ĠÃ©val uer
Ġpour suite
en e
Ġ4 1
Ġpro tÃ©g
OR M
Ġenregist rÃ©
ĠRe cher
Ġsol lic
ĠlittÃ©ra ire
vi end
Ġst ric
Ġliqui de
ac te
Ġcons ci
Ġar mÃ©es
ĠI S
Ġprodu c
Ġtou chÃ©
Ġc oute
ĠR og
Ġpropos ent
ĠrÃ©pu tation
C T
pr its
Ġcul tures
Ġfall u
Ġconsta te
Ġbi jou
Ġimp lique
Ġman ge
Ġpr estation
Ġ18 9
ĠL oire
Ġaccord s
Ġfond Ã©e
Ġc ord
ĠbÃ©nÃ©fici e
er ine
Ġord res
Ġmys tÃ©ri
Ġ0 9
ĠS ou
Ġfour ni
ti ge
ose z
Ġbanc aire
Ġins pire
Ġrec ouv
oi ff
Ġutilis Ã©es
Ġremar que
Ġmusici ens
Ġlong s
ĠC at
ĠF am
o ta
Ġdess ins
Ãª ts
ch ons
c l
Ġconcern Ã©s
ĠW ar
ĠD am
Ġfort une
el li
ĠL ang
Ġsp ati
Ġsin c
un i
Ġo cÃ©an
ĠprÃ©sid ente
Ġbas Ã©e
Ġatte inte
E U
Ġjourn Ã©es
me urs
ĠG ir
ci des
ĠspÃ©ci alement
omm ages
ĠCh ac
Ġamb ition
ri Ã¨res
Ġanti cip
ĠdÃ©l ais
g ard
Ġessay Ã©
Ġcri mes
ĠamÃ©ric aines
ĠrÃ©c ente
Ġcorrespond ant
Ġprofond Ã©ment
Ġquel s
S i
Ġcompar aison
ĠMan uel
Ġin tri
Ġa qu
ĠrÃ©alis Ã©s
Ġjamb es
Ġconstitu Ã©
Ġcu ire
ĠG ouvernement
ĠAl l
Ġt ue
ĠÃ©ta ts
ĠcomprÃ©h ension
Mar ie
IL LE
Ġmoder nes
Ġcouver t
Ġjourn aux
ĠSÃ©n at
ĠPar c
Ġtraditionn elle
ĠgÃ©n ie
ĠS ol
ĠA th
Ġfra u
ĠSy l
ĠcontrÃ´ ler
Ġrest era
Ġcas ser
Ġnette ment
Ġtravaill ent
Ġress ort
ĠGuill aume
Ġl Ã¨vres
Ġattend ent
Ġfer ont
Ġpropos Ã©es
Ġmi ra
Ġorgan ise
Ġimag ine
Ġlic ence
ĠT re
u alitÃ©
ĠV all
Ġrecev rez
ĠV ie
ĠEnc ore
titu des
Ġo li
ĠT om
Ġaccep te
or tÃ©e
ĠFrÃ©d Ã©ric
Ġpro vis
Ġd ite
ĠidÃ© ale
Ġsimp li
ĠchrÃ© tiens
Ġa is
Ġprofes sion
Ġtr oupe
Ġhau ts
Ġm ette
ĠP Ã¨re
Ġcl aire
Ġver sions
Ġsor tes
ĠrÃ©f ormes
Ġtr iste
Ġint Ã¨g
Ġter rible
ĠUS A
Ġ8 5
ci al
Ġpou dre
ĠFran cis
I ON
Ġnation aux
Ġense igne
Ġins ul
Ġde g
Ġsuc cessi
Ġrelig ieuse
Ġsouhait ent
tu eux
Ġapp lique
ĠAlle mand
Ġsou tient
ra bles
Ġav oue
Ġlo ok
ĠprÃ© cieux
du le
Ġtest er
Ġpous ser
ĠDÃ© p
ĠCons ul
ĠS o
Ġseu les
ĠP ou
d Ã©e
Ġquoti dienne
Ġfix Ã©
ĠU k
Ġenvis age
Ġang le
ĠH eure
Ġmo tif
Ġa lig
i vement
ĠTou jours
ĠEn vir
ĠMos cou
Ġreconn aÃ®t
Ġlim itÃ©e
ĠM en
Ġpla fond
Ġvainque ur
I RE
lus ions
Ġremp orte
ec t
il d
ĠÃ©lar g
al ition
Ġcons tat
est Ã©
Ġtermin er
Ġphar ma
Ġmaj eure
que tte
ĠG h
ĠSe ine
C l
ĠJ eu
Ġab sent
ĠRe d
ĠÃ©le vÃ©e
ĠvÃ©g Ã©
Ġample ur
Ġ199 2
Ġstres s
T A
ĠgÃ© ant
ĠrÃ©flÃ© chir
D U
Ġti rÃ©
ĠMar i
ĠprÃ©sent Ã©e
ĠpropriÃ© tÃ©s
E t
Ġport rait
ĠprÃ©cis er
le z
ĠÃ© te
Ġins ta
B L
Ġremb ours
Ġence inte
ĠV ir
b al
Ġmunicip alitÃ©
v ence
ĠF illon
Ġ6 4
Ġstand ard
Ġper Ã§
ih ad
Ġcitoy en
ĠesthÃ© tique
Ġexer cer
Ġspecta teurs
Ġpois sons
Ġsan ction
ler a
Ġpo che
ĠS oins
ig er
Ġnoir s
Ġpl ain
ĠDV D
Ġfonctionn aires
Ġar c
Ġadop ter
Ġsta bilitÃ©
ĠrÃ©p and
Ġg er
Ġpersonn elles
Ġsub i
ros oft
ĠS U
Ġenthous ias
i Ã©es
an niques
iss ante
ĠmÃ©can ique
Ġball on
ĠAn gl
Ġr oul
min aire
Ġbal le
ĠrÃ© Ã©
ĠE glise
ĠU NE
ĠprÃ©al able
Ġsal aires
Ġinves tir
Ġpauvre tÃ©
Ġso ix
Ġmat ches
Ġco ff
ill ons
Ġhypoth Ã¨se
Ġimmeub le
Ġoff ice
Ġtra Ã®
ĠbÃ©nÃ© v
Ġali ments
Ġfor fait
h um
ĠdÃ©clar ations
tri e
Ġincont ourn
ĠMal heureusement
ĠD j
Ġcer cle
B as
Ġsomme il
ĠsÃ© p
Ġj oy
Ġhyd ra
Ġnature ls
Ġatti rer
ĠS tu
Ġcap ables
Ġm ang
ĠparallÃ¨ le
Ġm yst
Ġfid Ã¨le
ĠBlac k
ĠF ig
Ġra ff
Ġvoud rais
Ġpois son
o ble
Ġtrans mis
Ġencour age
Ġadop tion
ĠInternation al
ĠB elle
Ġconten ant
ĠdiffÃ©r ences
Ġac trice
tÃ©ri eure
ĠdÃ©p lo
Ġ199 3
ch age
Ġper tes
Ġin te
B re
Ġfer ait
ĠprÃ©p are
Ġsur pris
Ġagric oles
Ġprom ouvoir
Ġrapp orte
Ġco tis
Ġconstitu tion
Ġmusic ale
Ġa ise
Ġutilis ent
Ġra v
Ġes prits
Ġaugment e
ĠC ou
ĠnÃ©cessaire ment
Ġsymp t
Ġsond age
Ġre pÃ©
Ġappel Ã©e
is sements
Ġcor ruption
Ġintitu lÃ©
g r
ĠPre miÃ¨re
re d
ĠEmp ire
Ġphy siques
ĠpÃ©ri odes
Ġcont ro
Ġh ume
Ġrest Ã©
Ġcent aine
Ġaffi cher
ro Ã¯
Ġsec rets
ĠcompÃ©t ence
Ġfra ppe
ĠJourn al
Ġform Ã©
ĠAr ch
ens Ã©
it age
Ġbou c
Ġrel atives
Ġlabor atoire
Ġra f
is es
I P
Ġvo ile
Ġl ou
Ġspor tif
ĠdÃ©r oule
ĠW est
Ġadministra tif
Ġbran che
ĠV os
ĠAff icher
al s
ĠG Ã©r
ĠM ah
ĠÃ¢ gÃ©
or g
Ġd ame
ĠP ub
ĠdÃ©bu ts
ĠM E
Ġsatisf action
ĠnÃ©cess ite
Ġassoci Ã©s
Ġpos Ã©
ĠdÃ©p Ã´t
Ġclient Ã¨le
Ġinfrastru ctures
Ġd igne
Ġmanifest ants
Ġche mins
in aires
Ġexemp laires
Ġ0 2
ĠconsÃ© cu
Ġdom es
ĠPor tug
ĠprÃ©ser ver
Ġvoul ons
Ġre de
on se
iss es
ĠÃ©cr ite
ĠAl s
Ġh aine
Ġrespec tivement
ci fique
ill ot
Ġlab el
ĠL un
ĠÃ©mo tions
Ġin tr
oin ts
ad Ã©
Ã©ra tions
char ge
ĠtÃ¢ ches
Ġindustri els
Ġtrans mission
atis ation
Ã¢ t
ĠG az
Ġar g
ĠAn toine
lÃ¨ vement
Ġoblig Ã©
Ġmar cher
Ġremarqu able
Ġcontra intes
Ġlais sez
Ġexist ent
Ġlead ers
Ġoff rant
ĠCol omb
ĠC os
AU X
ĠP ol
ĠdÃ©fic it
Ġrend ent
Ġmon te
Ġy oga
Ġfin ancer
A u
ĠrÃ© in
ĠC onne
ĠMad rid
Ġsau ce
Ġlour d
ĠMon di
ĠprÃ© venir
un s
ĠBour se
ic at
Ġpar quet
ĠM Ã©l
ri che
ĠC ity
D ans
Ġad resser
Ġsens ation
Ġ0 5
ĠÃ©lector ale
Ġadul te
Ġam us
ĠDom inique
ĠX IX
7 5
Ġtable aux
ĠAuc une
ĠtÃ©moign age
Ġinterro g
Ġremp li
ĠL ou
ĠMic rosoft
Ġv ib
Ġsupp rimer
lis me
Ġ5 8
Ġch iens
ĠCons titution
Ġsympath ique
Ġad m
Ġj et
ĠrÃ©ser vÃ©
is on
Ġital ienne
Ġproch ains
Ġfais aient
Ġpersonn alitÃ©s
ĠM el
Ġatta quer
ĠmÃ©dic al
ĠdÃ©p oser
en cer
Ġin Ã©g
ĠdÃ©p asser
Ġpr it
Ġrespons abilitÃ©s
Ġconcer ts
Ġj eter
TI F
a ille
Ġs ab
ĠG as
Ġchar gÃ©e
Ġconf id
ĠÃ©le vÃ©s
f aire
ĠL et
anti ll
en nies
x y
Ġexp ert
Ġtr ent
Ġattent ats
Ġindustri el
ch t
Ġsuiv ent
pr Ãªme
Ġinc lin
ĠC omb
ĠdÃ©p l
atri ces
ĠD ub
Ġpass agers
Ġemp ereur
ĠdÃ©mar ches
Ġent am
it ons
ĠAc adÃ©mie
Ġenj eu
ĠA ub
Ġouv riers
Ġconv iv
Ġconstitu er
ĠAr n
ĠR oi
Ġhoriz on
d in
tif ication
ĠAl bert
ĠdÃ©plac er
Ġco ach
Ġcor ri
ĠindÃ©pend ante
Ġtap is
Ġsuper fici
i ment
am in
Ġreconn aiss
n ing
ras ser
ĠdÃ©c ennies
Ġam or
Ġa cier
Ġmobil isation
ĠL im
an y
Ġdra me
Ġsecond aire
Ġsur pren
D G
uri ce
Ġg rÃ©
Ġcam ar
Ġdimen sions
Ġdisp oser
qu ants
ĠL Ã©g
Ġ0 8
enti ne
ĠÃ©cr its
Ġdis crimin
Ġfid Ã¨les
Ġai des
C ES
onn ais
Ġmonu ment
ĠBl anc
Ġhon te
Ġr oule
Ġislam ique
Ġp alestin
Ġaccue illi
Ġimp Ã©ri
Ġcanadi en
ul sion
lis er
u ter
Ġdoc teur
Ġcro ix
B A
ĠM ur
Ġi c
Ġj al
Ġconvain c
ĠespÃ© rer
ĠP y
Ã¨ ches
Ġparlement aire
Ġimmig ration
ĠdÃ©c ol
Ġfar ine
Ġinspi ration
Ġtra jet
Ġdes truction
Ġju ges
ĠAmÃ©ric ains
Ġgar Ã§ons
ta ils
ati vitÃ©
Ġdipl Ã´me
a ff
OR T
ĠMus Ã©e
Ġposs Ã©d
Ġexcep tionnel
Ġglo ire
l oc
Ġlanc Ã©e
Ġvir us
Ġappar ence
ĠN antes
ĠL ille
TE UR
ĠÃ©lect riques
Ġper fection
Ġrele ver
Ġbat tu
ic al
Ġprofessionn elles
Ġ18 4
Ġlois irs
Ġa Ã®
p re
di ct
Ġfisc ale
Ġengage ments
Ġfer mÃ©
Ġconv ic
ine ment
mb ourg
b ri
ĠCOM P
j Ãł
Ġsatisf aire
ĠrÃ©f Ã©rences
Ġassass in
u ge
pe ur
Ġindi g
Ġ0 7
Ġab ri
ili ers
Ġinter diction
Ġla Ã¯
Ġdiri gÃ©
ĠP ologne
que ment
Ġla tin
Ġinn oc
Ġman quer
ourn er
a mp
Ġadj oint
ĠdÃ©t ente
Ġ6 9
Ġexclus ivement
.- -
Ġs chÃ©
Ġet re
ĠÃ© tique
H E
ole t
est res
Ġvoc ation
Ġem men
ĠGen Ã¨ve
Ġarch ives
Ġaliment aires
Ġdocument aire
Ġ5 9
Ġcorrec tement
Ġterroris me
ĠSin on
ĠL oi
Ġtraite ments
Ġprocure ur
Ġpi ra
Ġmig rants
Ġsuis se
ler ie
Ġre quis
Ġtri om
ou ille
Ġcoord onnÃ©es
ĠAls ace
ĠS ant
IS T
Ġindustri elle
o Ã®t
ct ur
Ġunivers itaire
Ġfant as
out h
Ġconc lusion
ĠP ap
ĠC P
ĠI d
ĠÃ© puis
Ġp in
ĠO ly
Ġproc Ã©der
ĠA G
Ġremar quer
Ġglob al
ĠÃ© man
ĠcomplÃ© ter
ĠÃ© dit
Ġsug g
ĠÃ¨ re
ĠmÃ©dic ale
Ġcombat tre
Ġexerci ces
Ġ199 1
Ġhar monie
ĠdÃ©di Ã©
Ġmodi fications
Ġmar iti
Ġd ates
Ġaper Ã§
Ġb oire
eu ve
ĠAu g
Ġcli matique
Ġde l
ak e
A LE
Ġpro te
Ġtour istes
Ġanaly ses
Ġobser vation
Ġ196 0
ĠtÃ©m oins
ĠP in
S aint
Ġexcep tionnelle
Ġpein tre
Ġn ations
ĠCor Ã©e
Ġjou ent
te xte
Ġoeu vres
ĠCOM M
p orts
Ġmal heure
ĠsÃ» rement
Ġcade aux
Ġmont age
ĠrÃ© chauff
Ġon g
Ġfu ture
res sent
on i
Ġcamp agnes
ĠP lace
Ġsensi bil
Ġimag ination
Ġpartis ans
ĠChristoph e
ĠA SS
Ġc liquez
P ro
Ġcon gÃ©
Ġra t
Ġaff ron
f our
Ġprop ag
ĠL ui
ĠM ai
Ġvic toires
en i
ĠR am
tr uis
Ġore ille
ĠRadi o
Ġg la
ĠfÃ©min in
u lier
C TION
lÃ¨ ne
ĠfÃ© lic
Ġmass ac
Ġcor p
Ġven ant
ac o
comm un
Ġremplac Ã©
ouv ent
Ġf usion
ĠDisp on
ĠexÃ©cu tif
Ġeff ond
Ġsan ctions
Ġre lie
ĠS w
Ġpens ent
a ill
Ġadap tÃ©e
ĠrÃª ves
Ġextra it
Ġpriv Ã©es
Ġamende ment
Ġcl in
Ġavent ures
h ou
Ġ it
Ġalli ance
Ġacqu Ã©rir
ĠdÃ©p asse
Ġhi Ã©r
ĠF aire
onom ique
Ġreb ond
Ġaltern ative
ĠdÃ©p osÃ©
Ġore illes
Ġautre fois
ĠrÃ©vÃ© lÃ©
ti les
Ġenv oi
Ġcou cher
Ġw as
ĠÃ©pre uves
p ole
Ġter rains
ĠP au
Ġm os
Ġcar t
ĠF ar
Ġinter pr
in ts
ĠgÃ© ographique
ĠH D
Ġurb an
ur ie
Ġnorm ale
Ġpar u
ĠIn c
ĠS and
Ġnav ire
Ġscand ale
Ġc iter
Ġmo teurs
res ses
ĠgÃ©nÃ©ra les
Ġch ang
g ar
er b
Ġch ou
Ġpre uves
Ġrec ommande
Ġju ger
Ġmo bilitÃ©
Ã© ch
Ġcanadi enne
Ġsoup Ã§
ier ry
ON NE
ĠL os
Ġ9 5
Ġag ences
ĠtÃ©moign ages
ĠÃ©g al
Ġavoc ats
Ġcop ie
ĠH al
Ġpubli e
Ġsyndic at
Ġfle uve
Ġth Ã¨se
Ġenvi es
Ġs tÃ©
Ġpl onge
ĠB rit
Ġp ommes
Ġme me
Ġapp els
Ġdu o
ĠlÃ©gisl atives
ĠFait es
ĠmÃ© c
ing ue
Ġsou le
S u
Ġob Ã©
Ġs ain
Ġoff er
Ġou t
Ġpoursuiv i
oy ers
ven us
Ġdu quel
la teur
ĠStÃ©ph ane
qui pe
ĠrÃ©pond it
Ġf oyer
Ġappar aÃ®tre
Ġjustif ier
Ġstock age
ĠL is
Ġ5 1
m ante
Ġsol aire
ĠP ense
ĠM il
ĠdÃ©p it
Ġadministra tive
Ġp ath
Ġi tin
Ġh Ã©ro
Ġdirect rice
ec ture
v ard
gh an
Ġe l
Ġremp lis
Ġangl aise
or Ã©s
Ġpass Ã©s
an ou
Ġpar vient
Ġmal ades
gl om
Ġra b
i an
ten ues
Ġulti me
Ġpar aÃ®tre
Ġmad ame
ĠAn dre
Ġref roid
Ġs ages
Ġess aie
ra teur
ĠP ME
ĠSim on
y er
L ouis
Ġconf orme
u f
ec k
ĠT o
Ġfor Ãªts
Ġmeur tre
Ġprofes seurs
ĠÃīc ole
Ġcour rier
Ġvari Ã©tÃ©
ĠA mer
Ġd en
ĠP eter
Ġc enti
Ġprot est
Ġemploy Ã©
c elon
Ġcommen cent
p as
ĠdÃ©f is
ĠsiÃ¨ ges
Ġposses sion
ĠÃ©c ologique
Ġmajor itaire
Ġopportun itÃ©
ĠStre et
Ġtraditionn el
tes se
ĠP ok
Ġad Ã©qu
ĠsÃ© ances
Ġco tÃ©
Ġh al
Ġadvers aires
s Ã©s
cul aires
Ġtitu laire
Ġaimer ais
ĠP IB
is tiques
Ġfl ot
qu a
L A
Ġce inture
Ġtra ce
Ġpar lent
Ġcommerci aux
Ġjur y
ĠC S
Ġinspi rÃ©
Fran Ã§ois
Ġimp Ã©ra
Ġmil ieux
Ġcontinu ent
Ġdeg rÃ©s
Ġconf iÃ©
Ġch o
Ġcomplex es
Ġpl ante
Ġciv ils
ĠU r
Ġchamp ions
ĠF ont
ĠR el
ĠdÃ©t our
a pÃ©
gu Ã©s
ar k
Ġc le
ĠJ an
Ġintro duction
ĠPas cal
ĠV ill
Ġchauff age
Ġses sion
ĠDÃ© fense
Ġprodu cteur
ĠrÃ©c la
Ġprogram mation
2 6
ĠrÃ©par tition
ĠrÃ©ser vation
ĠJ ui
Ġconf orm
Ġdemand ent
ĠCong rÃ¨s
ĠGÃ©r ard
Ġagric ul
ul n
ar iste
Ġemp ire
Ġv aisse
D A
Ġsex uelle
rÃ¨ tement
Ġinten se
ĠdÃ©m Ã©n
end um
Ġperman ence
Ġsou l
Ġorig ines
ord s
Ġrecommand ations
end s
Ġadap tÃ©s
is Ã©es
Ġtend ances
ĠH aut
Ġpr ouver
Ġfisc al
Ġdoig t
ra ble
omm Ã©
ol ine
Ġcl ar
Ġpri Ã¨re
ill Ã©es
Ġemp lo
Ġsa chant
all en
ont re
v Ã©n
Ġatta quant
ur gie
Ġsav ons
Ġtot alitÃ©
Ã¢ ts
ĠM u
Ġpub lier
ou ts
Ġrecru tement
Ġproven ant
ĠComm ander
ĠÃ©ch antill
Ġri z
Ġaj us
Ġsymb olique
Ġcollabor ateurs
Ġmor al
Ġlim itÃ©
ĠtÃ©lÃ©char ger
ĠrÃ©g ul
li ques
ay er
Ġ6 8
ĠmÃ©dic ament
Ġfonction ner
ĠÃ©vent uellement
ĠchaÃ® nes
Ġpo Ã¨te
Ġconfir mer
ĠAngl ais
Ġperspec tives
ĠH ab
ĠMar k
ĠÃ©vÃª que
ĠAl li
Ġd ommages
re urs
Ġunivers itÃ©s
ĠÃ©tend ue
Ġaccessi bles
Ġseu il
Ġprob able
Ġconse ille
Ġm our
g en
u tes
ĠRÃ© volution
Ġpa ie
Ġmar quer
Ġd at
Ġretrouv ent
Ġeffectu e
Ġf ri
Ġcin Ã©
Ġconf ond
ĠdÃ©par tements
Ġt endre
Ġra tta
Ġconc lusions
Ġdu e
Ġmas sif
ĠH um
ĠC alif
Ġ20 20
m or
ĠAn ton
Ġinter romp
ĠOc cident
ĠcrÃ© di
Ġposi tive
Ġcour riel
Ġsex y
Ġinter vient
Ġpers u
Ġma il
ĠL y
ĠB ure
Ġinf os
Ġinterven tions
Ġnum Ã©riques
Ġl its
U M
ĠMont pel
Ġ6 6
Ġr omp
Ġenv oie
Ġpa use
Ġcom Ã©die
or gan
Ġcomp ose
3 3
de au
ĠG Ã©
C om
O ui
Ġor ange
Ġconcent ration
is tait
Ġl ot
ĠdÃ©c o
f ord
Ġsau vage
Ġrom ans
Ġse igneur
Ġcli quant
Ġfa im
Ġen rich
ĠcrÃ© dits
ĠstratÃ©g ies
Ġsimil aires
Ġten ant
ĠMe xique
av re
ĠR em
lis es
Ġsu prÃªme
Ġcommiss aire
Ġno bles
ale m
Ġfac teur
Ġinter p
ĠconsidÃ© rÃ©e
an im
Ġprof itÃ©
h one
Ġann oncer
ĠRoy al
Ġtranspar ence
ĠcrÃ© ations
Ġfut urs
h ier
Ġpo t
Ġin ac
ĠA p
Ġcul tiv
M ais
Ġco qu
ĠprÃ©sent ant
ĠgÃ©nÃ©ra ux
olÃ© on
ph a
Ġprot oc
Ġiss u
ĠdÃ©te c
ĠprÃ©sent Ã©s
ĠvÃ©g Ã©t
le tte
ĠS C
Ġme c
Ġfrom age
ĠtÃ©m oin
ĠDÃ© jÃł
Ġ198 9
Ġc oiff
ĠM is
du ite
Ġlar mes
Ġvoy ant
Ġ17 9
Ġvo tÃ©
Ġg l
Ġhume ur
Ġp onc
ier ge
ĠUk raine
li p
t Ã¨re
ĠMar s
Ġoccup ation
ĠmÃ© pris
Ġculture lles
Ã©ra ire
ĠpÃ©ri ph
Ġh eur
for mes
ĠspÃ©ci alisÃ©e
Ġcan al
ebdomad aire
m as
Ġalbum s
Ġemploy eur
Ġpubli Ã©s
ĠT op
ĠÃ©n ormÃ©ment
ĠOp en
Ġfen Ãªtres
si fs
Ġinves ti
ĠR Ãī
Ġfer mer
Ġmet s
Ġcontribu Ã©
Ġpens Ã©es
Ġfac ture
Ġinter face
Ġprovis oire
ĠrÃ©alis Ã©es
Ġtrans mettre
ĠJ on
or teur
Ġquar ante
Ġcl assÃ©
Ġremont er
Ġvo let
ĠÂ ·
OM M
V A
ĠprÃ©cÃ©d ents
ul l
ĠTh ierry
Ġc ig
ĠinfÃ©ri eur
ĠB D
vis ible
ph y
ĠGÃ©n Ã©ral
e p
Ġave ug
orta tions
Ġsp orts
Ġhar mon
ĠrÃ© tro
cie uses
ic o
Ġracont er
ĠTra va
ĠrÃ©ac tions
Ġterroris tes
ĠÃ©th ique
ĠE S
Ġar ran
ĠL ais
ĠBrun o
l ante
Ãª le
b us
ĠhÃ©ro Ã¯
ĠCath erine
ĠJuli en
Ġti ens
oy ant
Ġinform er
Ġpl ai
Ġfor ment
ĠBar celon
ĠV enez
Ġchante use
ĠS O
ĠQ UE
ig re
ĠPense z
ĠB ab
Ġphot ographie
Ġcommerci ales
Ġver te
ĠdÃ©di Ã©e
w ood
b aye
O n
Ġcons oli
Ġesti m
ĠÃ©trang Ã¨re
O rient
Ġmon Ã©taire
Ġd ign
ĠAut riche
Ġvie illes
Ġappar aissent
Ġparam Ã¨tres
Ġop tique
ĠSur tout
Ġl oup
Ġ u
de x
Ġapp ortÃ©
ĠrÃ©s ist
Ġrest ant
rib uer
ĠOly mp
ĠintÃ©ress Ã©
au tion
ĠbÃ©nÃ© fices
Ġpo p
Ġcha ir
ĠH u
2 7
ĠIn tÃ©rieur
Ġbless ures
Ġheure use
l um
Ġr Ã´les
Ġsub li
Ã©m atique
Ġconseill ers
in age
ĠmÃ©da ille
Ġconf ormÃ©ment
Ġsmart phone
Ġv rais
Ġfais ons
IT Ãī
Ġli aison
ĠI P
or tation
Ġdimin uer
ose x
Ġchaleure ux
ĠÃ©lab oration
ĠlÃ©giti me
mb le
ĠdÃ©c al
cri re
ĠM ot
Ġcontra c
Ã©ra teur
Ġcar re
Ġabs olue
Ġser vent
ser ie
Ġra ce
ĠSÃ©n Ã©gal
Ġgar s
Ġsupp ression
ĠMa urice
ĠextÃ©ri eure
Ġaccord Ã©
ĠMontpel lier
Ġass ist
Ġeffic aces
ĠDire cteur
Ġf lex
Ġ7 8
ĠdÃ©fense ur
Ġmag ique
ter ies
Ġg estes
Ġtax es
Ġpense z
Ġco alition
Ġj ardins
Ġmeur t
CH E
Ã´ ture
ist Ã¨re
s o
ĠdÃ©li b
Ġc ents
Ġrelig ieuses
Ġt Ãªtes
Ġconstru cteur
ne urs
y o
Ġoccu pÃ©
Ġvi vement
Ġg ain
Ġdemand ant
Ġauxqu elles
ĠEn v
ĠOn t
Ã¢te aux
Ġcoup able
Ġoubli ez
Ġiniti atives
Ġnorm alement
Ġt as
Ã´ tre
Ġpratique ment
ĠB at
Ġsuiv ie
Ġvoy ez
Ġ7 00
ĠC op
Ġavanc Ã©e
as es
Ġindi ff
Ġliv rer
ha us
Ġhyd ro
ĠDen is
Ġins ur
Ã© re
Ġspecta cles
oc key
v u
Ġreb elles
Ġform id
ou c
Ġtrent aine
Ġver ra
ĠlÃ©gis lation
Ġtra its
ph es
ĠB ois
ĠU R
ĠopÃ©ra teurs
Ġexplic ation
op le
ĠdÃ©g Ã¢ts
me ur
Ġas tu
Ġch ers
Ġb aptis
w i
Ġcin quante
Ġsign er
Ġdiagnos tic
Ġn utri
ĠhÃ©ber gement
tis te
ĠAr ticle
Ġvie ill
Ġann uelle
Ġattent at
me d
Ġval oir
Ġfonctionn alitÃ©s
Ġred ou
Ġm ous
Ġconvain cu
Ġo deur
ro i
ĠexpÃ© diÃ©
Ġurb ain
ĠT able
ĠBar b
Ġenc ontre
Ġci me
M C
h an
Ġnavig ateur
Ġn orme
ĠC Ã©
ug by
ven tions
ran ces
ĠO tta
ĠC y
Ġca val
hi p
Ġfamili al
ĠD o
Ġcontrib ue
Ġsouver aine
uis e
Ġgr en
ĠmÃ©n ages
ĠB onne
m il
ĠC i
ĠC re
Ġsouhait Ã©
Ġdipl Ã´
Ġconser vation
Ġconfig uration
Ġcas se
ĠG illes
ĠN E
Ġcour ir
Ġvi ve
s is
Ġinst ance
ĠAr c
Ġten sions
ĠS ER
Ġdirige ant
Ġval id
Ġsta tions
Ġinf ra
ĠdÃ©tru ire
Ġaff a
Ġf au
IN S
Ġb en
Ġopp osÃ©
b onne
oute z
Ġan th
tu des
Ġpil otes
Ġhom osex
Ġsour is
ov a
Ġparc our
ĠE ff
ĠbudgÃ© taire
Ġsur n
Ġd ose
Ġrembour sement
ĠÃ©vo quÃ©
am Ã©ric
ĠrÃ©ser ves
Ġlais sent
Ġtech ni
ĠS or
Ã©rÃ© es
Ġtable tte
Ġri gue
Ġtal ents
ĠM ul
ĠrÃ©gion ales
ĠA dam
onn ent
Ġref user
ĠtÃ©lÃ© vis
Ġrel ais
Ġn az
ĠdÃ© tention
ĠP A
Ġparti cul
Ġmen aces
Ġbr ou
Ġqu eue
ĠdÃ©place ments
Ġch Ã¢
ĠL uxe
ĠC ab
ĠmÃ© lo
ĠÃ©cla ir
Ġaccord er
Ġsta ble
Ġremplace ment
Ġemp re
ĠPal ais
Ġcomporte ments
Ġexpri me
Ġsou pe
Ġint ensitÃ©
Ġinti me
Ġcrain te
Ġsort ant
ĠiP hone
Ġh ect
Ġartif ici
Ġcomp arer
Ġm orte
ta ger
ort ant
Ġsub ir
Ġqualif iÃ©
ĠV ar
ĠCam er
ni Ã¨re
li m
ĠtÃ©m oigne
mp h
Ġ6 7
ĠDÃ© velopp
Ġs Ã¨che
Ġpare il
as si
Ġspor tifs
Ġcivil isation
Ġcl Ã´ture
Ġanaly ser
ĠG old
Ġap ais
Ġlib Ã©ral
Ġappuy er
rÃ© nÃ©es
Ġguer res
2 8
ĠS ab
Ġboute ille
ĠOrgan isation
AR D
ĠmÃ© d
Ġcomprend s
ĠMarc el
il y
Ġbi z
Ġprend s
Ġcompli quÃ©
end er
it aine
ĠF r
Ġban li
Ġpoli cier
Ġexplo sion
Ġmar quÃ©e
i p
ĠamÃ©li or
Ġfon de
us ta
Ġimp ati
k el
ĠF ra
ĠB ob
Ġp aire
ĠS yn
ĠCh er
Ġconf Ã©rences
ĠHeure usement
ĠdÃ©s in
F A
ĠB or
Ġprisonn iers
Ġri v
ĠIr lande
Ġbless ure
ĠspÃ©ci alisÃ©
Ġrand onnÃ©e
ĠdÃ©couver tes
N ous
Ġconv o
omm Ã©e
D en
Ġgouver neur
ĠBen oÃ®t
Ġang ois
iterran Ã©e
ĠimprÃ© cis
Ġboul ot
Ġguit are
Ġcontempor ain
ĠintÃ¨g re
ĠP atri
ic ale
ĠprÃ© voir
Ġb rig
ĠOtta wa
Ġsimil aire
nis ation
ri ons
Ġtra itÃ©s
ĠlÃ©g ende
ĠON G
Ġmu tu
Ġf Ãª
ĠG lo
Ġsecond aires
Ġsur p
ĠprÃ© nom
ager ie
Ġdis ques
Bre tagne
Ġchap elle
Ġvolu mes
cu les
ĠR od
Ġcouv rir
Ġd oul
ĠR ose
ĠRÃ©s ul
Ġinstal le
ĠCalif or
Ġalg Ã©ri
Ġdr Ã´le
Ġjui fs
m Ã¨re
Ġca cher
Ġt ables
ĠFond ation
Ġcomp ta
Ġins crits
Ġmesure r
ĠdÃ® ner
ĠDi ff
Ġin ond
Ġpi ano
Ġhabitu des
Ġen s
ĠO rient
Ġtir s
Ġconser ve
Ġgr ille
Ġouver ts
Ġpropos Ã©e
Ġdonn era
Ġhos pit
ĠVic tor
Ġcomp ens
Ġalli Ã©s
Ġtourn Ã©
ĠintÃ©ress ante
Ġconvers ation
ĠF RAN
Ġliv rÃ©
Ġurb aine
Ġdestin Ã©s
Ġinc ons
at o
Ġsensi bles
qu era
Ġad hÃ©r
ant aine
Ġsuscep tibles
a o
Ã©d rale
ĠE ST
ionn ats
ĠconsidÃ©ra ble
Ġcompren ant
p ent
3 4
ĠG R
Ġfournis seurs
Ġch Ã¨re
ĠY ves
rop ri
Ġobser ve
ĠÃ©ner gies
ol er
ON S
Ġpan or
Ġdisposi tifs
Ġperman ente
Ġinj us
Ġpass ages
Ġmagni fiques
ĠM od
ĠB ach
ĠrÃ©fÃ©r endum
ell ation
Ġfig ures
Ġres pi
Ġexcell ence
Ġ16 0
Ġremer cie
Ġdoc tr
ĠM iss
Ġcour ants
Ġal ar
Ġ7 7
Ġpass Ã©es
di ctions
Ġmauvais es
ang ers
ĠB ert
ĠDire ction
ĠBarcelon e
Ġsou cis
aiss Ã©
ĠmÃ©n age
es sionn
Ġrecommand Ã©
raire ment
ĠÃ©p ic
Ġsh ow
Ġvers er
Ġhau tes
Ġnu its
Ġtomb Ã©
r ue
Ġbon us
Ġpar adis
ĠD ur
Ġcuri eux
Ã© tiques
ĠLiv raison
Ġpay Ã©
Ġr usses
Ġaven ue
ĠFond s
Ġcon d
ĠA ur
ĠchrÃ© tien
Ġinuti le
Ġpl as
Ġman che
Ġs ph
Ġfi dÃ©
s tes
Ġarchite cte
Ġsalari Ã©
O u
ag eux
it oy
r ouvez
s ter
ĠdÃ©c omp
ĠN ature
Ġsouff rance
ĠrÃ©un ions
ĠÃ©par gne
Ġrele vÃ©
ĠdÃ©lÃ©g ation
ĠH y
Ġappel Ã©s
ĠQu atre
ĠD ANS
ATION S
Ġexc Ã¨s
Ġcommand ant
Ġ7 2
Ã§ ants
Ġcatastro phe
e ff
Ġf olie
k h
y le
Je an
ĠChac un
ĠS oph
Ġnav ires
Ġso yez
ĠprÃ©par Ã©
Ġentour age
P aul
ĠP age
Ġgu Ã©r
Ġconsomm ateur
Ġco h
Ġcl inique
Ġmag ie
ĠM ass
omb e
ĠrÃ©un is
vi endra
Ġti ennent
Ġcompati ble
Ġrat tra
Ġso vi
Ġon ze
Ġf oul
Ġi v
Ġtour istique
ĠÃ©clai rage
Ġgour mand
ĠLe urs
ĠRen Ã©
t us
ĠdÃ©s ac
ĠPortug al
Ġpanne aux
ĠOff ice
Ġtyp ique
Ġfac ilitÃ©
ĠR ock
Ġh Ã©ri
Ġt Ã©l
ĠO R
Ġmultip li
ĠW orld
Ġliber tÃ©s
Ġrest ait
Ġsusp ension
es tionnaire
Ġenvis ager
ĠD iv
ĠÃ©t oile
IL L
Ġpar lant
Ġcarb one
Ġgrosses se
ĠrÃª ver
Ġappu ie
Ġarti cul
ĠT it
Ġdev int
ĠdÃ©ser t
Ġl ouer
ĠC ulture
Ġja unes
ĠI b
Ġfix er
ont o
ct rice
Ġs tre
Ġimp osÃ©
ĠrÃ©glement ation
Ġpro ph
F R
Ã©n i
Ġprovo quer
ter r
ĠFran c
Ġrigue ur
ĠÃ©v olue
ĠAl pes
Ġren vers
el in
Ġexplic ations
z o
Ġfl or
ĠrÃ©mun Ã©ration
ĠnÃ©goci ation
ĠD Ã©b
ĠT ro
tis s
ĠpÃ©dagog ique
Ġordonn ance
o ivent
Ġrep oser
Ġargu ments
ul t
Ġcollec te
ĠprÃ©cÃ©d entes
Ġsac rÃ©
Ġindi quer
Ġv entre
Ġoccas ions
ĠD H
Ġdiri ger
ĠA mb
Ġsouff re
Ġdispar aÃ®tre
ĠC r
enti r
ĠT TC
ille ur
Ġappro fond
Ġ8 8
Ġquel conque
ay a
ĠR y
ge ant
Ġpoli ti
Ġcr ist
ch en
ĠingÃ©n ieur
l ons
t ar
Ġpl aÃ®t
ĠsÃ©par ation
Ġv Ã©tÃ©
Ġba ign
s us
Ġgal erie
Ġcor re
ĠÃ© met
Ġcons tante
and ie
Ġemp orter
Ġpropos ant
ĠSau f
ĠD Ã©m
Ġdeven us
ĠF ort
ĠPS G
Ġfond ation
ĠR ES
ĠRen ault
ĠJus tice
ĠG ros
el Ã©
Ġmar oc
Ġling uis
ĠFran k
Ġparis ienne
Ġcong rÃ¨s
Ġmob iles
lis tes
Ġgar age
ĠR ac
ĠV Ã©r
Ġabord er
Ġfran chement
Ġa us
Ġag gra
ĠF em
ĠServi ces
ĠCh Ã¢teau
d ing
Ġang lo
ĠB ig
Ġprovo quÃ©
ole il
Ġmusic al
ow er
ĠÃ©di fice
Ġattend ait
ĠWi ki
ĠapprÃ© h
Ġessenti elle
Ġemp ris
Ġcouv re
Ġqualif ication
Ġmeu bles
Ġdistin gue
Ġconj ug
V OIR
ĠÃ©t onn
Ġconf ie
ĠdÃ©b it
ĠÃ¢ gÃ©es
Ġdeb out
Ġobserv ations
Ġe mm
Ġse mi
Ġpo it
Ġinconn u
ĠintÃ© resser
Ġf lu
Ġfrapp Ã©
s Ã©es
Ġren dement
in ois
ĠN ath
Ġconstru ite
Ġz Ã©ro
Ġaffir mer
U X
Ġdiff usÃ©
Ġsynth Ã¨se
Ġcomprom is
ise mbl
2 9
Ġoffici er
ĠAl b
andis es
ĠL og
M B
ĠprÃ© ju
Ġg Ã¢teau
Ġtu Ã©s
ĠBure au
Ġvi es
ĠRÃ©s er
Ġor gue
fi ant
ve il
Ġprol onge
Ġmot o
ĠTunis ie
Ġ17 8
ĠE h
ĠgÃ© ographiques
Ġrev ers
Ġaband onner
Ġpar ts
mp er
Ġ198 8
Ġman quÃ©
Ġimp ro
Ġcondu cteur
Ġsupp orter
ĠIs ab
ĠrÃ©du ite
ĠreprÃ©sent ations
Ġamen er
ĠU ti
Ġinf lation
Ġconsac rÃ©e
Ġla ve
ĠB es
Ġfil iale
Ġprend ra
Ġtra h
Ġtrav erse
Ġ6 3
ĠSÃ© curitÃ©
Ġproc urer
Ġb andes
ĠprÃ© visions
ĠSeu l
ch ers
Ġt ub
Ġbour geois
Ġorigin aire
ĠfaÃ§ ade
ĠfrÃ©qu entes
Ġenregistre r
ĠdÃ©sig ner
Ġsupp ose
ĠAm az
Ġgu eu
Ġr entre
ative ment
Ġv ed
Ġhabit ation
ĠMa j
Ġb ol
Ġsuc cession
ĠinfÃ©ri eure
ĠS ciences
Ġouver tes
Ġrec yc
ĠfrÃ©qu ence
Ġactu els
Ġgouvern ance
Ġde dans
Ġcher chent
Ġchir urg
Ġag glom
ĠT al
Ġs k
ĠP ont
ĠE P
Ġps eu
Ġcon tienne
Ġappar tenant
Ġpil o
Ġbais ser
Ġchin oise
v an
Ġy a
Ġcro ise
Ġinf ini
Ġson ore
Ġroy ale
ĠN a
char ger
ĠadhÃ© sion
p ir
ĠmÃ©can isme
ur y
Ġenle ver
on ci
ĠTor onto
Ġconcurr ents
res sif
ĠFin alement
sif ication
ĠA y
ĠfÃ©d Ã©rale
AN D
on a
ĠhÃ©r itage
Ġhect ares
en ant
ĠA ri
ĠÃ©v Ã¨ne
Ġpomp iers
Ġb ourg
x i
iss ons
Ġdiam Ã¨tre
ĠTe chn
Ġid entique
er ait
Ġparta gÃ©
ĠÃ Ĥ
Ġcli m
Ġsaur ait
ĠimprÃ©cis ions
n am
Ġreven dic
Ġcaract Ã¨res
Ġsur vie
Ġsitu Ã©s
ĠprÃ©f et
ĠTV A
ĠCh ic
ĠrÃ©ser ver
ĠEn f
ĠagrÃ© ment
ĠPro gram
ine use
ini um
Ġ198 6
Ġcan n
Ġsimp licitÃ©
ĠsÃ©lection ner
ĠE li
Ġfa usse
Ġreven di
Ġpermettra it
ĠDis ney
Ġpor tait
Ġv uln
Ġav Ã¨re
ĠÃ©ch anger
ĠrÃ©par ation
le m
Ġpermet tront
Ġfas c
Ġillus tre
ĠcomplÃ©ment aires
ĠdÃ©tru it
Ġt un
tÃ© ritÃ©
Ġ7 6
on ais
ĠmÃ©can ismes
mi ers
ĠAngel es
ch o
ĠP et
ill ent
Ġconc lure
j on
Ġre tenir
ic s
L uc
Ġ9 9
ĠD ie
el ons
Ġrac ines
ĠSu Ã¨de
ĠRog er
Ġd ent
ĠrÃ©s ister
Ġlum ineux
ont an
Ġca mps
Ġprovin ces
ĠT F
o pe
ĠT im
EN CE
ograph e
ĠÃ İ
que mment
Ġinter nes
Ġ up
Ġex cessi
z y
ĠIn d
Ġin se
Ġrest re
Ã¨ lement
Ġrec ouver
Ġoffici ers
Ġenthousias me
Ġdimin ution
is ant
anc el
ĠNap olÃ©on
Ġajout ant
Ġmonu ments
Ġrub rique
ĠCh ois
Ġcont ente
Ãī R
Ġenqu Ãªtes
Ġc aisse
Ġcolle ctions
Ġpr Ãªtre
Ġtab ac
ĠdÃ©b ute
ĠLa ur
Ġtourn ant
ĠindÃ©pend ants
Ġt ome
Ġcons ens
Ġara bes
ĠÃ© ti
ĠG estion
Ġhor aires
ite urs
ouv ant
ĠrÃ©uss it
Ġmanif este
Ġso igne
Ġten nis
Ġpron onc
Ġencour ager
TI QUE
Ġrang s
Ġcommun iste
ron e
ĠP oint
Ġvig il
Ġj azz
ĠS our
Ġces sÃ©
Ġrem onte
ĠS pÃ©
o tique
Ġras semble
and s
ĠMÃ©d iterranÃ©e
Ġdis cre
Ġacc ou
ĠXV I
n ait
as tien
ou ement
Ġco des
Ġsta bil
Ġcons ole
Ġallemand s
ĠcÃ´ tes
ĠrÃ©nov ation
Ġdi ab
ĠdÃ©b ou
Ġvend us
Ġc oton
Ġver tic
Ġt ric
U T
ĠN av
as on
id a
Ġcomp tait
Ġchois is
Ġf oc
Ġre tenu
Ġex ister
or tÃ©es
Ġpollu tion
Ġcommunau taire
Ġpuiss ante
Ġremp orter
ĠH Ã©
Ġactu elles
Ġsoulig ner
Ġvir tu
ĠK er
ĠRÃ© un
Ġai dÃ©
Ġdo tÃ©
ĠprÃ© texte
Ġtraditionn els
m Ã¨tre
Ġg onf
Ġeff ac
ab eth
Ġray ons
ĠP E
onn ier
Ġengag Ã©s
at ar
ĠnÃ©g lig
Ġsoix ante
ĠMal i
Ġenseign ant
ĠT i
Ġnour rir
ĠO S
Ġrapi des
iss ance
Ġin cident
Ġspor tive
Ġtrou b
ĠmÃ©tÃ© o
Ġar na
ĠvÃ©rit ables
us alem
Ġorch estre
Ġten ait
Ġrep ous
3 6
g ets
Ġincontourn able
ite d
I CE
ĠCÃ´ tÃ©
Ã© qui
ĠC C
ol l
Ġconsta mment
ri ces
Ġgra v
ra ts
Ġhor reur
Ġimm ob
ĠÃ ´
ĠH el
Ġsy ri
ĠAf ghan
Ġd j
Ġchi miques
ĠP la
3 7
D es
ĠUS B
D S
si ble
Ġas pi
Ġus ages
ĠsÃ©rie usement
ĠP U
it te
Ġcl avier
ĠÃ©limin er
Ġtant Ã´t
Ġeffec tif
Ch ar
Ġc og
Ġmar ine
Ġcellu le
Ġdiv in
ĠÃ©paisse ur
ĠtempÃ©ra tures
as tre
tri que
ĠNation ale
d or
Ġmyst Ã¨re
Ġinten tions
end ront
Ġparlement aires
R Ã©
ĠrÃ©s umÃ©
Ġcour ts
Ġexp osÃ©
ĠT ok
ĠdÃ©c Ã©dÃ©
Ġman us
Ġpous sÃ©
Ġnul le
Ġg ig
ĠrÃ©sul te
c ade
f euille
ĠrÃ©c ent
Ġbord s
Ġcontempor aine
v iennent
Ġmatin Ã©e
ĠdÃ©c oup
Ġdispos ent
ly sÃ©e
Ġfig ur
ĠM ou
Ġ14 0
Ġprom esse
ĠLÃ© on
Ġal um
Ġte mple
ende z
Ġacc um
Ġbran ches
Ġt Ã©n
Ġcou ches
aiss elle
Ġpor table
ĠCalifor nie
ĠM ilan
Ä Ĥ
ĠL ivre
mer ie
ĠÃ©p oux
ĠfÃ©min ine
ĠS oit
ĠCor se
ĠrÃ© vision
r Ã¨tes
Ġdouce ment
au rer
ro vi
ĠopÃ©ra teur
ĠexpÃ© dition
Ġra yon
ĠdÃ©sig ne
Ġamb i
ĠG il
ĠrÃ© cip
p age
Ġent rÃ©es
ĠRh Ã´ne
ĠmÃ©l anger
Ġoub lie
ĠÃ©t onnant
Ġcam ion
ĠrÃ©c entes
Ġpour cent
Ġser ais
Ġsp ontan
Ġexp ans
Ġtra ins
Ġd il
ĠK ing
Ġs ainte
ĠimmÃ©di ate
Ġsympt Ã´mes
Ġus agers
Ġdro gue
ĠPro vence
Ġnom ination
Ġcompren nent
Ġlour de
Ġindividu elle
ore l
Ġind ire
tu mes
ar ts
Ġs ons
Ġeffec tifs
di ce
ĠprÃ© dÃ©
Ã¨ vement
Ġhabitu ellement
ĠrÃ©s olu
w ard
Ġarri vÃ©s
Ġsur mont
anci ers
Ġch or
Ġmaxim ale
Ġrenforce ment
Ġpap iers
bo x
Ã©r on
ĠprÃ©c on
ĠC ra
Ġparis ien
Ġcommun s
ĠproblÃ© matique
ĠL am
Ġh orm
Ġarri v
Ġgaranti es
Ġfaibles se
ĠJui fs
ale tte
T P
Ġar chi
d Ã©s
ĠG a
C ar
if i
Ġmath Ã©matiques
Ġpren ez
ĠÃ©dite urs
Ġ198 4
Ġoeu fs
Ġmotiv ation
Ġaband on
Ġvi f
ĠPrÃ©sent ation
Ġreg rette
Ġreg istre
ĠÃ©vÃ¨ne ments
Ġd ons
Ġmine urs
ĠCont rairement
Ġbou tiques
ok e
tra tions
Ġprati quer
l ais
Ã©b astien
ĠCon vention
Ġproven ance
ar isation
Ġbo x
Ġhos pital
Ġso eur
ĠRÃ© f
Ġpo dium
ĠIs lam
l ue
ĠB ill
Ġsensi bilitÃ©
ĠG UI
Ġmatern elle
Ġrense igner
Ġsoci alistes
Ã¨ nent
ti lle
w an
3 2
ten ait
og Ã¨ne
op ie
ĠvÃ©rit ablement
Ġ7 4
ĠtrÃ©s or
Ġblan ches
Ġdorm ir
Ġvi ole
Ġdic ta
Ġg e
re uses
TI C
Ġla s
Ġcu ill
ĠÃ ĥ
Ġcompagn on
F i
Ġexp ositions
is ations
Ġg Ã¢
Ġth Ã©rapeu
y ons
ĠVall s
Ġolymp ique
ĠSN CF
Ġrend ue
pe ction
Ġdis sim
Ġaler tes
Ġaband onnÃ©
Ġver ts
ĠR ennes
ĠMar ia
d d
Ġpour rais
tin es
ĠIN TER
ĠDim anche
el a
g as
Ġvoy ait
Ġ6 2
Ġtran che
Ġl istes
Ġtechn ologique
Ġres sent
Ġma qu
ĠA ch
ouv rir
Ġtra ditions
Ġcombat tants
Ġsuscep tible
ĠV u
lo ts
ĠLuxe mbourg
ĠL um
ĠP ublic
ame d
ĠCro ix
ĠO ne
ĠAut ant
I EN
Ġl une
Ġtourn age
D ame
ĠMon te
Ġp y
ĠspÃ© cul
Ġmen Ã©es
ille ment
Ġmeur tri
Ġfil iÃ¨re
Ġsix iÃ¨me
Ġpsych ologique
Ġcor rection
ĠdÃ©fini tive
Ġoffensi ve
Ġg lac
Ġprog resser
ĠPh il
ĠapprÃ©cie rez
Ġex erce
Ġv ou
Ġexpl orer
ĠAfghan istan
ĠB ac
Ġac tionnaires
Ġcommande ment
Ġintro duit
Ġn omme
Ġpoit rine
Ġf eux
Ġimag inaire
Ġessenti elles
Ġnett oyage
ĠG uide
R e
Ġrend us
ĠP res
tue use
Ġagricul teurs
Ġrecue il
ĠrÃ©p ub
Ġcoute au
ĠdÃ©b utÃ©
u Ã©e
Ġesti ment
Ġb Ãªte
z i
Ġ19 50
V oir
Ġcan apÃ©
k m
Ġchois it
Ġbate aux
Ġentrepren eur
Ġautor oute
Ġraisonn able
ne c
Ġ13 0
Ġexpri mÃ©
Ġd or
ĠXIX e
ĠThÃ© Ã¢tre
Ġces ser
Ġ198 7
ĠR iv
Ġengag Ã©e
P L
Ġm out
ĠP H
Ġfati gue
ĠcrÃ© ateur
av a
ĠPos te
Ġb iÃ¨re
3 1
Ġcit ron
Ġman agement
Ġmin or
Ġag rand
ĠrÃ©ag ir
Ġl entement
Ġdom ination
Ġt ut
ĠÃ©g yp
oris ation
ĠT rib
ĠJ osÃ©
Ġcombin aison
Ġsac s
ĠrÃ©un ir
AB LE
Ġent er
Ġlic enci
ĠdÃ©p ass
Ġm n
ĠrÃ©f orm
Ġcol onne
Ġlar ges
Ġdign itÃ©
Ġf al
ĠphÃ©nom Ã¨nes
Ġh ockey
ri ra
ĠFranÃ§ais e
Ġ \
ĠT ant
ĠmÃ©di atique
Ġlib Ã©rer
ta gon
ĠspÃ©ci ales
Ġgran di
ĠchrÃ© tienne
ĠSec onde
Ġas tr
Ġrel atif
Ġappare mment
ĠT OU
Ġpri ori
Ġtransf orme
Ġex il
Ġd ensitÃ©
Ġuti litÃ©
ĠRou ge
Ġ... ..
che v
Ġopp ose
ĠRet rouvez
Ġli ve
ĠW il
Ġprochaine ment
ĠO pÃ©
ĠDe mande
ĠI L
Ġfa Ã§ons
ov ic
Ġchar gÃ©s
or di
par tement
Ã» te
Ġsimul tan
ĠrÃ©pert oire
Ġhonn Ãªte
ag Ã©s
Ġcon sig
Ġdistin ction
Ġaper Ã§u
B S
ĠU l
ĠIN F
if ier
ur ance
Ġopp oser
ta is
Ġcentra les
Ġtr ous
Ġdonn ait
Ġtr ompe
a ve
ĠFam ille
rai rie
pond re
Ġav al
ĠbÃ©nÃ©fici ent
ĠJÃ©r usalem
v ise
Ġprinces se
ten ez
ĠPar k
Ġiniti ale
Ġcas que
Ġpertur b
ĠE C
ĠI le
Ġposs Ã¨dent
c ence
Ġnation alitÃ©
Ġcath Ã©drale
ci ale
Ġparticip ent
ĠSer ge
Ġimp er
ĠC lar
Ġh is
Ġremar quÃ©
Ġconc lut
d ay
Ġfile t
ĠÃ©c laire
ĠinquiÃ© tude
Ġopin ions
Ġretour ne
Ġpropor tion
ting uer
ĠsÃ©lection nÃ©
ĠP op
ĠR io
Ġcamp ing
Ġcom tÃ©
ĠprÃ©f Ã©rence
ĠdÃ© mis
Ġgaran tis
ĠAllemand s
Ġaccep tez
ĠM r
Ġconn ait
ĠrÃ©volu tionnaire
le urs
Ġiniti alement
ĠT ch
Ġgratu its
Ġla tÃ©ra
Ġsera i
ĠingÃ©n ieurs
Ġbi ologique
ĠRe al
Ġplac Ã©s
Ġbijou x
Ġbal les
Ġinterro ge
Ġcig are
Ġp ince
Ġlun ettes
ĠÃ©lectr oniques
ich el
Ġc ardin
Ġri di
ĠdÃ©sig nÃ©
Ġsupport ers
ĠM am
ĠH ill
Ġjuri diques
Ġprom esses
Ġsuffis ant
c ro
3 8
Ġentrepren eurs
Ġculture ls
Ġsubs titu
Ġfl amb
Ġm agnÃ©
ĠcontrÃ´ les
Ġdi eu
ĠimmÃ©di at
ĠÃ©v Ã¨nement
Ġfer rovi
Ġa iles
ar ie
ĠMas ter
Ġ198 5
C ette
Ġb ur
ob e
ais ses
ĠJean ne
te in
ĠR ab
Ġrepro duction
Ġt Ã©
Ġva peur
uis s
ur ier
Ġretra ites
oun t
Ġdevi endra
ĠPh ot
c Ã©es
Ġtrou ble
ĠW in
Ġformid able
Ġacc orde
Ġpsy chi
Ġsouver ain
man ie
ĠÃ©le vage
ĠnÃ© o
Ġorgan es
Ġal Ã©
l ou
Ġaur ai
ĠK i
ĠmÃ© t
Ġalum inium
Ġramen er
Ġimm un
ĠOb ser
end a
ĠO C
Ġri ve
Ġorganis ateurs
av al
ĠprÃ©f ecture
Ġasi le
c ure
Ġb rÃ©sil
l oi
si eurs
Ġpass ait
IN T
Ġcompagn ons
O B
ĠÃ© ro
m ois
c ts
Ġqu ad
ĠdÃ©f ensi
Ġgen res
Ġassoci Ã©e
Ġtis sus
ĠPers onne
Cl aude
Ġref aire
Ġent ente
Ġrel Ã¢
ĠconsidÃ©ra blement
Ġr endant
ign Ã©es
n d
Ġmont Ã©
Ġdestin Ã©es
ĠdÃ©termin ation
ĠrÃ©g imes
Ġgra ines
ĠHen ry
Ġcour onne
Ġcoord ination
Ġvag ues
ĠS oleil
tionn Ã©
- -
tÃ© n
ĠprÃ©v us
Ġdev is
ĠC amb
Ã©ra ux
Ġheure usement
ĠrÃ©flÃ© ch
IN G
Ġpron oncer
ers on
Ġdiffus Ã©e
Ġmarch andises
ĠJ im
ĠintÃ©gra litÃ©
ĠOnt ario
Ġprodu ctions
Ġp ut
Ġescal ier
te d
Ġlin ge
Ġdis tinguer
Ġvari able
Ġle v
Ġvolont aires
Ġfa ill
Ġform ulaire
ĠL ag
ĠBar ack
ĠÃ©v olutions
Ġinform Ã©
ĠB ir
ĠÃ¢ gÃ©s
ĠSte ph
aiss ait
ĠTe x
Ġamen Ã©
ĠPro p
h in
Ġco Ã©qui
ĠrÃ©d ac
Ġphotograph e
Ġolymp iques
Ġtar di
ĠdÃ©mont rer
Ġhy gi
ĠDi dier
Ġconserv ateur
Ġautoris Ã©
Ġtr istes
Ġadministra tives
j an
Ġmet tra
Ġvit am
Ġexplo it
ĠNo te
ĠreprÃ©sent Ã©
Ġsond ages
Ġpro di
Ġaccus ations
Ġcar dia
Ġa ustra
ĠrÃ©vÃ© ler
ĠÃ©t endre
Ġsurv iv
ĠÃ©cr ans
Ġs aut
ĠSu ite
Ġatti re
Ġ q
Ġplac Ã©e
ĠM ON
ĠÃ©tab lit
ĠFin ances
Ġexam iner
5 5
Ġinv itons
Ġrep or
Ġper ception
ĠPar fois
Ġ Å
Ġt y
ĠEUR OP
Ġs ti
ĠC ri
Ġvol ant
Ġh all
Ġespagn ole
ĠV endre
Ġquin zaine
Ġtravers er
ĠbÃ©nÃ©v oles
Ġ8 9
Ġbac tÃ©ri
Ã©l as
Ġen ri
i ff
Ġautomatique Oui
ĠÃ©g ale
Ġe c
ĠT RA
Ġpouv ais
ĠB us
Ġidentif ication
Ġmodi fiÃ©
Ġemb all
Ġponc tu
it ro
ĠextÃ©ri eurs
Ġcommun ications
ĠQu oi
anc y
Ġdesc endre
Ġsupp orts
un t
Ġrequ Ãªte
Ġass or
Ġunivers el
Ġt w
Ġan ten
Ġinqui Ã¨te
Ġmont rant
Ġnouveau tÃ©s
Ġmerveille ux
Ġo xy
Ġin ser
ĠV ienne
land aise
Ġtraditionn elles
Ġfac iles
Ġsol s
Ġcont est
Ġconcern ent
Ġhabit at
Ġprov oque
Ġsais i
Ġp is
Ġn au
que ts
ĠC u
Ġphy si
ĠÃ©c ras
Ġindividu el
Ġremer cier
Ġc f
Ġchant er
ĠgoÃ» ts
ĠI dÃ©
M T
ĠEx c
Ġiss ues
ui ra
Ġinst ar
ĠGUI DE
Ġra d
ĠfrÃ© quemment
ag ra
Ġcime tiÃ¨re
ĠrÃ© side
Ġbrit anniques
Ġsoi rÃ©es
ĠQu elles
ĠPers onn
Ġas tÃ©
Ġsau vages
ag ent
Ġir an
p rÃ©sent
u ment
p ers
ĠMon aco
Ġsav ais
Ġau dit
Ġal inÃ©
Ġpron oncÃ©
Ġvis ibilitÃ©
ad el
ĠE gypte
ER T
R S
Ġins iste
Ġvolont aire
iss on
Ġma illot
Ġfic tion
u tÃ©e
h ar
im a
Ġam ateur
Ġ194 5
f eu
ĠC AR
Ġconn ues
Ġb ond
enti elles
Ġsu l
Ġarna que
ĠSa medi
Ġreconn ue
Ġvol er
Ġaffich age
Ġcomplex itÃ©
Ġtent atives
Ġcitoy enne
Ġai le
L LE
Ġ198 2
ois es
Ġtruc s
ĠDe b
Ġp Ã´le
ĠÃ©p idÃ©
ĠN om
Ġmalheure ux
Ġgagn ant
ĠcÃ©lÃ¨ bres
ĠR T
ĠcoopÃ© ra
b ul
Ġbron ze
ĠdÃ©ses pÃ©
Ġeth n
ĠdÃ©n oncer
u eux
ĠnÃ© er
ĠPÃ© kin
Ġcar ton
Ġcou lis
A F
Ġcontra inte
ĠspÃ©ci alisÃ©s
Ġno t
Ġp antal
Ġauth entique
Ġbus iness
Ġextra its
Ġinterro ger
c us
Ġh ol
Ġremer ci
Ġfl otte
ĠN O
Ġs et
Ġins pec
ci o
Ġa z
Ġbour se
Ġperman ent
Ġexter ne
ĠdÃ© mission
ĠaÃ©ri enne
m ocra
Ġdist rict
Ġab bÃ©
duc teurs
ĠP RE
ern ant
Ġcuri ositÃ©
ĠT E
Ġaff ection
Ġmariti me
Ġar mÃ©s
ĠGre en
Ġrou es
Ġsuperfici e
op ath
Ġinv itation
Ġi mb
Ġplu me
E st
j o
Ġa ig
m ir
Ġamp li
Ġman Åĵu
Ġcamar ades
Ġcath oliques
Ġmus iques
ĠLe g
ĠrÃ©c onc
fi Ã©s
olÃ© rance
Ġimp rimer
Ġterr oriste
ĠCon sid
ĠcomplÃ©ment aire
Ġgrande ur
Ġv el
Ġtrouve z
ĠrÃ©s ume
Ġign ore
Ġunivers elle
ĠO h
ĠS un
ĠIn st
3 9
Ġlib rement
Ġ8 6
Ġr itu
ĠEsp agn
tis tes
Ġconcent rer
Ġp ack
Ġunivers itaires
Ġentour Ã©
Ġdesc ente
Ġrenouv ellement
ĠÃ©lect ro
ar que
Ġde lÃł
ĠdÃ©n once
ĠcollÃ¨ gue
ĠAr th
ĠprÃª tres
ori al
Ġimag in
c m
Ġconser vÃ©
ĠsystÃ©matique ment
pit aux
Ġp ais
Ġsil en
ĠB rig
Ġproje ction
Ġre tenue
Ġmain tenance
Ġinstall Ã©s
ĠthÃ© orique
Ġhabit ant
Ġsemb ler
ĠrÃ©p ression
Ġattra c
ĠCon tin
ĠH or
ol fe
Ġman ches
ĠprÃ© venu
ĠD re
cr ite
ĠÃ©ch o
ĠRecher che
Ġavanc Ã©es
ĠRe g
Ġpe aux
Ġappar tements
Ġinclu ant
Ġdra matique
Ġcl os
li Ã¨re
euille z
Ġac cidents
Ġconqu Ãªte
alog ues
Ġanim Ã©
Ġb aie
Ġtour istiques
ĠB TS
Ġser re
ĠÃ©conom iser
Ġcertif icat
Ã¯ n
ĠIsab elle
Ġaccomp lir
Ġsold at
ĠCommun autÃ©
ĠQu estions
ĠAcc ueil
Ġconse illÃ©
ĠÃ©vo quer
z er
ĠN iger
our d
ĠtÃ©l Ã©s
Ġviol ent
Ġrassemb lement
Ġbo ite
i ales
ĠAd minist
Ġobsta cles
Ġin Ã©v
ĠM aÃ®tre
Ġj oint
ĠSal on
Ġl an
ĠmatÃ©ri els
u ant
am ing
qu ier
Ġsoup les
ĠC ub
III e
Ġin att
Ġassur Ã©e
Ġmi roir
Ġam Ã¨ne
Ġfant astique
Ġbanli eue
ĠrÃ©un it
ĠG ri
Ġmodes te
Ġreg ards
Ġpol Ã©mique
ĠmÃ©th od
Ġne ws
ĠMin istÃ¨re
e y
oun d
ĠSeu lement
Ġtra g
Ġenvelopp e
Ġm Ã»
ĠCar oline
ĠmÃ©tro pole
av is
on al
TI L
el er
if e
jec tif
omm aire
Ġrecher cher
ĠÃ©l ite
Ġrecons tru
Ġpuiss ants
Ġmis Ã¨re
Ġ198 1
Ġmaj eurs
Ġn oires
Ġtermin Ã©e
ĠCh ange
Ġpublic ations
h ouse
Ġassis tÃ©
ĠAr m
ĠPro duits
ĠN ov
Ġc itÃ©s
Ġdoule urs
ĠCan nes
ĠL ouv
ĠdÃ© tenus
ĠK im
ĠdÃ©n oncÃ©
au ph
Ġcontinu itÃ©
ac ts
Ġappro vision
ĠM ade
ĠÅĵu fs
ĠschÃ© ma
Ġdoub lÃ©
ĠH an
os h
tor al
Ġ11 0
ĠSt an
ĠMin istre
lis Ã©
ĠastÃ© roÃ¯
Ġan tis
w ork
Ġmul titude
ĠDispon ible
ĠSta de
or tait
Ġpourcent age
Ġinterpr Ã¨te
Ġentre tenir
aly se
Ġdes qu
m it
ĠFl ori
Ġmes se
Ġha ve
is ent
ĠB oul
Ġins ol
er v
anc Ã©e
Ġconsac rer
Ġfavor ables
ir ont
Ġab onnements
S e
Ġfig urent
Ġmi el
Ġcha peau
it ure
Ġpure ment
i rait
ĠH i
ĠrÃ©public ain
Ġvois ine
Ġdisc rÃ©
Ġret omb
ĠÃ©tab lie
ĠLib ye
la ir
ĠsupÃ©ri eurs
Ġpo ignÃ©e
Ġall aient
ĠAb d
ĠVendre di
Ġrapp ortÃ©
Ġas se
Ġmas que
o f
ĠPeti te
Ġble ue
Ġadolesc ents
Ġ198 3
Ġparticuli Ã¨res
ĠRol and
Ġfut ures
ĠFor um
ĠdÃ©cla rer
Ġfranch ise
ĠmÃ©c onn
ĠJ E
Ġin dex
Ġexpans ion
Ġ8 4
Ġvoy ager
ĠK en
Ġvis iblement
co pe
ĠrÃ© cep
er c
Ġvo tes
ĠR este
ĠprÃ©c Ã©
Ġefficace ment
ĠF aut
de p
ĠSu pp
Ġpersonn ellement
dic aux
atis me
Ġanim ations
Ġexemp laire
fait s
Ġsuici de
Ġvill a
n eu
ĠM ise
ĠdÃ©mons tration
Ġche v
ĠActu ellement
ĠÃī gypte
Ġprotoc ole
ĠC liquez
Ġsauve garde
Ġgr oup
Ġconf orta
Ġdra peau
ĠÃ©pau les
Ġcompos ants
Ġvoud rait
ĠP AS
l anc
Ġc ub
ĠdÃ©lÃ© guÃ©
ĠL as
mi de
ĠCan al
Ġimp lication
ĠS Ã©bastien
Ġvra isembl
Ġren oncer
ĠDÃ© partement
Ġcontra int
Ġinst ants
Ġpati ence
Ġquar ts
ĠO P
ĠMar tine
Ġfondament aux
Ġch ic
i ation
ĠdÃ©fin it
ĠdÃ©g us
ĠsÃ© cher
ĠhÃ© lic
ĠBl anche
Ã¨ ler
Ġprodu ite
ĠÃ©g lises
t rÃ©e
ord re
en sement
ĠAnd roid
ĠrÃ©pub lique
Ġsurf aces
ĠL ion
ĠA le
Ġfame use
Ġre ct
ĠÃ©tudi Ã©
Ġp omme
Ġmunicip ale
ĠrÃ©gion aux
ĠMoh amed
Ġro is
ĠÃ©t al
Ġsal ut
ĠMar y
Ġsoup le
Ġlog o
ĠS ix
ĠbÃ© ton
Ġcommand er
Ġca chÃ©
ĠAf ric
ĠAt lantique
Ġrespec te
Ġnomm Ã©e
Ġd ress
Ġpat tes
Ġais Ã©ment
Ġmentionn Ã©
Ġ197 8
lÃ© ans
Ġoccident ale
Ġinflu en
ti ser
onne z
Ġspecta culaire
Ġab onnÃ©s
Ġan ony
ĠPro duit
ner a
om ie
ĠJÃ©r Ã´me
Ġconcern Ã©es
ĠenquÃª teurs
Ġassur ances
g el
Ġquo ique
ĠD S
Ġpres s
Ġoli ve
b s
Ġinstant an
re au
Ġproc lam
AI RES
Ġun es
Ġvis ibles
Ġhab ite
ĠC AN
ĠdÃ©cri re
Ġpr est
Ġbou cle
Ġbanc aires
ĠEN TRE
Ġconsid Ã©ration
ĠrÃ©comp ense
raph e
Ġre viend
Ġa cide
ais ie
Ġch anti
O Y
Ġ197 5
Ġpla ques
Ġcomme t
ĠprÃ©cÃ© demment
Ġhon or
ĠcrÃ© ativitÃ©
w are
at ta
T R
ĠarrÃª tÃ©s
ĠM and
vi ers
Ġcli matiques
Ġfir me
Ġcol onnes
ou ch
ĠCh ap
Ġsubst ance
Ġnum Ã©ros
EC H
ĠRo che
ĠMar io
Ġincap able
Ġtre mb
Ġsus pend
Ġattend s
Ġvol on
Ġco ins
ĠCong o
Ġad met
ĠB E
Ġavanc Ã©
ĠO range
rig Ã©rateur
ĠprÃ©occup ations
ĠÃ©quip age
Ġh Ã©m
ĠBert rand
h uit
Ġre z
ĠF ac
Ġall Ã©e
LE MENT
ĠS ac
Ġartis ans
Ġoffici els
ĠPAR IS
Ġmoy ennes
Ġmen a
ul Ã©e
Ġher be
ton es
Ġco hÃ©r
Ġinter loc
Ġsembl able
Ġindic ateurs
Ġsou mettre
Ġsupp os
ĠEnvir onnement
Ġtoile ttes
Ġtomb Ã©e
Ġfournis seur
Ġriches ses
ĠsÃ©qu ence
j amin
Ġsem estre
ĠNew s
Ġval able
ĠB ell
Ġab baye
Ġabs ur
Ġo v
ĠH ome
Ġbr illant
Ġconc rÃ©
ĠP DG
Ġemb lÃ©
Ġsu Ã©d
ĠnÃ©g atif
Ġaccompagn Ã©e
Ġapp ellent
Ġ ~
Ġgas tr
Ġhuman itaire
Ġoise au
Ġj oindre
Ġs age
ĠR est
ĠrÃ©c ents
Ġinves tig
t z
Ġpar d
di eu
Ġp ompe
Ġgard Ã©
ĠV iv
Mar c
C L
ĠrÃ©flex ions
li eu
Ġob tention
Ġcou pÃ©
Ġmal heur
Ġpar lait
Ġgra vitÃ©
ĠO Ã¹
c as
ĠrÃ©c its
ĠQu els
EN D
Ch rist
Ġsang u
Ġdoc tor
ĠÃ© d
Ġcomp tent
ĠTok yo
Ġad or
Ġcan on
ĠprÃ©sent Ã©es
gu Ã©e
ĠC ler
ĠD ate
Ġad resses
Ġclic s
Ġl ob
ĠdÃ©li cieux
o che
Ġbou ger
lis Ã©e
ĠRÃ©un ion
ĠrÃ©vol te
ĠÃ¢ mes
Ġsoli des
ĠprÃ© ven
Ġten ues
Ġpromen ade
ag as
ĠdÃ©f av
end rait
6 5
OUR S
Ġin tim
Ġboule vers
Ġcin quant
M ichel
ĠN eu
Ġent rÃ©
Ġcli chÃ©s
N A
Ġav oit
R C
ĠV euillez
Ġ3 50
Ġvac c
Ġle Ã§ons
ĠEc ole
ĠN ik
ĠG ui
Ġfu ir
is si
ĠX avier
Ġchemin Ã©e
que ttes
Ġno ble
ĠG ard
Ġsouv iens
Ġaccro Ã®tre
Ġsug ges
iss age
Ġopportun itÃ©s
ĠSy st
Ġinter ac
Ġsur prises
j ourn
Ġa ire
Ġmon op
Ġph ases
Ġinstall Ã©e
Ġlarge ur
Ġcircons cription
ti ment
ĠSoph ie
Ġpa quet
Ġtribun aux
Ġmar ins
ĠC oup
Ġref uge
Ġorigin alitÃ©
t ariat
Ġa nec
Ġdonn a
Ġop us
ĠdÃ©pend ance
ĠJ ules
t oi
Ġspor tives
ci enne
Ġauth enti
ar itÃ©s
Ġc umul
Ġpays ans
Ġutilise z
ta ges
Ġmunicip ales
ce au
ĠfÃ©d Ã©ration
Ġvolon tiers
Ġpe ines
Ġfou et
Ġspecta teur
Ġven deur
ĠP oi
Ġrec ensement
Ġno ix
Ġrappro cher
ĠSitu Ã©
Ġcoh Ã©rence
Ġcris es
Ġ6 1
Ġsan itaire
Ġp ique
Ġsa ura
ĠPr ince
Ġ197 9
Ġstatu e
ĠSp ort
Ġr ugby
res sement
Ġbout ons
SS E
ĠVers ailles
ier t
Ġcommer Ã§ants
Ġdemand a
Ġconf usion
Ġven ez
ĠArg entine
tin ation
ille z
Ġdiri gÃ©e
Ġchar te
Ã©qu ilib
ĠN ombre
ĠDÃ©velopp ement
ĠAg ric
ĠgÃ©n Ã©tique
ĠcaractÃ©ris tique
f ran
Ġp ension
Ġfum Ã©e
Ġsatisf ais
ĠL oc
Ġim mer
5 00
se t
Ġcol or
Ġlour ds
Ġgueu le
Ġdi rait
ĠUn ited
ĠconsidÃ© rÃ©s
l ations
m Ã¨tres
du ctions
ĠspÃ©ci aux
Ãī E
Ġexp ress
Ġacc use
ant erie
ĠT ourn
ĠnÃ©g lige
allen ge
ĠP oly
ĠLe ague
ĠAr ts
Ġon des
O IS
Ġsing uli
Ġa re
ĠR u
l able
Ġphra ses
oth Ã©rapie
Ġnu ages
re lle
Ġrense ignement
Ġtr Ã´ne
ĠEsp ace
Den is
Ġfl ash
Ġor b
Ġav ouer
Ġfranco phone
Ġexplo iter
ĠhÃ©s ite
ant er
Ġon cle
ĠdÃ©mont re
Ġmascul in
Ġmus Ã©es
Ġoccas ionn
ĠPr Ã¨s
an ique
Ã¨ tent
Ġpr ouve
Ġvis u
Ġaut ob
ĠD un
Ġcher chÃ©
Ġm iss
Ġass aut
T U
Ġinform atiques
Ġsouveraine tÃ©
ĠspÃ©ci fic
Ġpeint ures
Ġn aÃ¯
Ġcherche ur
od y
is tÃ©ri
Ġtravaill ant
Ġconsens us
ĠS k
et nam
pe aux
Ġtent ent
Ã©s ar
Ġur g
Ġprior itÃ©s
Ġn or
IS ATION
ĠC onn
ĠcrÃ© ant
Ġpl ay
Ġloc ations
ĠTrava il
ĠÃ©ta ges
Ġun ies
ĠF ern
Ġ9 8
se au
Ġinstru ctions
Ġporte feuille
ĠDe vant
ĠIn di
Ġpap a
ĠrÃ©sid ents
Ġman iÃ¨res
4 4
Ġcar rÃ©s
ĠOr dre
Ġplace ment
ph Ã©e
ĠespÃ© rance
Ġpren ait
ĠJ ones
Ġvi endra
ĠW C
Ġv ents
Ġpar ag
Ġimp ar
ĠhÃ´ pitaux
Ġrest ri
ĠConsid Ã©rant
Ġafric aine
Ġapp l
Ġqualif ier
ĠP u
Ġh Ã¢te
Ġtrouver a
ard o
Ġv ulg
Ġconcep ts
Ġfer mÃ©e
Ġjou ant
Ġinf o
Ġsouff rir
ĠV ue
Ġdi eux
Ġpo Ãªle
ign an
ĠstratÃ©g iques
ĠM ol
ĠAr ri
Ġmobil ier
ĠinÃ©g alitÃ©s
ort ent
I O
Ġno tions
el ler
ĠrÃ©g ulation
Ġc Ã©der
Ġtemp Ãªte
OU V
ĠpÃ¢ tis
Ġne w
Ġprim aires
Ġsens ations
Mar chÃ©
Ġanth rop
Ġv enti
Ġtex ture
om pÃ©
Ġm ousse
Ġassur ant
T ES
Ġfacul tÃ©
ĠalinÃ© a
Ġl ent
Ġcomp atri
ar di
Ġsovi Ã©tique
v ations
ĠZ e
di os
o ques
Ġle vÃ©e
ĠB ol
Ġpo Ã©tique
ĠSt ock
Ġneu tra
Ġst ars
Ġf lÃ©
Ġfrau de
Ġcrain dre
li en
Ġm oule
Ġman uel
Ġ8 7
c or
ur Ã©s
ĠS ing
Ġtransform Ã©
Ġvari Ã©s
ĠCl int
Ġphar m
ĠdÃ©ta illÃ©e
ensi ble
ĠÃ©n ormes
Ġ7 9
ĠPR ES
Ġla ver
c ir
ici lement
ĠthÃ© or
Ġformul a
ro t
s ation
Ġexam ens
Ġpuiss ances
Ġpens ais
ĠT Ã©l
Ġsau ter
ĠtÃ©lÃ©char gement
ĠLib er
Ġaccomp li
ĠAra bie
Ġab onnement
Ġconstitu Ã©e
ĠS S
Ġag issant
ĠentraÃ® nÃ©
Ġappu yant
Ġbr un
ĠdÃ©p assÃ©
ĠG l
Ġc ock
ĠF our
Ġemplo ie
Ġdu rer
er ont
Ġprot Ã¨ge
ĠH T
Ġv int
Ġcli p
Ġparc s
ĠM S
ĠlibÃ©ra ux
Ġgaranti t
Ġemp orte
m ait
Ġorganis Ã©es
Ġple ins
v ing
ti a
Ġh ebdomadaire
0 5
ĠmÃ© ch
Ġambassade ur
Ġcon cevoir
nes s
ĠÃ©vent uelle
ĠdÃ©plo iement
Ġtrans met
Ã©ra bles
Ġchim ique
it ait
Ġordin ateurs
ĠJus te
ĠHug o
Ġexc lu
it o
Ġser veurs
Ġdj ihad
p ins
Ġso igner
Ġtempor aire
Ġvari ations
Ġpens ait
ĠJac ob
Ġn oc
Ġins u
ĠmÃ©dic aux
Ġtrans actions
Ġsouv ient
Ġbal ance
Ġb ot
Ġpo il
Ġconstitu tionnel
ĠC ir
0 1
Ġs ale
Ġus ines
Ġdiff icilement
Ġh Ã©tÃ©
Ġsort ent
ĠA qu
Ġinterloc u
ir t
ĠCG T
ĠdÃ©f auts
Ġcotis ations
SS I
Ġtri o
vi demment
ĠÃ©pau le
ĠB ud
ĠS ite
le ctions
ĠTe ch
Ġsages se
Ġexp lor
ch ester
ĠrÃ©par tis
Ġex istait
ĠPl ay
ĠF rais
ĠmaÃ®tr iser
ĠB all
ĠGaz a
Ġcro ient
ĠExp ress
Ġdesser t
Ġparc ourir
ĠLib an
ĠdÃ© Ã§
ĠdÃ©g age
ul aires
Ġ196 8
ĠComp agn
lic ations
ci Ã¨re
ĠColomb ie
ĠMath ieu
Ġindispens ables
Ġiniti al
Ġrela x
Ġagglom Ã©ration
Ġme cs
Ġassi ette
du les
Ġintri gue
mb er
th er
Ġfaute uil
h al
ph ab
ĠP orte
Ġdoctr ine
ĠB ul
Ġdiver si
Ġ ros
om es
Ġ9 2
ĠMondi al
ĠÃİ le
ĠrÃ© cur
Ġjapon aise
ĠCanadi ens
Ġsou ter
Ġpar as
ĠÃ©lector al
Ġa il
oub li
ĠEs prit
ti cs
ti me
ĠR och
Ġparticip ant
ge ance
ĠK ur
Ġadap tÃ©es
c omp
Ġse re
ĠBen jamin
ĠfidÃ© litÃ©
Ġinstitu t
Ġass umer
Ġconsac re
ĠB Ã¢
Ġindividu elles
ĠdÃ©ci d
Ġ9 00
ĠsÃ© minaire
ĠfraÃ®che ur
ĠB ut
ĠN oir
Ġsais ie
Ġregard ant
Ġam ont
ĠS om
ĠNor v
ĠNorm andie
Ġemb au
Ġboute illes
Ġra ch
Ġe B
Ġbois sons
oul d
Ġadm irer
pl ay
Ġag ression
Ġboule vard
ĠdÃ©mont rÃ©
ĠIv oire
Ġent rain
ĠFor ce
r ure
ĠthÃ© Ã¢
Ġle Ã§on
Ġo se
ĠR as
ĠS OMM
im s
tr y
aÃ® tra
Ġtra um
Ġob tenus
Ġfran chir
ĠCrÃ© dit
Ġfrag ile
ĠcrÃ© ateurs
ĠsupÃ©ri eures
ĠD ol
g s
ĠI mm
ver sement
Ġdi oc
ĠS n
e ch
d rome
Ġmo dule
ct uration
Ġcos tume
ĠChamp ionnat
Ġpos Ã©e
oy Ã©
Ġinc en
Ġann ulation
ĠGren oble
in os
ĠmaÃ®tres se
ĠSm ith
OT RE
ĠSe p
Ġloc alisation
Ġarr estation
Ġessenti els
ĠdÃ©s ag
Ġgrec que
Ġcinquant aine
Ġracc our
uss Ã©e
Ġpou ces
Ġh ur
ĠaccÃ©lÃ© rer
Ġaime z
tu aire
Ġreje tÃ©
Ġviv ants
ĠM ans
AL ES
Ġcondam nation
ĠN ar
ĠdÃ©c enn
Ġch aise
Ġconvic tion
Ġsex uelles
Ġobser vÃ©
Ġdevoir s
Ã© en
ĠsÃ©v Ã¨re
n ac
ĠConc ernant
ĠPrÃ© sid
ag an
Ġach Ã¨te
cul ture
Ġsoci o
Ġdiff user
ĠhÃ©lic op
ĠBourg ogne
h omme
ĠD uc
Ġperd ue
ci ent
Ġannonc Ã©e
Ġaut och
Ġconnec ter
ĠLa val
AC H
Ġman quent
Ġlit res
Ġa dep
Ġ197 6
ĠAU X
me dicaux
Ġpro duisent
ak a
b ach
c ra
g re
Ġg Ã¨re
ĠP Ã¢
ĠÃ©le ver
ĠRDV medicaux
ĠF ils
Ġexp ul
Ġcorri ger
Ġ194 0
ĠCanadi en
l ants
Ġtechn ologiques
Ġafric ains
ĠJ am
ĠP alestin
ad ox
Ġplan che
Ġinv o
ĠIn tro
Ġg olf
ra its
ĠL an
Ġcorrespond ent
anci er
Ġimpro vis
ĠL and
ĠB ang
Ġbais er
A t
Ġterritori ales
ĠF IN
ĠPou tine
Ġindi ces
Ġve iller
Ġapport ent
Ġan onyme
Ġsoigne usement
ĠnÃ©goci er
g Ã¨ne
Ġsouhait er
ĠSpÃ© ci
Ġst opp
Ġne ur
ĠPy rÃ©nÃ©es
che ur
ĠgoÃ» ter
ĠM oul
Ġtom ates
Ġ36 0
Ġax es
Ġ8 2
ist ent
ĠÃ©mer gence
Ġall ure
Ġassur ent
ĠAmaz on
Ġlieu tenant
l ages
Ġbomb e
Ġblog ue
ĠConf Ã©rence
Ġcont estation
ĠAU T
Ġexclus ion
Ã©ch al
ĠÃ©volu Ã©
Ġfavor ise
ch ard
Ġcas e
ĠÃ©criv ains
ĠG ro
Ġpor tug
Ġpu its
ĠcompÃ©ti tivitÃ©
ĠK o
Ġhistor ien
Ġbal ade
Ġobsta cle
Ġra chat
Ġo ver
Ġdat ant
P I
TI N
n elle
ĠAn cien
Ġatta quÃ©
4 8
Ġsuffis ante
Ġpharma cie
Ã¯ s
Ġfabric ant
Ġag isse
ac ques
Ġpa ille
mi le
ros s
ĠE p
Ġf lÃ¨
Ġartis tiques
Ġrest Ã©e
end o
Ġsty les
at ch
ĠdÃ© tri
Ġt ch
Ġcont enir
Ġson ge
Ġatta che
Ġbal con
Ġsolid aire
Ġvar ie
mp es
pe z
Ġt an
Ġt ube
Ġglob alement
Ġin oubli
el la
ill is
Ġmar gin
Ġeffectu Ã©e
ĠC apit
ĠdÃ©p ens
Ġru meurs
Ġmin es
Ġv on
ĠlÃ©g al
Ġparois se
Ġrassemb ler
ĠgÃ© omÃ©
Ġcap ture
ĠArn aud
Ġpropre ment
ĠFre e
Ġhygi Ã¨ne
Ġf rig
Ġaffa ib
aiss ant
ĠÃ©p anou
ĠF ou
Ġsuper mar
Ġfor es
un a
Ġsol aires
C al
ĠA B
Ġcompos iteur
Ġfix Ã©e
Ġat tÃ©n
Ġsenti ers
ĠcÃ¢ ble
Ġpoursuiv ant
fi Ã©es
Ġjudici aires
Ġall ong
ĠÃ© lan
Ġparti ellement
tif ier
Ġajou tÃ©e
Ġchois issez
Ã ±
ol Ã©e
lÃ¨ tes
Ġconstru cteurs
Ġvar ier
ĠVir gin
Ġaccord Ã©e
Ġpas sions
Ġm aux
ĠChris tine
ĠbÃ©nÃ©fici Ã©
R U
Ġz o
Ġrelig ions
jet s
Ġpoule t
ĠChar lie
Ġ197 3
ĠProgram me
Ġaut oc
Ġprov ient
Ġco te
ĠaÃ©ri en
Ġadop tÃ©e
Ġroy al
ĠdÃ© ter
ĠlittÃ©ra lement
ĠC M
ĠB M
Ġam oureuse
Ġf iÃ¨re
Ġquanti tÃ©s
ĠQuel que
ĠdÃ©termin Ã©
Ġmar in
Ġ ours
Ġag ressi
Ġcl andes
Ġfabri quer
Ġn age
ĠJe unes
Ġaccus ation
Ġimmeub les
ĠÃ©tro ite
ĠF ORM
V EN
ĠadhÃ©r ents
ĠD or
Ġexist ant
en chon
ĠEuropÃ© ens
ic an
Ġsugg Ã¨re
Ġchar bon
Ġp Ã¨ler
ĠChic ago
Ġsignif ication
Ġsusp endu
Ġremp la
Ġk it
Ã©li b
ĠSte ve
ĠrÃ© els
Ġterritori ale
Ġsur veiller
Ġoptimis er
Ã´ nes
Ġpos ter
ĠHar ry
ĠE lysÃ©e
iti eux
Ġcontro vers
Ġvoul ant
Ġg ang
Ġs te
en sions
ĠLib re
onci ation
us tin
vÃ©n ient
ĠrÃ©cla me
Ġcircu its
ĠintÃ©ress Ã©s
ĠAutre ment
tis ation
Ġab rite
Ġf at
ol ais
r s
Ġp li
ĠAn th
Ġcorrespond ance
ra h
Ġoffer te
n s
Ġquelque fois
e ctions
Ġch ats
vi a
Ġglis ser
Ġca f
Ġmol Ã©cu
ĠdÃ©p as
ĠÃ©lÃ©g ance
ĠnuclÃ© aires
Ã¨ ges
Ġatta chÃ©
ĠÃī v
Ġas sig
Ġb ros
ĠF Ã©
Ġparta gent
Ġfinance ments
Ġrel ance
Ġin tu
Ġ12 5
Ġg ains
ĠM ons
Ġpos tal
o ce
Ġpar tant
Ġm ante
di ennes
ĠH ier
Ġjoli es
ĠÃ©c ra
ĠcinÃ©m at
Ġra ge
Ġpropag ande
ec ue
Ġb os
Ġ7 1
ari a
Ġm y
ak i
Ġens ole
Ġten us
ĠQuÃ©b Ã©cois
ila tÃ©ra
Ġs pec
Ġved ette
Ġoccup ent
ĠextrÃ© mitÃ©
a che
Ġdou tes
ĠrÃ©un i
ĠrÃ©pond ent
Ġvoul aient
Ġquar antaine
Ġ197 7
Ġpor ts
ĠF MI
Ġfamili ales
ĠmÃ©tÃ© or
ris tian
Ġattribu Ã©
Ġdiv is
ĠdÃ©tri ment
Ġb oy
Ġoppos ants
Ġgenti l
Ġappel ait
rig ht
Ġtransp orter
Ġparticu les
Ġti rage
ĠMa ur
Ġvert us
Ġlog istique
Ġjui f
Ġstric tement
ĠGr oup
ĠamÃ©li ore
Ġter rib
m al
ĠFlor ence
oc ations
Ġinser tion
b urg
ĠAj outez
Ġsitu Ã©es
Ġpl ur
ĠCin q
ur rent
Ġlum iÃ¨res
ĠprÃ©v oy
Ġamb itions
Ġconsomm er
Ġt we
ĠGab riel
ch ange
ĠT imes
ĠM M
Ġra len
Ġd ys
Ġeffectu Ã©s
ĠÃ©chapp e
Ã©c oise
Ġtherm ique
ĠFig aro
Ġam er
u a
Ġan tique
Ġarbit re
Ġrur al
Ġh ad
Ġsub it
g ers
Ġcomm Ã©m
Ġurban isme
la di
Ġchois ie
Ġtest Ã©
ĠJeu di
om Ã¨tre
Ġoff rons
Ġnoc tur
Ġnett oyer
ĠÃ¢ gÃ©e
Ġ7 3
Ġph are
ag one
Ġ uk
Ġ197 4
Ġins tin
Ġsub til
Ġm l
Ġn aÃ®tre
Ġplan ification
Ġn uis
Ġmon ast
Ġamb itieux
Ġtri p
Ġcon ditionn
iss aire
Ġgard es
Ġsurv ivre
ment aire
Ġend orm
ĠrÃ© h
Ġfall oir
Ġsug gÃ©
ĠChe f
Ġth Ã©matiques
ĠsÃ© duire
Ġcy lin
Ġhor aire
lÃ¨ ge
Ġpopul aritÃ©
Ġconf ier
i ro
Ġrep li
ĠC uis
ui es
j eux
ĠL ot
ĠrÃ©alis ations
Ġach ar
Ġro bo
ĠM Ã©m
ĠC ad
Ġrom aine
Ġcapit aux
Ġi ra
ĠEnv oyer
si ers
Ġj ette
ĠLi Ã¨ge
anim itÃ©
0 4
ĠS I
Ġtu y
Ġinter dire
ĠÃ©c os
w in
Ġassoci er
Ġassassin at
Ġfab rique
ĠSon y
ĠmystÃ©ri eux
ĠA ction
Ġdi ra
Ġplong Ã©e
ĠÃ©v ite
Ġexpl oration
ĠI M
Ġrecue illi
Ġsubst ances
Ġsub ventions
Ġh ard
a que
Ġconserv ateurs
ill ages
j ug
Ġsignific ative
Ġvis ionn
ĠMar di
Ġ9 4
Ġcommis sions
ĠlÃ¢ che
ĠcamÃ©ra s
ĠH aÃ¯
ĠprotÃ© gÃ©
lo que
ĠR C
ro se
Ġris quent
Ġfol le
P h
Ġrel ancer
Ġcheval ier
Ġcor de
Ġ its
ĠN ancy
il Ã©e
Ġtrouv aient
Ġexclus if
Ġcolon el
Ġreti rÃ©
ĠP ass
ĠO ct
Ġb ec
Ġfisc ales
ĠAl ger
cin q
Ġc ite
Ġcont am
Ġad h
Ġfav ori
on ale
je ction
Ġs ch
Ġeffectu Ã©es
ĠintÃ©g rÃ©e
ĠJ ou
Ġphotograph ies
Ġab rit
ĠrÃ©cupÃ© ration
ĠM AN
s ung
Ġ erg
o dique
Ġinter val
Ġpermet tait
Ġment ale
Ġb ous
ĠO l
ĠÃ©t ouff
are t
ĠcrÃ© Ã©s
ĠsÃ©n ateur
x es
Ġl uc
II e
Ġstation nement
ĠN am
ĠRay mond
Ġend omm
Ġsy rien
ĠidÃ© ologie
Ġcons tant
s me
Ġcontra ste
ĠdÃ©c ors
Ġb lÃ©
Ġdirec tive
ant h
Ġt ol
ĠÃ©t oit
ÄĤ Å
Ġgen oux
ĠdÃ©couv rez
ĠintÃ©ress antes
Ġconstru ctions
Ġ9 7
ĠVen ise
ĠLib Ã©ration
Ġde ttes
ĠDÃ© tails
TI V
Ġpotenti els
e v
ĠMÃ©l enchon
Ġf oie
ĠConne xion
Ġferrovi aire
ĠsÃ©p arer
ĠAlli ance
Ġcon tiennent
ĠdÃ©sag rÃ©
Ġla ine
Ġ197 2
Ġam user
ĠrÃ©col te
ĠÃ Ĭ
Ġcardin al
Ġstatis tique
Ġillus ion
ĠrÃ© vis
ĠÃ©limin ation
Ġsou tenue
Ġrapp orteur
Ġsex uel
Ġhoriz ont
ĠAr d
ann a
ĠM P
Ġunif orme
ĠdÃ©s astre
Ġrel atifs
aptis te
Ġil lum
dÃ© mocra
er o
in k
ĠAl f
ĠA ix
ĠE ur
ul a
Ġconn aitre
Ġmajoritaire ment
es que
Ġair s
Ġal lÃ©g
Ġ194 4
ver n
Ġg orge
Ġref lÃ¨te
ak ar
c op
ĠE le
ĠApp r
Ġf oyers
ĠArth ur
Ġtranqu ill
Ġp Ã¨se
Ġcon ces
Ġpo ivre
Ġ196 7
Ġfrapp er
ĠÃ©c o
Ġinst ances
j or
Ġappli quent
Ġphilosoph e
ĠK y
Ġhy bri
Ġg uise
Ġca hier
Ġsembl ables
ĠP ak
vers itÃ©
Ġsignal er
Ġ8 3
tes te
ĠreÃ§ oivent
Ġp end
Ġsou mise
ĠRet our
Ġcord es
Ġch ancel
onn a
Ġb Ãª
ĠT est
Ġ19 30
Ġrest ru
ĠSER V
Ġbud gets
8 5
b ur
ĠE xe
c ourt
Ġescla ves
ĠlÃ©giti mitÃ©
ak er
Ġgratu ites
ĠJ ord
ĠA yant
Ġjuri diction
ĠClint on
Ġdi able
Ġm Ã¨res
Ġver rez
Ġcapit alisme
Ã¨ lent
fi eld
Ġislam istes
lin aire
Ġins criptions
ĠprotÃ© ines
J acques
ĠdÃ©g uster
ĠX IV
Ġtravers Ã©e
Ġconnaiss ait
ĠÃ©p ices
Ġ9 6
ĠR ue
Ġfranco phones
Ġpro cur
Ġtra duire
om an
Ġfaill ite
Ġno tÃ©
ĠmÃ© dit
ĠSp orts
ĠSÃ© lection
ĠXX e
M L
Ġpro jec
Ġcollection neurs
Ġti endra
Ġdessin Ã©e
ĠG PS
SI ON
Ġridi cule
b ack
ĠAD N
Ġindi quant
ĠconÃ§ ue
Ġpl aine
ne us
E x
Ġhu iles
Ġc anc
ĠÃ©le vÃ©es
Ġinterven ants
ici en
Ġje tÃ©
Ġd angers
Ġte int
Ġb il
Ġcontinu Ã©
t our
Ġcandid ate
Ġprofond es
Ġmas si
ĠdÃ©v oile
Ġdu el
Ġinc orp
Ġpar ait
ĠrÃ©g ulier
Ġla v
ĠB lo
Ġso ph
Ġsuc cesseur
Ġdiscip lines
Ġconnais sez
ĠC ah
ĠrÃ©ser vÃ©e
ĠF al
Ġcel l
Ġrenv oie
Ġpasser a
f il
ĠdÃ©velopp Ã©e
Ġfi abilitÃ©
ĠaÃ©ri ennes
ang le
Ġaim ait
lÃ¨ vent
k ov
ĠpÃ©ri mÃ¨tre
Ġd ie
Ġf autes
ĠF u
Al pes
ĠF ord
Ġar d
Ġsus pect
ĠLun di
Ġno v
Ġgendar merie
Ġbiz arre
ĠObser v
Ġincon vÃ©nient
b it
m ons
Ġconj oint
Ġcomb us
ĠÃ©tu die
Ġgig antes
Ġjui ve
Ġch aises
te x
Ġapprovision nement
Ġprim ordi
Ġco que
ap t
ĠrÃ©ser voir
veill ance
Ġmarchand s
ĠO M
Ġhab ile
v ain
ĠcÃ©lÃ©b rer
ĠSt and
ĠO rig
Ġal ter
Ġth Ã©matique
ĠN ad
Ġro ses
Ġnos tal
ĠrÃ©ag i
AL L
s ait
Ġsan itaires
ĠSOMM AIRE
c en
ist res
Ġm g
ĠarrÃª ts
dis ant
Ġins istÃ©
ĠL amb
ĠT an
Ġor es
Ġdonn Ã©s
Ġmusici en
ĠdÃ©cenn ie
Ġrecons truction
Ġpass es
ve y
Ġexp oser
MENT S
ĠF R
ĠB ah
Ġsep tiÃ¨me
Ġp it
Ġimplant ation
qu itÃ©
4 9
um a
ĠS oud
ĠS ouvent
G ar
Ġfil tre
ĠÃ©p Ã©e
ĠC elles
ĠDÃ©s ormais
ra Ã®
ul li
ĠAlle z
ĠdÃ©p ression
Ġdisp ers
ĠAut res
ces seurs
onn iers
an tie
qu aient
Ġcontribu tions
Ã§ aient
Ġaccep tation
Ġins Ã©
Ġcer titude
ĠT ER
urr ence
ĠespÃ© rant
Ġrepro che
ou i
ĠRE G
Ãª que
Ġchar mant
ĠE DF
Ã´ tres
Ġconver sion
Ġespoir s
Ġrou ler
Ġfl at
Ġpoly val
ĠK n
Ġcardia que
am el
Ġv igne
Ġmix te
N ES
Ġpri mi
ĠcompÃ©ti tions
Ġexpos Ã©s
Ġfier tÃ©
ĠJu an
Ġun iques
Ġaltern ance
6 6
rib ue
ĠP ay
Ġs eni
Ġchanti ers
J ET
ĠrÃ©f rigÃ©rateur
Ġvaisse au
ĠhiÃ©r archie
Ġmira cle
ag Ã©es
ĠF E
Ġg Ã®te
Ġtr on
Ġass ise
Ġbar s
Ġv ign
ĠEn g
ĠmÃ©tro pol
Ġtra gique
Ġense ignements
ĠP ER
Ġmanifest er
Ġvoy ons
ĠF oot
Ġs Åĵurs
ĠG EN
ĠAU SSI
Ġoff erts
ĠB ush
ĠS Y
ĠÃ©c olog
B I
ĠS ign
Ġfa usses
r ui
at ou
ĠagrÃ© ables
Ġconcer tation
Ġpubli Ã©es
Ġg ym
ĠOr lÃ©ans
Ġqualif iÃ©s
Ġsa veurs
Ġconc urrent
pe dia
Ġman ne
Ġroman tique
Ġma x
Ġdiscre t
ĠT H
Ġc ac
pr end
Ġappli quÃ©e
ou ge
ĠFran co
Ġstock s
Ġressour ce
Ġanaly stes
d oc
ĠMer credi
Ġrest Ã©s
Ġpor teur
Ġpanor am
ĠA per
aie ment
Ġblog s
Ġexp ose
ĠB N
ĠT s
Ġsing le
ĠC itÃ©
b our
onom iques
Ġat outs
Ġbas ses
Ġpous siÃ¨re
ĠdÃ©velopp Ã©s
Ġinf in
Ġh ame
ĠC Ã©sar
Ġd ames
Ġb ab
b ation
Ã¨ ves
Ġhum ide
Ġcarb urant
Ġcroiss ante
Ġbr us
Ġla urÃ©
ĠdÃ©t ourn
Ġfa une
Ġch Ã´me
ĠAn im
ĠÃ©mer g
ati ne
ĠeB ay
Ġra vi
Ġb ric
ĠdÃ©f ilÃ©
ĠdÃ©mocra te
Ġchamp ionnats
ĠÃ©chÃ© ance
Ġrou e
ĠLa v
w er
ĠC oc
Ġfoul Ã©e
Ġcomp table
Ġf Ã¢
Ġ ut
ĠdÃ©c Ã©d
Ġn Ã©s
le ine
Ġb ack
Ġracont Ã©
ĠNath alie
ĠB A
ĠAb del
tig ieux
Ġbar rage
Ġsol itude
ĠdÃ© tient
Ġemploy eurs
Ġinse ctes
Ġres pire
Ġeff ray
Ġsus citÃ©
ĠMi ke
Ġprud ence
Ġrappel ant
ĠdÃ©bar rasser
ET TE
Ġdemande urs
rid ge
ĠsÃ©cur isÃ©
Ġfondament ale
ĠdÃ©gra dation
Ġmanipul ation
Ġher bes
Ġfin es
ĠC ours
ĠE ug
ign y
Ġappli quÃ©
Ġproduc tivitÃ©
Ġpar rain
Ġsp ons
ĠintÃ©ri m
Ġrej oign
Ġpantal on
Ġla tine
ĠB et
ĠB CE
cid ence
ĠV au
ĠMan chester
e ting
Ġbarb ecue
ur itÃ©
cu it
Ġconform itÃ©
Ġcour tes
Ã¨ bres
ĠdÃ©ci dent
ĠQu anti
Ġcollec tivitÃ©
Ġdiscrimin ation
Ġenc re
Ġboul anger
Ġcr Ã¢
Ġau te
Ġtranquille ment
Ġgui der
Ġ Î
Ġrac isme
ĠDemande z
Ġ our
ĠdÃ© ni
ĠL IRE
Ġdeme urent
ĠD um
Ġ17 5
ĠY ann
ĠE g
Ġalli Ã©
Ġg ame
Ġar mÃ©
ĠC V
ĠE I
sionn aire
Ġl oy
Ġcontempor ains
Ġembar ras
Ġatti rÃ©
cie usement
ĠproblÃ© matiques
C an
Ġoccident aux
Ġplan ches
Ou est
ci ers
ĠC lo
ĠlÃ©g ale
Ġfin ition
ĠdÃ© Ã§u
Ġpassionn Ã©s
Ġtran ches
ĠdÃ©p ense
ĠdÃ©s ar
ĠJus tin
Ġre prit
Ġs anc
ĠR ach
Ġpan neau
ci f
Ġvis uel
Ġcro issant
ĠAut oritÃ©
Ġtri ple
Ġrelie f
ĠrÃ©alis te
ĠV Ã©
Ġinc lut
il ie
ĠV end
Ġsil hou
ĠA st
Ġuk rain
T AN
ĠÃ©cos yst
mi Ã¨res
IS S
ie f
Ã©n aire
oud ite
Ġb and
ĠComp te
ĠT Ã©
Ġhum iditÃ©
Ġble us
ĠD ix
Ġmas sive
fi a
Ġ9 3
ĠV it
Ġessay e
Ġnom in
ĠM az
Ãī N
u z
ĠÃ©chÃ© ant
Ġpres sions
Ġparticul aritÃ©
Ġencad rement
Ġt rÃ©
sen al
UR S
Ġcroy ait
Ġrob ot
Ġprom ette
ĠC OL
ĠS ub
ĠexÃ©cu ter
Ġab Ã®
ĠintÃ©ri eurs
i us
Ġc Ã´t
ĠgÃ©nÃ© reux
d l
ĠrÃ©pÃ© ter
ĠtÃ©lÃ© com
Ġcomb ler
ĠIntro duction
ve tte
ĠJ O
Ġastu ces
Ġaur ons
Ġv all
Ġdemand ait
ĠdÃ©g ager
Ġenti tÃ©
Ġexp ortations
ĠC ond
pi ers
Ġbomb arde
Ã©li e
Ġp ist
ve u
Ġcollec tifs
ĠM ouve
ĠtÃ©lÃ©s pecta
Ġun animitÃ©
ĠlittÃ©ra ires
Ġy e
L S
Ġorigin ales
ĠprÃ©cis es
ĠH ub
Ġmin ce
ĠT ony
Ġorigin aux
Ġclin iques
ĠD O
ĠChar l
Ġjustif ie
ĠrÃ© app
Ġbou ill
ĠInd ustri
ĠH o
Ġorth od
Ġfisc alitÃ©
Ġrepro duire
Ġconsid Ã¨rent
ĠBl ue
ĠV OUS
al it
ĠSeu ls
Ġapp ellation
oc al
ÄĤÅ ł
ĠB ag
d eux
Ġintro duire
ĠA k
Ġrepor tage
Ġtrans action
Ġb Ã©n
Ġn atur
Ġcommand Ã©
Ġc reux
Ã©r y
Ġinfrastru cture
Ġt ribu
ĠM ore
ĠH all
ĠpÃ©n ale
ĠU nies
Ġ19 20
Ġch Ãª
A ss
Ġenvoy Ã©s
ĠActu alitÃ©s
ĠintÃ©ress ants
Ġrenouvel er
Ġpont s
r us
ĠAth Ã¨nes
Ġpro tagon
Ġcour ante
ĠrÃ©g iment
Ġp neus
Ġren f
ĠC le
Ġta illes
ĠK ab
4 7
Ġfre in
Ġposi tifs
Ġinter pel
ĠÃ©p ais
onn age
ĠdÃ©f endu
Ġtrouv Ã©e
ĠdÃ©voil Ã©
Ġjou ets
ĠLor raine
ov ie
ĠdÃ©rou lement
Ġven aient
ĠrÃ©tab lir
ĠcÃ©rÃ© b
0 2
b is
Ġabs tra
Ġrand onnÃ©es
ĠJuli e
ĠS Ã©g
Ġterr estre
Ġse ins
ĠB ible
Ġfi able
ĠSeu le
ĠAm our
b el
ĠCON T
ĠAr mÃ©e
ĠcinÃ© aste
Ġman ager
ĠEuropÃ© enne
j ac
Ġco ol
P AR
ĠRÃ©sul tat
Ġc aisses
ĠRou en
Ġsign Ã©e
Ġcuill Ã¨re
at ric
ĠP O
Ġw ill
ĠS lo
Ġmobil iser
Ġrest es
ĠI ni
Ġt unis
ĠsÃ©rie use
Ġvis ages
Ġbo Ã®tes
Ġ Å¿
ĠR ub
Ġpo Ã¨me
ĠfÃ© c
s ol
ĠW ood
Ġinv ers
Ġvari ables
ĠSam sung
Ġf oss
Ġter ras
Ġaveug le
an ais
Ġcondam nÃ©s
Ġf ous
Ġpatri e
ĠprivilÃ©g iÃ©
Ġabou tir
4 2
Ġapp Ã©
Ġpassionn Ã©
ĠD al
ĠsÃ©lection nÃ©s
Ġdocument ation
tif iÃ©
Ġrappro che
Ġorganis Ã©s
y ne
ĠAV EC
Ġti ck
Ã©r itÃ©
Ġtra m
ĠquÃ©b Ã©coise
Ġchir urgie
Ġcontent er
Ġcomp oser
Ġentend s
Ġpo ches
ĠS em
ha mp
onc ent
m us
F C
Ġag ro
Ġma ires
Ġrep ort
Ġri val
oli d
ĠÃ©n ig
Ġarchite ctur
ĠdÃ©lic at
6 7
ĠPr enez
Ġtoile tte
Ġbas ket
ĠrÃ© elles
Ġouv rant
Ġcli quer
Ġtrag Ã©die
ĠPh oto
Ġpat rons
Ġajout ent
ĠCamer oun
ĠdÃ©fense urs
ĠLe on
Ġviv ante
Ġautor ise
Ġnomm er
Ġtra cÃ©
ĠbÃ©nÃ©fici aires
Ġmus cles
Ġnoy au
Ġabs or
pp Ã©
0 3
m n
ĠPL US
ĠVal Ã©rie
Ġb id
Ġsoud ain
ĠrÃ©chauff ement
ĠF ire
Ġtranquill itÃ©
Ġper cent
ĠLais sez
ur al
ĠI R
ĠvÃ© los
Ġappar tiennent
Ġgendar mes
ĠV ierge
ĠT ay
di de
Ġca usÃ©
ĠthÃ© ories
Ġneu tre
Ġvaloris ation
Ġloc alitÃ©
cha mp
di versitÃ©
ut ent
Ġpublique ment
ĠCompagn ie
ĠdÃ©b ord
D T
ĠdÃ© lin
ĠdÃ©g uis
Ġpublic itaires
in ter
Ġchapit res
Ġtra jec
Ġcar n
ĠD A
Ġnouveau tÃ©
Ġpros pÃ©
ĠT rÃ©s
Ġcuis in
Ã©ra les
Ġs log
Ġindic ations
Ġappro ches
ĠN ob
Ġexig ence
Ġaut rui
ĠB ad
Ġlib Ã©rÃ©
Ġfond re
ĠgÃ©n Ã©rer
ĠdÃ©mar rage
Ġdiv ine
Ġposs Ã©der
Ġadministra teur
ĠB L
Ġca ve
ĠApp ar
Ġouv rier
iblioth Ã¨que
Ġf irent
Ġattribu tion
Ġviol ente
Ġac tivement
iss aient
Ġrappro chement
Ġindividu els
Ġconf r
ĠprÃª ter
ĠPr ise
Ã©r ants
Ġcontribu ent
Ġl igue
ari ats
Ġch ants
OI RE
ĠS EC
ĠpÃ©dagog iques
Ġt olÃ©rance
ver sion
Ġpar i
Ġcherche z
re y
ĠÃ©t ang
Ġpar aly
ĠJo e
Ġl ux
ĠÃ©quip Ã©s
Ġconven tions
ta g
ĠSi mple
Ġcircul aire
ag en
Ġfi ches
ĠperpÃ© tu
Ġrevendic ations
ĠFranÃ§ois e
Ġconf ection
Ġimpressionn ant
Ġmin oritÃ©
Ġentre vue
Ġaf ter
Ġdiv orce
ĠdÃ©partement al
Ġpers Ã©cu
ĠBan k
Ġvac cin
ĠRe vue
Ġcha os
ta ins
ĠdÃ©p Ã´ts
Ġindi quent
g y
ĠD roit
Ġcra int
Ġport raits
ĠRÃ© pondre
Ġidentif iÃ©
ĠFran ck
Ġenn uy
D C
ĠB oy
Ġconf es
ĠÃ© oli
ĠF ed
ĠcaractÃ© rise
Ġcoff re
Ġsta ges
Ġreconn us
ier ie
ĠV ladi
Ġaccompagn Ã©s
ĠÃ©pr ouv
ĠÃ©tique tte
ĠrÃ©pÃ© tition
ĠK os
Ġdiplom atique
l aient
ĠrÃ©p arer
Ġm Ã¨tre
Ġindustri es
Ġfol k
Ġ196 9
Ġpo iv
Ġren ommÃ©e
il de
Ġorgan e
Ġexc Ã©d
Ġinf ec
Ġad mettre
ĠdÃ©v as
ri a
Ġ196 2
ĠdÃ©lic ate
ĠG od
Ġsal ade
ra tif
Ġs iens
c ue
ĠR ic
Ġparta gÃ©e
cont re
Ġtou ches
Ġinc iter
Ġtable ttes
Ġfl uide
ro irs
Ġass iste
Ġcour be
ĠH ors
ĠVic tori
Ġdomes tique
Ġcontre par
ĠD C
ĠLe e
Ġhistor iens
ob iles
ĠCl aire
Ġpor teurs
Ġser vant
ĠM aire
ar in
Ġenv erg
li a
P H
Ġdange reuse
ĠextÃ©ri eures
ĠÃ© me
Ġ8 1
et o
Ġm ait
Ġres titu
ĠmÃ©di oc
ĠdÃ©s irs
ĠsÃ»re tÃ©
ĠPub liÃ©
Ġlour des
ĠrÃ©ser vations
se e
Ġac tiver
Ġdestin ations
Ġoppos ant
ĠprÃ© li
ĠParti cip
Ġpos ent
Ġangois se
Ġpo Ã¨mes
Ġdiplom atie
Ġref ait
ĠLou ise
G A
h ai
Ġrass urer
enti els
ĠJ ud
ra toire
Ġtrouv ant
ĠÃ©tudi ante
Ġciv iles
t Ã¨res
ĠV Ã©ri
Ġbloc s
Ġcorre ct
ĠC AP
ue z
Ġcolon ies
Ġmar ty
Ġentre tiens
ĠmÃ© cont
ĠrÃ©ser vÃ©s
ĠprÃ©cis ant
Ġj ob
ou g
Ġp neu
ta tif
Ġrom ain
ĠB R
Ġmain tient
ĠdÃ©t endre
Ġimm atric
Ġdou ter
Ġtou chÃ©s
ĠH ad
Ġplaisir s
Ġfondament al
Ġpr enne
ĠdÃ©c r
ĠD I
ĠQuanti tÃ©
Ġtou chant
Ġeng endre
Ġappl aud
Ġnobles se
Ġin vention
Ġgraph iques
ĠtÃ©moign ent
ens Ã©s
ĠmatÃ©ri au
tin t
Ġmons tre
ĠHong rie
ro l
ĠM IN
Ã©ra ires
Ġfas cin
Ġad ditionn
Ġviv es
ĠprÃ©t endre
ine z
Ġpublic itaire
ĠpÃ©r il
Ġru ines
ĠP resse
Ġtrib une
Ġar om
Ġfor cer
val uation
Ġapplic ables
ĠA T
Ġl Ã¨ve
Ġl isse
ĠRapp elons
ĠpÃ©nÃ© trer
ĠKe vin
ĠrÃ©pond ant
Ġath lÃ¨tes
b ar
end ue
ĠT ib
Ġrede v
og o
Ġintim itÃ©
ĠdÃ©c our
ĠmÃ©d iterran
Ġcompos Ã©s
Ġan ime
Ġsi ff
ath an
Ġgenti lles
Ġd ata
iv ern
ĠMouve ment
Ġaff lu
Ġinv iter
g al
Ġcar ic
ĠrÃ©vÃ© lation
Ġpro ie
f iez
ĠT y
Ġcoc o
tri ces
or ges
Ġex haus
Ġrev iennent
Ġouv rent
ĠSteph en
tionn ellement
on du
ĠdÃ©velopp eurs
ĠrÃ© aff
ĠSu iv
Ġaliment er
ĠPro tection
e me
Ġst art
Ġattend ue
O D
ĠreÃ§ us
ĠQ UI
Ġenverg ure
Ġadress Ã©
Ġsur g
Ġcomment Ã©
dÃ© o
Ġtriom ph
ĠAper Ã§u
ch ets
Ġidenti ques
Ġess or
Ġpolici Ã¨re
6 4
ign ait
Ġvolont airement
Ġspiritu el
ĠT R
Ġasse oir
Ġaccess oire
Ġmass age
ĠAmer ican
Ġassi mil
ĠFre d
Ġpos tu
Ġsurpren ant
ĠH it
ĠPa cifique
ver t
ot ter
ĠsÃ©p are
Ġs n
onn erie
Ġsu ites
us cule
ĠMoh am
Ġfib re
as a
Ġsuper bes
D Ã©
Ġextr Ãªmes
Ġra jouter
m ad
Ġacc umul
Ġoptim ale
Ġall ais
ch aient
Ġbanc s
Ġobserv ateurs
Ġh Ã©rÃ©
Ġappro cher
0 8
Ġs aga
ĠvÃ©ri fication
Ġempre inte
vi ce
ĠL iste
Ġsenti er
ĠopÃ©ra tionnel
Ġmoder nitÃ©
Ġv ignes
6 8
Ġvari Ã©tÃ©s
ĠDe v
ĠMi di
ab ulaire
IT RE
Ġdirec teurs
ĠS ah
ĠS pe
Ġg ay
Ġvari Ã©es
Ġ197 1
Ġsol de
Ġpsych ologie
ĠS M
ĠCha mps
ussi ons
rÃ© tariat
ĠT am
un n
ok o
h ol
Ġchasse urs
Ġfl anc
ĠS el
aine ment
ĠI t
Ġmil itant
ĠspÃ©ci alitÃ©
Ġser ons
Ġdi rais
i i
Ġfera i
uni or
ĠWilliam s
ĠÃ©larg ir
ĠPak istan
Ġstu pÃ©
ĠbÃ©b Ã©s
Ġfa ille
Ġpl aire
Ġcouver ts
Ġorgan ique
ĠE ducation
Ġinf lig
Ġsymb oles
a rez
e re
Ġc Ã©lib
Ġ17 7
Ġd og
Ġconfir mation
ĠhÃ©s iter
ĠEUROP AGES
Ġmenac Ã©
ĠProf itez
ĠI MP
ĠS oyez
Ġsor tis
ĠBle us
Ġmo elle
ĠprÃ©f Ã©rable
Ġvol can
Ġcu ivre
ĠTrib un
N o
ĠA vis
Ġcrit Ã¨re
ĠJe ff
Ġocc urrence
Ġajoute z
Ġreti re
Ġplong er
ĠJ amais
S ur
ĠAl lah
Ġviol ation
Ġal phab
ĠR ap
Ġpous sÃ©e
ĠHÃ© lÃ¨ne
Ã¼ r
Ġrecons titu
ĠbudgÃ© taires
Ġspiritu elle
ĠCol lÃ¨ge
ĠPhili pp
or ith
Ġca user
Ġm ondes
ar Ã©
Ġconfront ation
d t
Ġmyth e
Ġeff or
Ġsph Ã¨re
ĠT on
Ġprolong er
ĠH Ã´
Ġfix ation
Ġmat uritÃ©
ĠdÃ©cis if
ĠD J
ĠdÃ©si re
Ġcompos ent
Ġchamp ignons
ĠsÃ© duit
Ġde uil
ĠdÃ© chi
ec c
fin ale
Ġman uf
k en
Ġinv asion
Ġaffec tÃ©
Ġanim ateur
Ġan ge
Ġly cÃ©
me ts
ĠPalestin iens
ĠR ousse
ĠG RA
Ġtr u
ĠCh inois
ĠintÃ©g ritÃ©
st an
ĠrÃ©di gÃ©
Ġcalcul s
Ġform ules
is ti
Ġconsci ent
Ġtap er
ĠDeux iÃ¨me
ĠrÃ©p Ã¨te
Ġref er
Ġrent abilitÃ©
ĠK m
Ġstatu ts
Ġplate formes
Ġgrande ment
Ġrenouvel ables
ins on
ĠPrin cip
ĠCub a
cul er
ak h
Ġpar adox
Ġtre mp
oph ob
Ġinconn ue
Ġc ibles
Ġdeven ant
Ġdig it
Ġanne xe
Ġtristes se
ici ens
ĠÃ©lÃ©g ant
Ġm ill
z en
Ġexc use
Ġimpos ant
Ġgra m
Ġillus tration
Ġprof ils
ct or
Ġent oure
Ġsent ent
ĠL it
Ġprog ressÃ©
ĠCOM MENT
ĠR A
Ġinnov ations
Ġse gment
en euve
Ġmondi alisation
Ġa y
ĠJ ava
Ġb Ãªtes
ĠBro wn
Ġom ni
ĠprÃ©sid ents
O r
Ġaccueill is
ĠSc ott
Ġra tion
re b
Ġcher chant
ĠrÃ© no
ĠNorv Ã¨ge
all y
Ġsubli me
Ġcomm od
ĠG ES
u Ã©s
Ġfond ateurs
ĠFrancis co
ĠM oz
P lus
ĠcrÃ© atures
ĠK ong
ĠO k
Ġcul p
ĠS ky
Ġpoursu ites
Ġl us
ĠM ik
di eux
Ġr Ã¢
n est
P P
Ġretrouv Ã©s
and o
Ġaffir mant
ĠamÃ©n age
Ġenri chir
ment ation
Ġfib res
Ġtromp er
Ġchauff er
Ġorb ite
ĠMer kel
Ġappr ouvÃ©
Ġpseu do
Ġoffici elles
Ġcolon ie
ge ot
ĠL ut
sionn aires
Ġcoup es
Ġau dite
Ġpeu pl
ck er
Ã³ n
Ġrev ues
Ġc ouss
ĠtÃ©lÃ©ph onique
Ġs ois
enn itÃ©
ĠProf es
Ġmar ches
Ġpilo tage
oli tion
Ġ195 8
C R
Ġcomp licitÃ©
Ġafric ain
Ġin visible
ĠLe c
ang ile
Ġfon dement
Ġch ristian
Ġvra ies
rie d
Ġmin uit
ĠP Ã©r
ĠCar los
Ġvites ses
Ġrecue illir
ĠdÃ©ses p
Ġb av
Ġautom obil
uc k
ĠDan em
Ġcouver te
Ġinter dite
Ġconcern Ã©
ĠEn semble
Ġme eting
Ġapplic able
i ait
ĠB au
ta bil
ĠIm ag
ĠU ni
Ġesc ar
ĠDÃ© fin
b alle
Ġquotidien nement
ĠCler mont
il ien
Ġexp ressions
Ġsex uels
Ġse ctions
ĠDu p
Ġat out
pp er
Ġk ilos
Ġrembours er
Ġsouhait ons
Ġtrouv a
Ġ19 14
Ġadministra tifs
ĠPro jet
yp es
ĠP ower
ĠR Ã¨g
Ġsauve gard
ĠprÃ©ju dice
Ġaffir ment
ĠsÃ© rÃ©
Ġform Ã©s
ot ype
lis abeth
Ġmari Ã©e
ĠG arde
Ġs and
Ġass istant
Ġg au
l lerie
Ġaudio vis
lÃ¨ve ments
Ġlabor atoires
Ġappro xim
ĠC aisse
ĠMet z
ĠComm erce
ĠHol ly
Ġlinguis tique
Ġbio diversitÃ©
ĠÃ©che cs
ĠJack son
Ġmaqu illage
out ant
tri ques
c tu
tan tin
h r
end aire
Ġviol ents
Ġtravers Ã©
o ine
Ġfabric ants
Ġfer mes
onne urs
Ġanc Ãªtres
Ġra vis
Ġab orde
ĠlÃ¢ cher
Ġimp osition
Ġgra mm
ĠWh ite
x it
opp ing
Ġcommence ment
ĠPoli ce
ut ant
ĠÃ©m ig
Ġfer mÃ©s
Ġtor ture
ĠDanem ark
Ġb ad
ĠAdminist ration
Ġver nis
Ġlum ineuse
Ġspati ale
ari os
Ġb ibli
Ġper c
c tement
Ġass ain
ĠdÃ©par ts
Ġanten ne
me aux
Ġparag raphe
ĠSh ar
Ġstim ul
Ġincar ne
Ġv Ãª
Ġin i
ĠL N
ais ser
ĠdÃ© ra
Ġlo ts
o ol
Ġbar riÃ¨re
ĠÃ©c ologie
Ġcan aux
Ġra tÃ©
Ġv aisselle
am Ã©
Ġdomes tiques
Ġexpos ants
Ġdynam iques
Ġl inÃ©
w ick
ĠcÃ©rÃ© ales
9 8
Ġcontra dict
Ġorient ale
Ġs at
ĠGÃ©n Ã©rale
Ġtend resse
ĠV ieux
Ġbien venue
Ġcou reurs
ĠIns ta
Ã® mes
tis sant
Ġcl an
ĠJ ardin
ĠnÃ©er landais
cha ussÃ©e
ĠlÃ©g ers
ĠmÃ©dic ales
Ġamb ul
Ġqu ator
Ġappar ente
Ġv ec
ĠcarrÃ© ment
om a
Ġc um
Ġcasser ole
ĠintÃ© ressent
ore lle
Ġg ile
alis ations
Ġord onnÃ©
Ġexpli quent
Ġp acte
Ġmyth ique
Ġinf ection
Ġalar me
ram me
ig a
ĠForm ation
o ver
Ġeng end
Ġto x
Ġmar qu
Ġrele vant
ĠpÃªche urs
ĠT andis
ĠdÃ©bu ter
ati can
en aire
Ġfl ag
Ġretrouv Ã©e
ĠN um
Ġdomin ante
ĠV a
Ġcomp agne
Ġregard Ã©
ĠaÃ® nÃ©
0 7
ĠmÃ©di a
pi de
ĠrÃ©cip ro
pons able
Ġpl ates
ĠÃ©vent uelles
Ġ4 50
Ġjamb e
ĠMÃ© tro
Ġpou ce
ĠprÃ©f Ã¨rent
Ġfl ui
ĠapprÃ©ci ation
Ġglis se
ĠMes s
Ġfin esse
Ġ7 50
Ġp ente
min istre
ĠCON SE
Ġv ina
ĠrÃ© alitÃ©s
Ġchauff eur
Ġrencont rent
Ġdistin gu
Ġmar ier
Ġqu ai
ĠAmÃ©ric ain
ĠK ir
ĠÃ©vo quant
li b
Ġsimultan Ã©ment
Ġmette z
Ġs ar
x t
Ġaccus Ã©s
Ġaltern atives
tres se
Ġos c
ĠC lÃ©
ĠgÃ©n ial
ĠVladi mir
Ġno tori
Ġpay Ã©s
ĠT G
Å į
ĠF land
Ġpar don
Ġsec s
ĠrÃ©public ains
M a
ĠpiÃ¨ ge
ĠC ass
at on
Ġv Ãªtement
ĠdÃ©c ent
Ġcl aires
ĠB lu
Ġmain tenu
ve illÃ©
Ġvoc abulaire
ĠGar antie
Ġs ombres
ĠJ es
Ġchar ger
Ġpais ible
ra d
ĠT rop
ue ur
Ġin tra
ing er
ou ches
Ġan tÃ©ri
ĠT es
ĠcrÃ© ent
ur iers
ri ens
Ġgen ou
o Ã»
od ie
Ġphysique ment
Ġdis ons
Ġs Ã¨ches
ĠpÃ¢ tes
Ġin cidents
ĠrÃ©clam er
ĠN at
ĠÃ©vent ail
M ES
iss Ã©
4 3
Ġindiff Ã©r
Ġexac te
Ġcol oris
ĠBos ton
ĠdÃ© d
ĠJohn son
Ġcanadi ens
apit re
Ġmusulman e
ĠGau lle
enti er
Ġaffi ches
ĠFont aine
Ġillus trations
Ġincont est
Ġexist ants
Ġemb ras
ĠWiki pedia
ĠsÃ©par Ã©s
ĠAn na
Ġimpri mÃ©
ĠAli ce
Ġmar bre
rai ries
ĠS D
Ġpres tigieux
F I
p al
Ġral enti
ti ces
La urent
di Ã¨re
Ġrepar tir
Ġhau tement
Ġpat ern
ch ron
Ġparti elle
hÃ© sion
em ment
ch s
Ġn app
ĠM ode
ĠisraÃ©li en
Ġj adis
Ġsa veur
Ġalg orith
ch ine
Ġnotori Ã©tÃ©
Ġarri vant
i um
Ġclass Ã©s
u aire
ong es
Ġappar tenance
og es
Ġcertif ication
ĠG ame
Ġdom ine
Ġincer titude
Ġp Ã¨res
om in
es p
Ġpl uies
Ġv este
ĠprÃ©v al
Ġins ou
Ġcol line
Ġsusc ite
Ġgra in
ĠC la
6 2
ar n
IC ATION
Ġsauve tage
Ġinvent aire
ĠP N
ĠA BC
Ġprog ress
Ġchor Ã©g
Ġle ctures
Ġbou ge
Ġadmi ration
ĠÃ©tro itement
Ġintitu lÃ©e
ĠCh i
ĠvÃ©tÃ© r
ĠOpÃ© ra
Ġla mpe
ĠnÃ©g ative
Ġcroy ez
Ġad orÃ©
si ez
Ġtriom phe
ar isme
Ġaffi chÃ©
Ã©l ine
ĠC ant
ĠParis ien
ĠspÃ©cifique ment
ĠÃ©vac uation
me z
Ġmunicip aux
ĠJ ane
Ġchim ie
ĠÃī g
Ġsacri fice
Ġstand ards
Ġaus tÃ©ritÃ©
Ġincap acitÃ©
ĠÃ©vÃª ques
Ġimpati ence
Ġfonctionn el
Ġv us
Ġw all
Ġav an
ĠD G
Ġplan cher
Ġdimin uÃ©
Ġpsychi atri
Ġoccup Ã©e
Ġbel ges
Ġlum in
Ġmante au
Ġsau vÃ©
Ġk i
ĠtÃ©lÃ©specta teurs
IT ES
Ġh Ã©las
ĠÃ©qu itable
ĠL G
ĠAnton io
Ġdisp ute
ci es
Ġran ger
Ġl ente
ĠJ en
Ġabou ti
ran ger
Ġi rak
Ġplain tes
ĠdÃ© ception
ĠiP ad
Ġinte mp
Ġ9 1
lÃ© si
pl an
Ġpass a
ĠN ot
Ġc amb
ra ux
ĠP Ã´le
Ġex h
Ġpi zz
Ġautoch tones
l ins
Ġprogressi ve
Ġbra ce
Ġadap te
Ġco Ã¯n
Ġlu dique
ĠToul on
Ġprov iennent
Ġcom prise
Ġmondi aux
c orÃ©
Ġfra tern
Ġimp asse
Ġbiblioth Ã¨ques
Ġsouff ert
Ġvir tuelle
ĠMus ic
ÃĪ RE
0 9
Ġcommun istes
Ġimpos Ã©e
ĠdÃ©lic ates
in ant
w ards
Ġso ie
ĠAlex and
s ki
ĠMan agement
Ġd its
Ġmaj eures
ĠL une
Ġon e
Ġexcell ents
ĠTribun al
ĠbÃ¢ tir
u ent
ĠChe val
ĠgÃ©n Ã©rique
Ġal tÃ©
Ġpotenti ellement
ĠHer vÃ©
Ġval ider
Ġstre aming
Ġpertin ence
Ġd an
Ġcol lÃ©g
Ġcol ler
P as
ĠF L
ĠF ON
Ġsomme ts
Ġprof its
Ġappar u
ne tte
ĠdÃ© tenu
Ġdo tÃ©e
Ġassoci Ã©es
w ell
ĠLa f
allÃ¨ lement
Ġic Ã´nes
Ġcar net
Ġcomp enser
ĠhÃ©ber gements
ĠRÃ© seau
Ġretr ans
ak es
rou ille
Ġsta gi
Ġ196 5
Ġarti llerie
ĠgÃ©n oci
ĠT ours
Ġs cep
ĠmÃ©m oires
al o
Ġpi Ã©t
ĠRÃ©pub lic
Ġtrans it
C OM
ĠpÃ©n it
ĠRom ain
Ġc auche
Ġautoris Ã©s
Ġver res
ĠpÃ©n al
Ġren fer
Ġdimin ue
Ġimp ecc
ĠConsul tez
ĠM ati
Ġlut tes
0 6
Ġterre ur
Ġimpli quÃ©s
Ġsuff rages
Ġpharm ace
ĠÃ©vent uels
Ġcam ions
Ġdiff use
ĠFA Q
Ġsouff rances
ĠdÃ©sesp oir
Ġappro bation
Ġchar mante
alis ant
tÃ©rieure ment
Ġinspire r
Ġtur c
ĠR usses
Ġsouples se
Ġcomp il
Ġesti mation
ĠV atican
Ġillus trÃ©
Ġmagist rats
Ġman quait
Ġpart ent
Ġvigil ance
ĠH om
Ġle vÃ©
Ġindustri elles
IT S
aÃ¯ que
v ol
ĠfÃª ter
Ġp p
c ad
Ġacc rue
Ġc Ã©ra
ĠÃ©chantill on
f onction
Ġpi tiÃ©
Ġressenti r
ĠrÃ©h abil
Ġattend us
I QUES
ĠP ier
ĠQu in
ĠPro b
ette ment
Ġaccueill ant
Ã©ri es
Ġinc or
ra les
1 00
Ġpav illon
ĠChange z
ĠSar ah
ĠN orth
Ġrep orter
ĠÃ©vent uel
Ġs pr
Ġfisc aux
Ġmet tait
Ġcroy ances
ak s
8 9
Ġal lu
ti o
Ġac ous
N e
Ġris quer
Ġsouff rent
Ġmu tation
Ġraf raÃ®
Ġaut rich
o lement
ĠP Ã©ri
Ġimp uiss
Ġpan ique
ĠP AGE
ĠMc C
Ġrapp orter
Ġdes tru
ĠCam ille
on gement
Ġfes ses
ĠrÃ©aff ir
Ġam use
ours es
Ġex on
ĠchÃ´me urs
ĠFi che
ĠRa f
ĠsÃ©rÃ© nitÃ©
ĠChamp ions
ĠdÃ©lÃ© guÃ©s
Ġn at
elli on
Ġb ic
ĠH ouse
Ġform ats
Ġsymb ol
Ġpol onais
M AN
ĠH aw
Ġcous in
Ġir rit
Ġsur prendre
ĠrÃ©guli ers
Ġorient ations
ĠÃ¢ ges
Ġposition nement
Ġtransf erts
ĠÃ©lab orer
Ġradic al
Ġor ph
Ġa yez
ĠC ur
ĠidÃ© alement
Ġocc ul
Ġconcent rÃ©
ĠrÃ©du ctions
o eu
Ġclass Ã©e
Ġd am
la de
Ġconc entre
Ġla cs
Ġprisonn ier
ĠO TAN
ĠT en
Ġfrig o
ĠGen er
Ġcommerci alisation
fi ants
Ġh aÃ¯
Ġexter nes
Ġcos tumes
je uner
Ġinf il
Ġsol itaire
ĠÃī ric
Ġatte ints
Ġorient er
Ġentre prendre
ori a
Ġsign ale
ĠTr ouvez
ĠSec rÃ©taire
Ġt els
ĠdÃ©couv ri
Ġdom inÃ©
Ġadoles cent
Ġsp len
ĠPoli tique
Ġgentilles se
Ġbre ve
y cle
ĠdÃ©fini tif
la v
Ã©re mment
Ġsub vention
ĠPeu geot
Ġter roir
ĠU TIL
Ġmur m
ĠDer riÃ¨re
ran e
Ġcommen Ã§a
Ġb ig
ab is
ĠS ug
ĠGil bert
ĠK ad
Ġhar c
Ġsupp lÃ©
Ġtomb ent
Ġent rent
Ġinspi rÃ©e
Ġment al
ĠMÃ© dec
Ġmonast Ã¨re
Ġp alette
Ġin ad
Ġinterro gÃ©
Ġconstru c
Ġsensibil isation
Ġpour riez
Ġamende ments
4 1
Ġex ag
igne urs
Ġinf orme
Ġtun nel
Ġentre pris
Ġdess iner
ĠpÃ© chÃ©
lar ation
ĠCar te
Ġrap iditÃ©
Ġsmart phones
Ġinflu ences
ĠAcc Ã¨s
Ġ196 4
Ġs ente
Ġchang ent
Ġmons tres
ĠO B
Ġcomp ositions
T Ãī
Ġcos mÃ©
ĠMet tre
yc lo
z an
Ġde c
Ġdivis ions
or ama
ras h
Ã©n ie
ĠRe ine
Ġache teurs
Ġrefus ent
Ġic Ã´ne
Ġs aine
Ġinter f
Ġred onner
Ġstu dios
Ġver sement
Ġhui tiÃ¨me
ĠmÃ©l anc
Ġd urs
Ġd resse
che f
Ġdans er
Ġc aution
Ġre ten
ĠJu in
ĠisraÃ©li enne
ph Ã©m
T ube
z u
Ġparfum s
ĠdÃ©termin Ã©e
Ġitin Ã©raire
Ġdis ais
ĠU til
6 3
ver gne
Ġinter actions
Ġpri e
Ġmassac re
ĠgÃ© ants
Ġd yn
Ġdist ances
Ġconj onc
ĠM gr
ĠÃ© min
ĠCont re
Ġma Ã¯s
Ġhe in
f ils
Ġau be
ĠTe mp
Ġmin istÃ©ri
Ġw ho
Ġran gement
ĠDam as
D L
ĠSav oie
Ġperd us
ĠArch ives
Ġenregist rÃ©e
Ġdicta ture
Ġpro li
en f
ĠrÃ¨gle ments
l ore
ĠS AR
Ġes tiv
Ġmo dules
ĠPro che
om ique
ĠInform ations
ribu tion
ĠintermÃ©di aires
Ġv Ã©n
Ġann uler
ati sÃ©
ou tes
au tions
Ġblo quer
r ar
ĠK at
Ġ3 000
Ġop Ã¨re
ĠE ch
ĠM id
in f
Ġgra de
ut h
Ġvis ent
ĠLa p
ĠB is
Ġamb igu
ĠSour ce
ĠrÃ©pÃ© ti
ĠIn vitÃ©
ES S
ell y
Ġparti el
ĠCon ditions
Ġc ut
ĠmÃ¢ le
Ġescla vage
Ġh igh
ĠSam uel
ul Ã©s
on Ã§ant
ĠgÃ© ographie
Ġlim itÃ©es
Ġt asse
Ġmoul in
Ġe us
Ġpro duis
ĠSal le
ĠrÃ©v Ã¨lent
ph ie
Ġbou dd
ĠdÃ©f orm
Ġassoci e
ĠR EN
Ġdev rez
Ġoblig Ã©s
Ġple urer
Ġrespec tÃ©
Ġsal uÃ©
Ġco pi
ĠComb ien
ĠEc onomie
Ġinfra ction
ĠconÃ§ us
ath on
E s
Ġro tation
il o
Ġexist antes
Ġcirconst ance
min aires
ĠIni ti
Ġsul f
Ġbou ff
Ġfi Ã¨vre
ĠCharl otte
ĠdÃ©fait es
Ġenti tÃ©s
ĠsÃ© jours
Ġh ivern
ĠTrÃ©s or
Ġtrouv Ã©s
ĠDi jon
Ġconc rÃ¨tes
ĠPar allÃ¨lement
as y
Ġtre ize
Ġ196 6
Ġfab ule
ĠC ru
Ġg Ã©rant
ti gie
t rÃ©s
Ġper les
A pp
Ġenregist rÃ©s
ĠhÃ©roÃ¯ ne
b ou
Ġis olÃ©
ĠBus iness
Ġcons truis
ĠO ise
ĠJon athan
Ġcont es
Ġappar ent
tr ant
Ã Ģ
ĠB lan
ĠdÃ© range
int endo
Ġl oyer
e uses
ĠmÃ©tal lique
tu es
Ġch Ã¨que
guer ite
Ġacqu ise
ĠstÃ© rÃ©
oure uses
ĠrÃ© organ
ĠdÃ©mar rer
Ġp oup
en h
ad or
Ġexclus ive
o tiques
vis ionn
ce v
ĠH ans
Ġprolonge z
Ġconforta bles
Ġautom obiles
ĠinquiÃ© tudes
Ġmari Ã©
Ġco hÃ©sion
Ġret ours
Ġhypoth Ã¨ses
ĠId entif
Ġfin issent
lu c
Ġoxy gÃ¨ne
Ġimag inÃ©
ĠN u
ous ie
Ġcop ains
Ġenvironnement ale
Ġoblig atoires
Ġtechni cien
ĠprÃ© d
ĠInsta gram
Ġimpres sions
L ors
ine uses
Ġex act
l ay
Ġp on
ĠSe pt
Ġro che
ĠB ibliothÃ¨que
ĠprotÃ©g Ã©s
Ġdisp uter
Ġlongue ment
Ġcom ble
ĠdÃ©s Ã©quilib
af ric
Ġforum s
Ġg estionnaire
ĠPU BL
Ġincomp rÃ©h
Ġsupp orte
Ġenseign er
Can ada
out ent
Ġsou tiens
ĠcomplÃ© tÃ©
A prÃ¨s
ĠRe p
ĠFlori de
ĠspÃ©ci alitÃ©s
ĠÃ©lo igner
Ġch ag
Ġong les
Ġvraisembl ablement
Ġnour r
Ġchauss Ã©e
Ġdi d
Ġs qu
Ġchauff e
Ġab e
ales tine
D H
ĠreprÃ©sent Ã©s
ĠPok i
8 8
ĠrÃ©p lique
ĠF el
ĠamÃ©lior ations
ĠN ul
Ã© taires
Ġfix Ã©s
Ġfonctionn aire
h ist
Ġarri vait
en cier
du cteur
m el
Ġpla id
Ġrivi Ã¨res
ĠH P
ĠPÃ¢ ques
Ġinter action
Ġvalid ation
Ġcons entement
Ġme xic
Ġatt ribuer
ĠXV IIIe
6 9
Ġimpli quÃ©
ĠChamp agne
ĠdÃ©ter mine
Ġcomp ri
Ġence intes
ĠTra itement
ata le
ĠBe aux
ĠR endez
Ġgra ins
ĠFem me
Ġatte intes
ĠL ive
ĠhiÃ©r arch
Ġ15 00
ĠprocÃ©d Ã©s
Ġgri mp
ĠTex as
ĠgÃ©n Ã©ros
Ġcrist al
Ġemprun ter
Ġphilosoph ique
ĠV erts
ĠMun ich
ĠTÃ©lÃ© charger
ĠSyst Ã¨me
ĠprÃ© vision
en z
ĠTe mps
ĠJ a
Ġimpos ent
Ġtac tique
qu ins
Ġaffron tements
as tes
ĠLe v
ĠÃ©c oul
EN S
Ġesti mant
Ġcomp tant
Ġbois son
c Ã©d
Ġsuccessi vement
Ã© enne
ense ur
d ra
ce aux
ĠInter ro
or teurs
Ġb aissÃ©
Ġcle f
ĠCh apitre
lis h
Ġmens onge
Ġsal ons
ĠempÃª chÃ©
ign Ã©s
Ġspa cieux
7 7
ĠprÃ© le
Ġchau des
Ġinter commun
se pt
Ġvieill issement
oun g
Ġjou ait
Ġpar aissent
Ġch allenge
ĠHar per
ĠTri p
itoy ens
Ġparti tion
Ġcou n
Ġfabri quÃ©
ĠD ig
Ġdynam isme
ĠStand ard
ĠscÃ©n arios
Ġche vel
Ġinoubli able
S C
ĠRou manie
ĠaccÃ©lÃ© ration
Ġmas ses
Ġbrig ade
ĠÃ©par g
ĠprÃ©f Ã©rÃ©s
Ġver b
Ġrencont rÃ©s
ĠPRO F
ĠR P
ĠaperÃ§ oit
ĠJohn ny
ĠreprÃ©sent Ã©e
Ġdioc Ã¨se
Ġcontrepar tie
Ġdispose z
ĠF ant
Ġanim Ã©e
ĠYou Tube
ĠA mÃ©
Ġvi des
ĠVictori a
ĠPr omo
Ġsoulig nant
Ġinn omb
Ġcompens ation
ĠLang ue
Ġpou b
ĠC ata
Ġa h
Ġrecher chÃ©
ĠO FF
Ġpo ils
Ġcommunau taires
Ġdev ais
ĠM ieux
ĠrÃ© ci
Ġmu tuelle
ah a
A IS
Ġpr ouvÃ©
Ġimp acts
ĠÃĤ ge
Ġatta chement
ĠdÃ©sac c
Ġchron iques
Ġcens Ã©
ĠAc cess
nis me
ĠR on
Ġpaie ments
re lles
Ġbat teries
Ġm agn
Ġfoot balle
Ġmess agerie
Ġche mise
Ġs pe
ĠgÃ©nÃ©ros itÃ©
Ġpes er
ĠMus ique
ĠCol lec
tis sements
ĠdÃ©pl ore
ĠrÃ© veil
Ġb apt
M ont
Ġg ab
Ġsuiv is
ĠEnvir on
Ġven geance
ster dam
Ġconfront Ã©
Ġbulle tin
Ġhom ogÃ¨ne
mois elle
Ġbaign oire
Ġc Ã©d
ĠG T
an iste
ĠP OL
Ġressor tir
Ġroul ant
ĠP V
ĠEff ec
Ġmeu ble
agu en
T ATION
Ġmo re
ĠprÃ©c aution
Ġs ir
ĠM ir
ĠdÃ©pos Ã©e
g iques
ĠH os
L oire
Ġcal c
Ġremp lie
Ġinuti les
Ġminim ale
ĠCONSE IL
Ġlumin ositÃ©
ĠC up
rÃª t
Ġau d
4 6
Mar ne
Ġconfront Ã©s
ĠLo ve
ch y
Ġrenfor cÃ©
Ġfin anc
les s
Ġnu age
ĠprÃ©occup ation
un k
p ied
ĠdÃ©voil er
Ġfl ou
Ġ196 3
Ġj um
as ses
Ġvi agra
Ġh op
Ġmine ur
ĠdÃ©mis sionn
os sÃ©
Ġse ize
Ġpl ait
Ġes su
ĠÃ Ĺ
ch ose
Ġmos quÃ©e
Ġlib rairie
Ġsoutien nent
Ġeffond rement
ĠÃ©lab orÃ©
ĠdÃ© lit
Ġfacil ite
M IN
Ġar chev
ĠrÃ©g al
Ġpens ons
Ġmoder nisation
Ġabs orb
Ã§ age
Ġlit toral
onn iÃ¨re
ĠtrÃ©s ors
Ġfonction nent
Ġper dent
man e
ĠS us
Ġmusic ales
Ġd ense
ĠE R
Ġven ues
ĠCrÃ© ation
Ġaimer ait
Ġisol ation
um s
ĠD R
ma jor
Ġexc ent
ĠprÃ©s um
Ġmunicip alitÃ©s
Ġar ist
Ġdev ienne
Ġin to
Ġsculp ture
ĠemblÃ© matique
mar Ã¨s
ĠdÃ©s tabil
Ġchristian isme
ĠÃ©t off
Ã©l ande
Ġres ser
ĠrÃ©vÃ© lations
Ġbloc age
Ġcan ons
ins ule
ĠCH AR
Ġe urent
Ġrecommand ation
Ġtitu laires
Ġparten ariats
Ġdi es
Ġmo ines
Ġemploy er
Ġau dition
re e
Ġcenti mÃ¨tres
ĠK al
ĠdÃ©p our
Ġdes crip
ĠVi etnam
ĠÃ©t endu
Ġasc ension
Ġag enda
Ġmondi ales
es tement
Ġsec rÃ¨te
Ġpor c
ĠRac ing
Ġpl uri
ĠT ECH
D R
Ġcou tume
ĠT ab
ĠQu ar
Ġ omb
Ġdou bles
ĠLin ux
ro c
Ġquoti diens
ĠN intendo
Ġital iens
ĠH ay
t urÃ©
ĠrÃ©ussi e
Ġordin aires
Ġr Ã´
ĠQ atar
Ġm Åĵurs
ĠP alestine
Ġvas tes
Ġindem nitÃ©
ĠL oin
ĠHolly wood
ĠC lÃ©ment
Ġcompar able
Ġpri er
ĠÃ© ri
Ġpel ouse
crip t
ĠD ame
Ġpor tÃ©s
EL LE
ĠMax ime
Ġpa cifique
ib er
Ġallemand es
ĠI G
Ġav iation
ar is
Ġrev Ãª
ĠÃ©dit ori
ĠdÃ©ta illÃ©
Ġpron os
ĠÃī ducation
Ġner veux
Ġc age
ĠfrÃ©qu ente
Ġdemande z
Ġpar viennent
ĠprÃ©al ablement
Ġgre ff
mÃ©di a
ĠSO CI
Ġesti mÃ©e
ĠrepÃ© rer
Ġpar venu
a par
ĠMe d
ig Ã©ri
ol ore
ic ales
ĠRe ims
ĠmÃ© chant
Ġn Ã´tre
Ġvis itÃ©
ĠCons tantin
Ġsent ait
ĠCOMM UN
op er
ĠdÃ©c orÃ©
Ġmens uel
Ġsouhait ait
ĠG rÃ©g
Ġso if
Ġun d
Ġaper cevoir
ĠlaÃ¯ citÃ©
Ġver be
Ġami es
ph ique
ĠTh aÃ¯
ira c
ĠE quipe
Ġestim ations
Ġcalcul er
Ġtechni ciens
Ġurb ains
Ġar range
Ġbou les
Ġcog ni
Ġdur Ã©
Ġsusc iter
Ġe ac
sh irt
ĠPar tager
ĠB y
ch ettes
w iller
Ġveu ve
Ġth er
Ġloc ataire
ĠDoc teur
ĠreÃ§ ues
ĠH ard
ĠsÃ©qu ences
g rand
Ġpi le
ĠmÃ©can iques
Ġvis uelle
ĠrÃ© b
Ġtour ment
Ġn aÃ®t
Ġimp ulsion
Ġprop ice
M ari
Ġcr yp
Ġvaisse aux
Ġflam me
ĠI er
tis es
ĠIdÃ© al
Ġmas ter
ĠmÃ©di Ã©v
ĠS OL
Ġench Ã¨res
Ġrecommand er
ate d
ĠSant a
ĠSh e
Ġins crite
l ats
Ġemp ortÃ©
ĠM ONT
dÃ© p
ĠE uros
ĠinterprÃ© ter
Ġin jec
ph ine
aur Ã©
ĠMe dia
Ġinter min
Ġr uisse
op oli
T V
r Ã´le
ĠlÃ©g ales
ĠM ini
Ġcrimin els
Ġassis es
Ġrec ourir
Ġnu ances
ĠcoÃ©qui piers
Ġal lusion
Ġmar quis
o a
c it
b ol
ĠdÃ©f aill
ĠpÃ© tition
Ġvie il
ĠAs h
ĠAm sterdam
ĠP ossi
Ġlois ir
Ġouver tement
Ġstru ct
Ġrou tier
Ġchaleure use
ĠmÃ©t aux
oris er
b u
Ġr h
til itÃ©
Ġremarqu ables
ind res
ĠvÃ©gÃ© tation
Ġren de
Ġcal ib
Ġconfir mÃ©e
ĠAlex is
ĠdÃ©fin ie
ĠdÃ©p Ãª
Ġclar tÃ©
Ġpare ille
Ġvan ille
che urs
Ã©ron au
ĠV OTRE
r h
Ġsex ualitÃ©
ĠtÃ©moign er
Ġobs cur
Ġmar Ã©chal
Ġimmob iliers
Ġcircul er
Ġplac Ã©es
Ġvoisin age
Ġc urÃ©
Ġmul tination
ĠprotÃ©g Ã©e
Ġtax i
Ġemprun t
Ġconstru its
Ġbru its
Ġvir tuel
Ġro bes
ĠpÃ©r ennitÃ©
Ġcol lines
ĠHaÃ¯ ti
Ġfro t
ouver te
ĠcrÃ©di bilitÃ©
Ġwh ich
ĠCh an
Ġentour Ã©e
ĠE lect
Ġac adÃ©mie
z iÃ¨me
Ġgui des
ĠP ost
Ġmes sieurs
ĠEn se
Ġaute ure
Ġcrain tes
Ã©m a
Ġbar be
Ġlib Ã©rale
tiss ants
c rÃ©
ĠChois issez
Ġressemb lent
Ġau da
ont Ã©
Ġ193 9
Ġblo quÃ©
Ġform Ã©e
ĠrÃ©s istant
ĠRapp ort
Ġtro phÃ©e
Ġhabitu el
Ġcl er
Ġdire ctions
S a
c am
Ġrefroid ir
Ġmo indres
Ã¨ ces
ĠprÃ©c oce
ĠG Ã®tes
Ġprop ul
ĠsÃ©n ateurs
ou rer
Ġbris er
Ġra che
Ġde mie
Ġpri Ã¨res
tionn Ã©e
Ġboudd h
ĠProp osez
Ġsc rup
ĠinÃ©d it
Ġ194 8
Ġexp ortation
Ġsc ri
Ġinvent Ã©
tin a
ĠBer ger
ĠÃ©vid ente
6 1
ĠPos tÃ©
Ġanec do
Ġat ter
Ġfour nies
Ġinc lure
ch im
Ġmultip lier
Ġcy ber
Ġpanoram ique
Ġgrand ir
Ġbu ff
ad Ã©mique
Ġin Ã©
ov o
Ġper Ã§u
Ġe cc
Ġin hab
Ġdiv isÃ©
Mar tin
ĠÃ©claire r
Ġcon quis
ĠD ay
Ġsembler ait
ĠPa pe
Ġcl Ã´t
ĠopÃ©ra tionnelle
adi er
Ġpor tÃ©es
Ġappr en
ĠÃ©l ue
Ġappr Ãªte
Ġlaiss ait
Ġfus il
ve illes
ĠL au
ĠinÃ©d ite
Ġsain ts
ĠprivilÃ©g ier
Ġam endes
ĠRe ce
igne z
ue use
om ac
Ġaut op
Ġth is
ĠCh el
ĠÃ©tran ges
ĠdÃ©partement ale
Ġsemb lant
Ġfondament ales
Ġan alog
Ġexpli quant
Ġconsul tations
Ġsavoir s
Ġc rÃª
ĠBon jour
and onnÃ©e
Ġrespect ant
Ġai dent
Ġoeu f
Ġcens ure
im Ã©
ĠC Ã©line
ĠredÃ© c
Ġdispos ant
Ġpas sez
Ġcompar Ã©
ĠÃ© ditÃ©
ĠW ord
ĠF lam
ĠexpÃ©riment ation
ĠCh ili
Ġ196 1
Ġsilhou ette
ĠD ri
ore z
Ġcommun al
Ġaff ran
Ġaband onne
ĠÃ©pidÃ© mie
Ġdispar aÃ®t
Ġaccompagn ent
Ġconviv i
B O
Ġmar ges
ĠdiffÃ©r enci
Ġeac ute
ĠopÃ© rer
ĠdÃ©cro cher
ĠRom ains
ĠM au
Ġcoul oir
ĠrÃ©p utÃ©
Ġspa cieuse
se a
ĠdÃ©velopp ent
ĠGre cs
E lle
dl r
Ġcon duis
Ġsensi blement
Ġpi Ã©
Ġindic ation
ĠG AR
Ġrest aurer
Ġdou ces
r Ã´
Ġinterp ell
Ġremar ques
ĠbÃ¢ ton
Ġm Ã©ri
ĠBl og
ĠAd resse
ĠRen aud
Ġla me
Ġla titude
Ġbou quet
Ġrac ine
one y
ĠAngel a
Ġmultip lication
ĠÃ©ch ang
ĠK a
Ġcor romp
ĠEmp loi
Ġg ir
Ġcon cession
Ġcou ture
Ġam ant
Ġpr omp
Ġviv ait
Ġmand ats
Ã Ĭ
Ġray onnement
Ġpour v
Ġy ou
ĠirrÃ© gu
Ġsouhait ant
Ġflam mes
Ġign orer
Ġvesti ges
ge z
Ġop en
ĠE b
ĠF as
ĠGra tu
Ġfran chi
Ġval ide
ĠAir bus
ĠÃ¨ me
Ġcamp us
Ġgym n
Ġviol on
Ġprotagon istes
tant es
ĠmÃ©da illes
Ġemb lÃ©e
G M
f essionn
Ġprof itez
Ġfestival s
Ġprior itaire
Ġger man
ĠRen aissance
Ġgout tes
7 8
ass Ã©s
Ġp iv
ag s
ĠBr est
Ġtub es
ĠF leur
ĠÃ©crit es
Ġdyn as
Ġg Ã¢teaux
Ġvain cre
ĠCar re
Ġpo ts
Ġpor tion
ĠdÃ©mocra tiques
Ġdirec ts
Ġmention ne
Ġexig er
Ġlivre t
ĠCap ital
b or
ann y
Ġch asser
Ġconnec tÃ©
Ġa cides
Ġmal aise
ou ard
Ġexc uses
Ġconf iÃ©e
prÃ© sid
Ġson ores
Ġno tice
il ton
ur ait
Ġemball age
alis es
Ġpersonn alisÃ©
Ġindi en
Ġcat al
Ġju gÃ©e
ĠS ommaire
ĠCos ta
Ġarriver a
ĠB BC
ĠM ill
Ġav iez
ĠdiplÃ´ mÃ©s
Ġbl onde
bo ard
Ġcolon isation
Ġgros s
Ġt s
ĠObserv atoire
ĠS ont
ale ine
end us
Ġmod estes
Ġqu an
Ġrou tiÃ¨re
ĠCON S
Ġsorti ra
Ġpolitique ment
Ġappr ouv
Ġser rÃ©
Ġamus ant
c era
ale t
Ġcriti quÃ©
Ġquator ze
Ġabsur de
Ġwe re
ĠDÃ©c laration
C P
ĠH igh
ĠLuc as
ĠTe mple
ER E
m ati
Ġbre vet
ĠD ec
Ġla ser
M O
Ġaver ti
ĠdÃ©p endant
it an
erb ro
ĠdiscrÃ© tion
Ġsa che
Ġdoctor at
Ġignor ance
ĠB Ã©n
n on
ĠsÃ©par Ã©
ĠC oh
Ġn ombres
ĠF F
ĠMar ch
Ġcontra diction
mis tes
ĠR oss
Ġaffir mation
ĠT oy
Ġcop ropri
ĠMat th
Ġre lÃ¨vent
ens Ã©e
de d
ĠdÃ© tÃ©ri
Ġconvic tions
ĠKar l
Ġinterrog ation
ge oise
ĠJ un
Ġradic ale
ĠGen e
Ġcre us
Ġbaptis Ã©
Ġin tes
ĠCer cle
Ġrais onnement
Ġb ret
Ġqui conque
Ġva mp
R hin
ĠLE D
ĠP atrice
Ġbas il
Ġal la
ĠV II
Ġengag Ã©es
ĠU TC
Ġnul lement
ĠAnth ony
Ġcir que
Ġrend ra
Ġredou table
Ġcylin d
ĠÃ©duc atif
Ġretra itÃ©s
b ec
ĠRe mp
Ġoptimis ation
ĠBre xit
L M
Ġpl ug
ĠpÃ¢ le
Ġenle vÃ©
Ġfa illi
9 2
Ġcompta bilitÃ©
ĠÃ©p ing
Ġfus ionn
id al
ĠK am
ĠdÃ©p enser
Ġba il
Ġcauche mar
Ġfonctionn elle
ĠP DF
ex agone
Ġprolong ation
a ph
OR D
Ġs w
Ġc out
Ġ5 000
ĠBri an
ĠÂ ½
ar iser
Ġvo lets
Ġmascul ine
Ġinnomb rables
Ġw ould
ĠBle u
re u
ĠÃ©ch ouÃ©
Ġqu alit
par ation
Ġvis a
Ġservi ra
Ġassur Ã©s
ĠÃ©lÃ© ph
ĠmÃ©dit ation
ĠAu di
ĠRÃ© p
ar th
Ġag ressions
ĠLion el
Åĵ ud
ra ult
Ġsoumis es
ĠS MS
o e
ĠprÃ© mat
ure z
Ġjoy eux
Ġcann abis
Ġl ig
Ġan ges
Ġpromo tions
ĠÃ©cri a
Ġon de
Ġti rÃ©s
Ġf umer
ĠdÃ©ri ve
ĠcÃ©rÃ© mon
ĠL ud
Ġch Ã¢teaux
Ġrel ay
Ġsugges tions
ĠD IS
ĠHum an
eu l
Ġpal marÃ¨s
ĠÃ©chapp Ã©
ĠCent er
Ġgigantes que
ĠprÃ©sent ait
Ġache teur
Ġadministra tions
Ġinf anterie
Ġcrimin el
ĠM atin
Ġquin qu
p oint
el lo
es tionnaires
Ġdiv id
Ġvis Ã©
Ġma de
Ġfac tur
Ġattend ais
Ġnour ris
ĠthÃ©Ã¢ tra
Ġtou chent
Ġcont our
Ġvers Ã©
Ġfais ais
Ġattra ctions
Ġal lÃ¨
Ġadep tes
ĠAng ers
Ġces sion
Ġsyri enne
ĠdÃ©m on
el ine
TI QUES
dou ard
Ġpay ant
ĠAu vergne
Ġch utes
P rÃ©
Ġsu rement
Ã¢ mes
Ġcompos antes
Ġrecru ter
Ġharc Ã¨lement
ĠcoÃ» tÃ©
Ġacqu it
Ġp ans
ĠRe garde
Ġpen sions
Ã© si
Ġimmobil iÃ¨re
ĠTECH N
Ġsing ulier
ĠapprÃ©h ender
Ġje an
ox yd
Ġbi ologiques
Ġ195 9
Ġralen tissement
Ġchale t
Ġpen cher
ĠB uff
Ġoppos Ã©s
rog Ã¨ne
Ġprivil Ã¨ge
ĠFl ash
ĠrÃ©p li
ĠRob in
wi ki
Ġaff ili
ro ite
agas car
ĠPr om
Ġc end
Ġsol enn
t os
Ġglo be
ĠOu v
Ġis olement
Ġvisite ur
gn on
Ġmin uti
ler c
li Ã¨res
ĠmÃ©di ation
ro ix
ĠS qu
l ables
Ġemb auche
Ġconstitu tionnelle
Ġsus pec
Ġb ob
Ġindem n
Ġsac rÃ©e
Ġaccro issement
ĠG E
ri x
ĠN as
ĠdÃ© tection
Ġpay e
ĠÃ©lÃ©g ante
ĠhÃ©ri tier
ĠX box
ĠJu illet
ou gh
Ġvis uels
7 2
Ġfra gment
Ġp ires
Ġtro tt
ĠJ os
ill o
T H
Ġent ame
Ġa isÃ©e
Ġch Åĵur
ĠSyn dic
ĠC aire
Ġpo table
our ces
Ġver tes
Ġcontribu ables
ta te
z Ã©
ĠR EC
Ġentre p
ĠrÃ©conc iliation
Ġfor ter
Ġcas sation
ĠÃ©tern elle
ĠP AC
Ġbien faits
Ġgar diens
Ġmen ant
ĠprÃ©sent era
Ã Ķ
ĠV oy
ĠF O
ĠFin lande
ĠS en
ĠLais ser
ĠB P
Ġl ow
Ġc ue
ĠSh ang
Ġqualif iÃ©e
ĠP av
Ġv aud
Ġgout te
Ġoccident al
ĠrÃ©du its
uel a
ĠprÃ©ser vation
Ġanim ale
Ġn an
ĠM ER
Ġg Ã©rÃ©
illi on
Ġpri mes
Ġmagaz ines
Ã¡ n
ĠG all
5 9
Ġgouvernement ale
Ġbat tant
Ã©b ec
ĠHam on
ĠpÃ©dagog ie
Ġmont ants
Su jet
ĠMor gan
ĠN P
Ġt onne
Ġann uels
ĠÃ©conom iste
Ġti ra
Ġcrimin elle
Ġrapp ellent
Ġh uis
Ġenc omb
Ġpsych an
Ġmanus crit
ĠB ow
ĠNob el
Ġinti mi
resse ur
Ġsu i
Ġimm enses
Ġgal eries
du ites
Ġcroy ance
ĠrÃ©public aine
ĠHam as
Ġle vier
Ġjou ir
ĠÃ©conom istes
ĠR oc
ĠmÃ© trage
ĠdÃ©cal age
ĠprÃ©sid entiel
ĠdÃ© ro
Ġdes se
Ġdu es
Ġpo igne
ĠI D
ĠM ig
Ġman oeu
Ġeffec tive
ĠbactÃ©ri es
Ġgra vement
ĠP aiement
ĠC RE
Ġhabit ations
Ġpar ven
Ġs ien
Ġadress Ã©e
ĠGal ax
Ġb aise
Ã©n avant
Ġfor tif
Ġbrill ante
ie v
Ġo ignons
Ġinjus tice
vi ons
ĠO L
Ġqualif ications
Ġparis iens
Ġarchi pel
Ġdisp utÃ©
8 3
ĠLis bonne
ĠT N
Ġconsul tant
ĠcrÃ© ature
ĠC ris
ĠTe am
AN G
ĠS ain
Ġorch est
ĠdÃ©gus tation
ĠidÃ© ologique
nis er
Ġ195 6
Ġty ran
Ġdoul oureux
Ġauthenti citÃ©
Ġsin istre
ri k
IE L
ĠconsidÃ©ra bles
Ġet ait
ĠMar guerite
ĠD ist
Ġattra ction
ĠÃ©t roit
f li
ĠB ran
ĠCh irac
Ġsignal Ã©
Ġterras ses
Ġc ure
ou a
Ġar Ã´mes
Ġcomp lot
Ġmort alitÃ©
Ġhyp oc
Ġexpl oser
M er
ou illes
Ġpropor tions
pr ud
ĠB F
ĠIN T
Ġatten tif
Ġrequ Ã©rant
ĠBM W
A vec
ĠÃ©chantill ons
ĠMad agascar
Ġlib y
ĠÃ©qu iv
Ġso cle
Ġac adÃ©mique
Ġchat te
ĠIn v
Ġmeu b
Ġcro iser
Ġar ros
ĠE u
Ġfem elle
Ġren once
Ġang les
Ġurb aines
ĠHit ler
ĠÃ© phÃ©m
ĠÃ©man cip
int he
ĠsÃ©n Ã©gal
Ġfabri quÃ©s
p Ã©e
ĠAu teur
ĠrÃ©b ellion
ĠNap les
Ġsign aux
ĠC d
min g
Ġt el
ĠDire ct
li ons
ĠPuis que
Ġan arch
Ġemmen er
Ġfront al
Ġpoliti ciens
Ġcompar ateur
Ġcollection nent
ĠFer r
ĠB il
dic ation
ENT S
le in
Ġc ort
Ġcap teur
ĠG MT
AN TS
D ES
Ġrestri ctions
til l
Ġrecord s
5 6
qu Ãªte
Ġmagist rat
d Ã©es
l ux
Ġrenfor cÃ©e
ĠnÃ©g atifs
d og
Ġfig urant
ĠDiv ision
out ch
Ġcit ad
Ġprofes sions
ĠintÃ©g rÃ©s
Ġsoci ologie
er ne
Ġprof itent
ĠconsÃ©cu tive
Ġs omm
Ġsyn onyme
ĠrÃ© veiller
Ġb ottes
semb les
ĠG reg
l ois
Ġl ignÃ©e
ĠCata wiki
Ġpour rons
ĠG uer
Ġdys fonction
Ġarist ocra
Ġbag ages
ĠdÃ©tec ter
IC ES
jec tifs
Ġnoctur ne
ĠÃ©c ris
ce mbre
ĠGrand s
ĠprÃª tÃ©
Ġsensibil iser
Ġh ong
ĠGu inÃ©e
Ġind Ã©ni
Ġall um
te ch
ta tive
Ġfile ts
Ġf rai
Ġimmig rÃ©s
Ã©m on
ĠextrÃ© m
are l
mor ph
Ġaccessi bilitÃ©
ĠIs land
Ġarchite ctes
ĠdÃ©mocra tes
C D
Ġadolesc ence
ĠV oyage
ĠreÃ§ ue
Ġbo Ã®
ĠCh al
Ġautoris Ã©e
Ġcos t
c our
ĠM ort
Ġra j
og Ã¨nes
ĠrÃ©glement aire
Ġinspec teur
ĠEmp ereur
Ġjur is
Ġs ienne
Ġrobo ts
ĠF RA
Ã Ĥ
ĠTh er
Ġv ire
Ġcol loque
Ġpous sent
Ġd ise
ĠthÃ©rapeu tique
ĠdÃ©c rÃ©
Ġsu pers
ĠCa en
Ġconj oin
Ġassemb lage
Ġac adÃ©
ch ante
ke d
ĠMo di
Ġfin ancÃ©
ĠfrÃ©quent ation
Ġn ue
Ġaur ions
Ġcomment e
Ġp ond
ĠcinÃ©mat ographique
Ġru de
Ġvol ati
Ġju pe
tionn Ã©s
ĠCol le
Ġob ses
OS I
Ġscol aritÃ©
Ġecc lÃ©si
ĠFr Ã¨res
ĠdÃ© vi
ĠamÃ©nage ments
ch is
ĠspÃ©ci alisÃ©es
Ġconte x
Ġrecommand ons
Ãª ve
ĠÃ©tern el
ĠCh rome
5 8
ĠM oins
Ġt ang
Ġfonctionn alitÃ©
Åĵ ux
Ġentend ent
ĠCh ab
ĠNouv el
Ġv il
Ġgen er
Ġb et
Ġm Ã¨nent
Ġsus pects
Ġan Ã©
si me
ĠCl as
Ġinac cep
Ġdiver tissement
ap er
Ġch rom
ĠOC DE
ĠA ide
5 2
et z
w ich
Ġrend ait
ĠsuÃ©d ois
c os
Ġportug ais
Ġvi rage
ĠAl ber
ĠV ent
Ġred ressement
Ġinsu pp
Ġcollec tives
Ġfra ction
Ġob tenue
ĠÃ©lector ales
ro w
ĠcÃ© dÃ©
B aptiste
Ġn Åĵud
Ġpos ture
ul aritÃ©
Ġhabitu Ã©s
Ġpe ople
Ġ194 6
e mp
uri eux
ĠB ata
n els
Ġcaf Ã©s
ĠÃ©lo ignÃ©
ĠENTRE PR
Ã©li x
Ġd resser
Ã©tÃ© o
Ġun is
ox y
Ġrepos ant
Ġplas tiques
Ġabond ance
ou in
ĠT ype
Ġcab ine
quis ition
po ol
Ġins pection
ĠRh in
Ġimp rob
Ġbomb es
ĠInform ation
Ġentam Ã©
Ġat yp
Ġin ta
ĠsÃ©cur itaire
ĠI B
Ġan om
ĠdÃ©lic atement
si Ã¨res
ĠSh erbro
ĠAz ur
Ġvaloris er
ĠAr gent
ĠD akar
ĠG our
Ġsal uer
ĠBo e
al th
Ġpos Ã©es
ĠFORM ATION
ol age
ĠMA IS
la ve
Ġre vis
Ġveu illez
Ġ ]
Ġloc ataires
Ġfon du
Ġsoir s
ĠH ow
c ass
Ġcomment er
Ġenf lam
Ġtrans vers
ĠrÃ©sid ences
Ġf ure
Com ment
b ons
Ġinvent er
ĠV el
Ġenvironnement ales
Ġbal ades
Ġmanuf act
Ġco hab
ĠS ir
Ġass oup
Ġall Ã©s
ĠN euf
Ġappel ant
l ain
A jouter
pir ant
ĠrÃ©cla ment
ĠcomÃ© dien
Ġrad ars
ĠS olid
EN TI
Ġc Åĵurs
alis ent
ĠCN RS
ĠJ U
Ġri ver
Ġj ihad
Ġrepous ser
M on
Ġtrajec toire
ĠH auts
Ã ĩ
Ġsupp oser
ĠChar te
ĠreÃ§ ut
Ġperform ant
G er
Ġop ter
Ġrur ale
ĠprÃ©v ient
Ġfl ore
ĠV illa
Ġv ienne
E UR
Ġprati cien
Ġti t
ĠM ission
Ġindic ateur
eu il
Ġleaders hip
ĠgÃ©noci de
Ġeffac er
Ġviv ons
Ġtur que
Ġarri va
di ff
Ġau ber
ER N
ux ell
Ġpays an
ĠMÃ© di
Ġjus tesse
ĠrÃ© uti
tis h
pe urs
ĠAb ra
Ġabord s
ĠEm ma
ĠindÃ© si
u ils
Ġl ie
ĠÃ©lectr om
Ġtranspar ent
ĠT P
B on
Ġrenv oyer
Ġform ant
Ġfr ustra
Ġsur sis
Ġcomp as
ĠmanÅĵu vre
ĠB ras
onne c
ĠLe w
ĠEx per
Ġinterrog ations
Ġpo Ã¨tes
Ġpoursu ivent
Ġtourn ent
Ġven deurs
Ġconsac rÃ©s
Ġr us
ĠbÃ¢ tis
Ġfourn ie
ĠH yd
Ġ [
ĠRom an
ĠS pr
ĠP il
ĠdÃ©rou ler
Ġ194 2
Ġpromen er
ĠprÃ©c autions
Ġclim atisation
5 7
Ġimpressionn ante
Ġpira tes
ĠLN H
Ġm angÃ©
Ġfrag il
ĠOs car
Ġtourn ois
Ġsta ff
Ġqualif ie
Ġtar te
ĠR ess
Ġpra g
ĠR H
all ation
Ġdi ale
ĠcÃ©lÃ©b ration
Ġfant aisie
Ġ194 7
Ġdomin ant
ĠF ourn
si bles
ili Ã¨res
Ġcouv ent
ĠCh ron
ĠÃ©c ologiques
Ġdiff Ã©remment
ĠM agn
ĠSyl vie
ĠUR SS
Ġrest a
Ġnavig uer
ĠFRAN CE
ĠrÃ© ins
ĠA vez
Ġin cidence
Ġlicenci ement
ĠK az
ĠCor p
ĠimpÃ©ra tif
Ġcont ester
Ġcal mer
V M
Ġinond ations
b in
Ġinconn us
Qu Ã©bec
Ġemp ois
ĠA mi
Ġengag ent
Ġgard ant
Ġcas ting
Ġexp i
Ġva ches
ĠP uy
iss antes
Ġatten dez
Ġgr ise
oule ur
cu its
Ġoct roy
Ġsh opping
oris Ã©
ĠCommun ication
Ġexpos Ã©es
Ġislam iste
Ġpar aissait
Ġt aire
our i
Ġconv oi
Ġper cep
ĠUtil isez
il og
Ġcom itÃ©s
Ġspec tre
ĠÃ©merg ents
ĠB aud
ĠdÃ©p utÃ©e
ĠÃ©c lip
Ġvol Ã©
Ġest omac
ier a
Ġmusic aux
Ġmanif estement
Ġdis su
ĠM erce
Ġpl ut
Ġcon ducteurs
ĠcomÃ© diens
Ġbulle tins
ĠdÃ© tresse
ĠrÃ©alis me
urs us
e lez
ĠOb jectif
Ġenvoy Ã©e
in c
ive au
Ġpres tigie
ĠJu ppÃ©
Ġhospital ier
vis ibles
Ġmen us
ĠhÃ©s itÃ©
Ġmal h
ĠJ our
vi Ã¨me
Ġbl ack
Ġpl Ã©n
Ġper p
Ġsurmont er
al ler
ĠL IV
Ġj olis
ĠchÃª ne
ĠL uis
c lÃ©
Ġrefroid issement
Ġryth mes
ĠrÃ© sig
Ġsal u
m l
Ã© th
Ġf ui
ĠW at
ĠVirgin ie
ĠO ut
Ġf res
Ġall ocation
Ġdi alogues
ĠconsidÃ© rÃ©es
Ġfil iÃ¨res
9 7
ĠdÃ©liv rer
A V
ĠcrÃ© Ã©es
Ġass ume
Ġcanadi ennes
Ġv Åĵux
Ġsculp tures
b ag
onn aise
Ġre mÃ©di
Ġinf lam
Ġplain dre
ĠLouv re
Ġob ti
Ġdou zaine
Ġten eur
ĠmolÃ©cu les
Ġsi on
Ġasi atique
Ġte am
Ġenv ol
ĠsÃ©lection neur
ĠBra vo
Ġin g
Ġre charge
Ġromp re
Ġremis es
Ġinterval le
ĠdÃ©s ordre
Ġval u
Ġgri ppe
Ġpati n
ĠÃ©v asion
ur b
ĠcrÃ©di ble
ur Ã©es
ĠappÃ© tit
e usement
Ġcuis iner
Ġcomp are
ĠrÃ©dac teur
Ġbou cher
tra ges
Ġta mp
Ġneu ve
Ġpar ap
or ient
ĠdÃ©fin ies
ograph ies
ili ppe
Ġconf ondu
Ã ¦
Ġv ierge
ĠÃī t
ĠprÃ©cis ions
ĠÃ©pic erie
Ġmultipli ent
ĠS outh
Ġrep Ã¨res
Ġfond er
ĠnÃ©glige able
Ġmic ros
Ġa Ã©ronau
Ġautoris er
oss ais
ĠC iv
qu ons
Ġcotis ation
ĠAut om
Ġdistribu teur
des c
Ġfac tures
ĠrÃ©sul tant
ĠpÃ©n insule
ĠIS O
m aire
Ġdev ise
ĠgÃª ne
Ġvitam ine
ĠPersonn ellement
ĠÃ©g oÃ¯
ĠingÃ©n ierie
oi es
ĠÃ©nergÃ© tiques
Ġpens ant
ĠGEN ER
Ġanti b
ĠdÃ©pend ent
ĠM ira
ĠP ent
ĠNic k
M erci
Ġarra cher
ĠChel sea
Ġbe en
Ġrestru cturation
Ġpros titu
ĠRy an
Ġappropri Ã©
ĠCol mar
ĠsÃ»r s
Ġmodi fiÃ©e
Ġbapt Ãªme
Ġdiscip les
rat oires
Ġpa ir
ĠprÃ© jug
Ġcas sÃ©
Ġtra itant
d ad
ĠA x
ĠS G
ĠcomplÃ¨ tes
Ġimpossi bilitÃ©
Ġf oncÃ©
Ġs tig
ĠprÃ© cieuse
Ġfourn issent
Ġdev rais
Ġsu isses
Ġs pi
5 3
Ġgas p
Ġas ser
Ġref let
oure usement
ann age
Ġescal ade
Ġdesqu els
Ġconjonc ture
ĠrÃ© cession
ĠF id
ĠinterprÃ© tÃ©
Ġg oth
Z Ã©lande
cal aurÃ©
ĠlÃ©g Ã¨res
ĠL ois
h op
we en
Ġdisc rÃ¨te
ĠD IRE
enti alitÃ©
Ġhau teurs
A m
ĠD ommage
ĠprospÃ© ritÃ©
Ġta ches
c ore
ĠCuis ine
ĠStu dio
ol Ã¨ne
ch an
ĠH un
Ġju gÃ©s
ĠinÃ©v itable
k ina
Ġpers o
qu atre
Ġache vÃ©
ari um
Ġconnaiss ons
ĠM itter
Ġb ug
entis te
Ġvoyage ur
Ġav ois
in ets
Ġfix es
Ġcri er
Ġgram mes
Ġmanifest Ã©
ĠrÃ©fÃ©rence ment
ĠmÃ©ta ph
Ġgro tte
Ġpy ra
Ġg ly
Ġconn aisse
Ġbar on
Ġb erce
ĠEX P
5 4
ĠlÃ©gÃ¨re tÃ©
ou Ã©e
ĠL ocation
F L
Ġn dlr
Ġconfr Ã¨res
ĠPrÃ© f
Ġabat tu
Ġatta cher
Ġchampion ne
ĠCh au
ĠS ais
ra f
Ġmor ales
Ġfi ables
ĠH Ã©b
Ġcomp orter
Ġcomp lets
ou Ã©s
Ġval iditÃ©
Ġquoti diennes
ĠDes ign
ĠDi pl
ĠI T
ĠrÃ©volu tionnaires
Ġinter ruption
Ġb Ã©m
c ation
ĠÃĬ tre
Ġneu fs
ĠPic ard
Ġimpli quant
Ġenregistre ments
ĠÃ©criv ait
ĠC OP
ĠK it
Ġconsul tez
Ġo ignon
ĠAlf red
Ġsol licitÃ©
ĠÃ©valu ations
IS SE
ĠrÃ©un ies
ĠS H
ro ce
ĠP omp
Ġser ment
actÃ© ris
ĠAv ignon
Ġtravaille ur
Ġadministra teurs
Ġexp ulsion
Ġindem nisation
ĠB asse
ĠNic ole
Ġadop te
ĠprÃ©dÃ© cesseur
re l
Ġsinc Ã¨re
tr ent
n ais
Ġmiss iles
ĠprÃ©f Ã©rences
Ġidentif iÃ©s
Ġprog resse
Ġconvers ations
Ġbr ise
os ter
ĠÃ©par gn
ĠfÃ©c ond
Ġmac ro
Ġjuris prud
Ġillus trer
Ġbor dure
ĠC is
Ã©r ons
Ġ17 0
ĠV anc
ĠRD C
Ġp iliers
Ġferme ment
Ġtch Ã¨que
ĠB O
o ok
Ġinfra ctions
ĠJapon ais
Ġdeven ues
ĠcrÃ¢ ne
Ġdjihad istes
Ġi con
Ġdiab Ã¨te
ĠcaractÃ©ris Ã©e
ĠÂ §
Ġconver tir
y right
mine ment
ĠdÃ©c ern
f em
Ġpublic itÃ©s
et ti
Ġfrag iles
ĠC av
Ġfas sent
Ã©ra it
Ġsilen cieux
ĠS cience
ĠS ui
Ġplate aux
Ġmar quÃ©s
ath ie
is ants
iv itÃ©
Ġcommet tre
Ġ2 20
Ġmer veilles
ĠBrit anniques
ĠprÃ©f Ã©rÃ©e
Ġgra du
ĠO K
si a
Ġvoul ut
Ġmig ration
Ġhame au
ĠdÃ©m a
ĠMe illeur
min a
ĠS ang
ĠSherbro oke
ĠdÃ©ri vÃ©s
Ġpalestin ien
Ġl ol
Ġaccep table
Ġd us
ĠF eu
Ġmen Ã©s
illi ers
ĠmystÃ©ri euse
Ġenvir onn
Ġattend aient
Ġmer de
ĠamÃ©n agÃ©
Ġinterlocu teur
Ġplan if
Ġcy cles
Ġath lÃ¨te
Ġ ombres
Ġ194 3
es e
ĠÃ©l ites
Ġorgue il
Ġimpecc able
ĠI ss
ĠAug uste
Ġent rai
I ES
Ġcomp ortant
ĠH ass
Ġex cur
Ġprodu ites
tÃ© gra
ĠdÃ©ploy er
Ġdist ribuer
ĠPl utÃ´t
ĠJourn Ã©e
Ġcla use
Ġlob by
ĠdÃ©sig nation
ix els
Ġtrib us
ĠV TT
b ois
Ġre tenus
ĠAut o
Ġconnaiss ais
Ġt amb
ĠrÃ©solu ment
ĠVI H
Ġsoph isti
ĠPR Ãī
Ġcor rÃ©
ĠprÃ© lÃ¨vement
ĠgÃ©n Ã¨re
Ġcou ler
ĠB omb
Ġdev riez
onc Ã©s
Ġinsuffis ance
Ġil lic
ra teurs
Ġ193 6
ĠTh ib
Ġac tionnaire
Ġsympath ie
Ġn atale
Ġconc itoyens
Ã £
ĠrÃ© t
AT S
ĠdÃ©f il
Ġmal Ã©
p ation
Ġven ger
Ġaccomp lis
ĠlÃ©g endaire
Ġbor nes
8 6
Ġses sions
Ġsau te
t ance
ĠRe f
Ġemp i
ĠdÃ©b orde
mi es
Ġmentionn Ã©s
ĠSyl vain
Ġd auph
Ġentam er
t oir
ul ations
Ġminist Ã¨res
at u
Ġconvivi alitÃ©
Ġchinois es
Ġaffron tement
Ġl ion
ĠD ic
ĠP ris
Ġp esti
ĠAv ril
ĠNiger ia
ĠD eu
Ġinv ol
Ġ osÃ©
Ġg a
Ġvina igre
Ġconf Ã¨re
Ã¨ des
ĠdÃ©liv rance
Ġdistribu teurs
in itÃ©
lo ge
ĠdÃ©termin ant
Se ine
S M
ni Ã¨res
Ġfran ce
ĠdÃ©b lo
ta teur
Ġentre tient
Ġtravaill ait
ĠdÃ©veloppe ments
ON D
ron es
ass o
Ġser vait
Ġthe ir
ĠrÃ© veill
Ġbat tus
ĠBer g
Ġex al
ĠdÃ©cent ra
Ġbou illon
Ġcigare tte
Ġsouff rant
Ġanticip er
ik h
ĠSy ste
Ġcontinuer a
Ġcommen Ã§ait
Ġan orm
Ġpo ing
Ġfix Ã©es
Ġacc omm
ĠR ib
Ġjou era
Ġ195 4
ĠH on
ĠprÃ©jug Ã©s
OL OG
ĠA re
ĠRÃ©public ains
Ġcyc liste
Ġb agu
calaurÃ© at
Ġcoup ables
Ġsyn chron
ĠÃ©p oques
Ġgri mper
Ġ oser
Ġmor tes
Ġs omp
ic itÃ©
Ġhandicap Ã©es
Ġad mission
9 1
as ie
Ġatta chÃ©s
ĠMerce des
9 6
R iv
Ġtrans c
ĠJ oy
5 1
Ġimpli quer
ĠTour isme
Ġpropos era
ĠPort o
ĠEx pl
Ġdur ables
Ġcriti quer
ĠM ulti
ĠB ulg
Ġtr onc
Ġsou mission
Ġn aiss
ver ne
Ġt am
ique ment
ĠCar l
ta pe
f ox
Ġor ale
Ġop tÃ©
Ġvend ue
Ġlis ant
Ġatt est
ĠdÃ©rou lera
Ġcomp teur
h u
Ġrecommand Ã©e
ĠK an
Ġregroupe ment
Ġmour ut
Ġmar quant
Ġfig urer
Ġtra me
ĠSu pÃ©ri
Ġmont res
ĠÃ©v angÃ©
A d
Ã¨ nera
Ġgra isse
Ġarchev Ãªque
Ġver rou
ner gie
Ġassur Ã©ment
Ġ195 7
Ġdeme urant
Ġ19 00
ĠASS UR
Ġm ien
Ġassain issement
ut o
Ġw c
anti ne
ĠIv an
V al
Ġach Ã¨ve
ĠdÃ©c ont
dÃ© jeuner
Ġcol lis
ĠdÃ©m ographique
ĠdÃ©roul Ã©e
Ġru meur
dÃ© pend
ĠarrÃª tÃ©e
ĠLe b
ĠSer bie
Ġmari ages
Ġchan teurs
ĠdÃ©mar re
ĠS eb
ĠvÃ©gÃ©t aux
ĠmÃ©r itent
ore rie
ĠPossi bilitÃ©
ĠhÃ©licop tÃ¨re
Ġcop ies
Ġnomm Ã©s
Ġli aisons
g ir
ĠlÃ©g endes
ĠLa w
Ġstim uler
Ġcompos ant
ĠTrans f
ĠB rand
ĠflÃ¨ che
ils on
Ġrempla Ã§ant
Ġann ulÃ©
ou m
Ġenvironnement aux
ĠRest aur
Ġcommod itÃ©s
Ġdange reuses
ĠU s
ĠR is
Ġple ines
Q ue
ĠF IF
Ġcrois iÃ¨re
Ġsignific atif
Ġindemn itÃ©s
Ġpeint res
ol ation
ĠÃ©gyp tien
Ġpertin ent
Ġen sembles
Ġrattra per
ig an
Ġd in
Ġsuppri mÃ©
Ġsal ope
Ġouv riÃ¨re
Ġre viendra
ĠlÃ©gisl atif
dom in
ĠW E
Ġconven u
pec tive
Ġinnoc ence
Ġfer ons
P U
ĠB OU
Ġpasse port
Ġcompta bil
ne ts
ĠPhot os
ĠBN P
D IT
ende ur
ĠTh i
Ġcandidat ures
Ġcoulis ses
g ation
Ġh Ã¢
Ġdescend ants
ve ttes
Ġloc alitÃ©s
IC H
Ġposi tives
ĠrÃ©s iste
Ġlogique ment
Ġremp lit
ung le
ĠAppar tement
Ġl enti
Ġfil tres
Ġanaly ste
ĠM Ãī
ad ie
ĠimpÃ©ri ale
Ġin cess
et ta
Ġcar tons
c ale
IG N
Ġpour vu
ĠVanc ouver
Ġpit tor
9 4
Ġsi rop
ĠinquiÃ© ter
Ġoccup Ã©s
d itÃ©s
ĠC ES
ĠF onction
ĠF ox
Ġtransform ations
ĠE au
ĠU p
Ġhab its
Ġinv al
ver a
Ġsupermar chÃ©
Ġtraditionn ellement
Ġc ursus
ĠMar ion
Ġtransf Ã©rÃ©
Ġincomp ati
Ġgar n
ĠG usta
Ġexige ant
form ation
Ġt atou
ĠprÃ© lÃ¨vements
d ote
Ġemm Ã¨ne
Ġdess ine
Ġassemb lÃ©es
Ġaccro cher
Ġcont rer
ĠÃ©car ter
Ġto iles
Ġvari ation
ĠÅĵu v
c lÃ©s
nÃ© sie
h ard
ĠEd ward
ĠbrÃ» ler
Ġf osse
ĠS um
IG NE
ĠProfes seur
ĠBra d
ĠAn s
Ġappar ait
Ġextra ction
Ġagrand ir
ar ienne
ĠThaÃ¯ lande
Ġme mb
Ġsyn drome
ĠG olfe
ĠdÃ©p lor
Ġn id
ĠK re
Ġhab iller
ĠcoÃ» ter
en u
Ġdis si
Ġnu ire
Ġsa vant
ĠY ah
ing t
ĠJ Ã©rÃ©
Ġt endu
ĠAss urance
ĠP ress
itu des
Ġexcep tionnelles
Ġt ante
v ais
Ġhabitu Ã©
ĠSÃ©g olÃ¨ne
RE T
g Ã¨res
Ã©r in
ĠP ed
ĠTay lor
d uira
Ġvis Ã©e
Ġenn ui
V o
att le
ta lement
ĠParticip er
om ination
ĠS oul
ĠA gn
ĠK enne
ĠM our
ĠS at
ĠS mart
ĠMar g
Ġbi ographie
oc y
ĠW ars
ass in
ĠGo od
ĠB Ã©nÃ©
ou k
Ġm Ã©s
Ġpe indre
Ġviole mment
os c
ge ur
ĠSA INT
Ġregret ter
f eld
Ġapport ant
as tiques
Ġbri Ã¨vement
Ġenregist rÃ©es
Ġbi ologie
Ġhy m
Ġbal ay
ĠrÃ©di ger
Ġrespec tifs
Ġinscri vant
Ġin sig
Ġaux ili
Ġobligatoire ment
Ġdro gues
Ġp ig
d al
Ġache ver
Ġ194 1
Ġinter dits
Ġanony mat
mb a
tu be
Ġoffer tes
Ġesc ad
ĠO x
ĠE L
Ġannon Ã§ant
Ġ195 5
ĠCli ent
Ġhom ologue
Ġcomprom et
Ġdoub ler
Ġoccup ant
Ġse igneurs
Ġrepr en
ĠdÃ©l its
id ent
ĠcoÃ»te ux
ĠG are
Ġpou les
comm erce
Ġver d
Ġcompati bles
ĠM Ã¨re
Ġper f
Ġcour bes
Ġpatri mon
Ġsu re
ĠMoham med
Ġba ies
Ġag i
ĠL R
ĠastÃ©roÃ¯ des
ĠCol lection
ĠTrans ports
et y
m os
Ġentra ine
Ġrob uste
Ġseni ors
ĠalgÃ©ri en
v il
Ġm aud
Ġplu mes
Ġesti mer
Ġcompatri otes
Ġvuln Ã©rables
Ġparam Ã©
ĠExe mple
Ġaugment ent
Ġrep asser
Ġprononc Ã©e
Ġint enses
ĠÃ©te int
Ġind is
Ġch aine
D D
ĠJ ar
ĠrÃ©g lage
ĠintÃ©gra le
ĠFranc fort
Ġconfond re
Ġc ors
ĠLaur ence
Ġarbit rage
ĠentraÃ® nant
8 4
ĠCrÃ© er
ĠW W
Ġreven dique
ĠBien venue
Ġritu el
iter ie
Ġgouvernement ales
Ġprati quÃ©
Ġflex ibilitÃ©
ĠmÃ©thod ologie
ĠM ack
ĠR ad
Ġau g
Ġte in
Ġexpri ment
Ġparcour u
Ġaud ace
ĠÃ§ Ãł
Ġpres tige
Ġproph Ã¨te
Ġdocument aires
Ġpermet tons
Ġsur nom
ist ante
Ġhabitu elle
Ġcar di
lac er
Su pp
ĠdÃ©roul ent
Ġbr Ã¨ve
ĠD ata
ti co
Ġor age
ĠT ah
ĠgÃ©nÃ©ra liste
Ġrestre int
Y S
Ġbar riÃ¨res
Ġremont Ã©e
ĠrÃ©ci di
ĠPre mi
Ġchar itÃ©
Ġhum ides
ĠÃ©b ran
Ġconnec tÃ©s
Ġrend it
7 1
l ers
ĠC ord
ĠZ o
av ane
Ġca chÃ©e
Ġsurviv ants
ĠZ oo
ĠA TT
ici el
Ġcitoyenne tÃ©
Ġpos tÃ©
ĠCÃ© cile
ĠCF A
ĠÅĵu f
ab a
Ġregarde z
Ġsa chez
Ġrepr enant
pro ch
ĠIn don
ĠdÃ©clen cher
ĠN oire
ĠMitter rand
Ġabs tention
ER G
Ġchaud s
Ġn ier
ĠÃ© tin
Ġchamp agne
Ġbata illes
Ġlev ure
Ġproc Ã¨de
ĠB io
orie use
ĠreprÃ©sent ait
ĠChamb res
Ġsou met
Ġinc ul
ĠLond on
ph onie
Ġapp rÃª
ĠinsÃ© curitÃ©
ĠnÃ©cess itent
Ġmon archie
Ġdipl Ã´mes
che min
ĠrÃ©tab lissement
Ġpr Ã´
ra ction
Ġhoriz ons
Ġvois ines
Ġvit rine
Ġbl ind
Ġrecyc lage
Ġbl ues
ĠdÃ©couv rent
ĠV ert
Ġl oyers
Ġd ort
Ã© val
Ġdynas tie
ĠB oud
ĠR w
ĠV allÃ©e
Ġmin Ã©raux
Ġsurp lus
Ġaccum ulation
ĠbrÃ©sil ien
G C
fic tion
Ġvers ant
ĠdÃ©liv rÃ©
Ġconqu Ã©rir
ĠdÃ© charge
Ġd orÃ©
Ġsur venue
az ine
Ġcompli quÃ©e
ĠD avis
TI S
ar istes
ĠT A
Ġservi ettes
Ġbre ak
Ġpres cription
ĠB B
ĠDom aine
Ġpi Ã©g
ĠguÃ©r ison
b oy
Ġg ants
Ġong let
Ġd ignes
ie usement
Ġhi pp
8 1
Ġtomb Ã©s
ocal yp
Ġprob abilitÃ©
f re
ĠÃ©volu ent
Ġmar Ã©e
Ġphotograph es
Ġinter dis
p ier
Ġra ces
ĠrÃ©p erc
ES CO
le d
Ġiran ien
ĠD ion
Ġconc rÃ¨te
Ġri ves
ĠintÃ©g rant
Ġsymp h
ĠÃ©tonn ante
G e
K E
ĠFac ul
ĠF all
ĠdÃ©c line
Ġmassi vement
Ġentre tenu
RI P
Ġminor itÃ©s
ag h
Ġtent ation
Ġdeven ait
Ġen dÃ©
ĠÃī p
ĠpossÃ©d ait
Ġmar ie
Ġaver tissement
Ġcr Ã¨ches
ĠOr ch
Ġb Ã»
Ġmobil isÃ©s
Ġsour c
Ġhor rible
si le
er i
Ġso bre
Ġca outch
ĠC rÃ©e
TE MENT
ĠM ous
ĠG ib
ette z
ĠÃ©v itant
Ġe le
pha Ã«l
ĠRÃ©sul tats
ob s
Ġculp abilitÃ©
Ġentour ent
Ġpar ach
Ġfinanci Ã¨rement
Ġintern aute
u tation
Ġdiv erg
Ġcorrec te
en cy
AN C
ĠG on
cid itÃ©
Ġrep ouss
Ġmor ph
ĠVenez uela
Ġcou reur
ĠFerr ari
Ġfont aine
ĠAra bes
Ġretrouver a
ĠdÃ©ci da
ĠÃ©tabli es
ĠH Ã©ra
RA M
Ġindiff Ã©rence
ĠAmer ica
Ġdirec tives
ĠW ill
Ġval ent
Ġcol ons
Ġent rant
ra di
Ġpa irs
u che
ĠComm issaire
Ġappuy Ã©
Ġprud ent
ĠAlex ander
Ġath lÃ©
ĠthÃ© ologie
ĠP sy
ĠrÃ©g lÃ©
iss ants
ĠH ond
Ġtal ons
ĠdÃ©di Ã©s
ĠÃ© lig
aÃ¯ d
ss is
Ġtransf Ã©rer
yclo pÃ©
ĠMe xic
Ġin eff
Ġcar ros
Ġdies el
ĠMar chÃ©
ot ypes
Ġb oss
c tique
od ge
Ġp Ã´les
Ġimp ortations
Ġst rict
Ġrec uler
Ġradio ac
Ġpersu adÃ©
ĠinfÃ©ri eurs
ĠCOMMENT AIRE
ah n
ĠWall onie
ĠchorÃ©g raph
Ġcondam ner
Ġsim ulation
ĠCons erv
I e
Ġtourn Ã©es
Ġlaiss Ã©e
Ġtab ou
Ġdis til
ĠdÃ©s h
SS IER
Ġti mide
ir d
Ġsucc Ã¨de
ĠTra itÃ©
F er
ĠÃī ditions
Ġver se
en heim
Ġenvis agÃ©
Ġmet tons
ĠCl oud
Ġhos tile
ĠrÃ© veille
d f
ĠB ord
Ġaffich ent
g io
Ġgroupe ment
Ġan xi
ap s
ĠAC C
ĠrÃ© sident
ches se
ĠVal entin
ĠcrÃ© anciers
tue uses
ĠAch eter
Ġnum Ã©r
Ġsau mon
Ġpo te
Ġsa oudite
Ġchar gement
Ġboulanger ie
9 3
Ġref lÃ©
Ġen gra
Ġla ss
7 4
ĠmÃ©tal liques
ĠM att
Ġtermin al
Ġsur cro
Ġconcern Ã©e
ĠbÃ©m ol
ha fi
ĠT ol
ĠEspagn ol
Ġimpos Ã©es
Ġconfid entialitÃ©
Ġpo ign
Ġsub ord
a prÃ¨s
Ġemploy Ã©e
Ġreconstru ire
Ġcon duisent
Ġreb elle
ĠAgric ulture
Ã´ te
ĠSal v
ĠC AC
iv elÃ©
Ġir landais
ĠFoot ball
ĠBur kina
Ġag ira
ĠS ie
ĠJ er
Ġcer cles
Ġcal if
ĠTG V
ĠdÃ©rou lÃ©
uy ez
ĠJ anvier
Ġense ignes
ĠAh med
Ġexcep tions
Ġto xic
Ã© ens
Ġapp ortÃ©es
Ġclas sification
Ġexcessi ve
7 6
ĠdÃ©fin is
ĠB ak
oph y
k es
ĠG and
Ġcom ique
ĠL ight
rit es
Ġdiss olution
Ġentrai de
Ger main
Ġpar lons
Ġracc ord
Ġhybri de
ser ies
Ġiniti ation
eu m
li enne
qu ence
t ens
ĠmodÃ© rÃ©
Ġsubst anti
ĠLet tres
g ons
Ġnau f
Ġn us
od or
Ġaccro che
ĠGES TION
ĠMade leine
Ġave u
ĠamÃ©li orÃ©
ĠVi dÃ©o
Ġmang a
ĠdÃ©f unt
n ique
Ġuti l
mb our
Ġcompli ce
Ġdeme urer
Ġsub jec
ĠaÃ©ro ports
Ġd ir
Ġrur ales
ĠillÃ©g ale
ĠPer p
Ġdu t
ĠTo pr
au teur
Ġliv rÃ©s
Ġexer cÃ©
ĠTopr ural
Ġannonc ent
Ġper cevoir
ĠIn see
A way
Ġrespi ration
Ã¯ se
l ui
Ġrepro cher
ob a
Ġorganis ent
Ġr hÃ©
ĠM aÃ®
Ġsurcro Ã®t
ĠcollÃ¨ ges
Ġt ons
ĠrÃ©pÃ© tÃ©
Ġempris onnement
ĠMul house
Ġsignif ier
ĠÃ©pous er
Ġsub issent
om er
Ġplais ant
Ġf oire
Ġesp ionn
er gie
Ġasc enseur
Ġru ine
Ġf iers
Ġrenvers er
Ġ195 3
ni a
Ġcoiff ure
Ġm ignon
Ġen lÃ¨ve
ĠscÃ©n ariste
an ime
Ġincap ables
ĠZ i
Ġca ill
ĠVos ges
Ã© rez
ĠSoud an
Ã© mi
ĠthÃ©or iques
ĠNouv elles
Ġsoul ager
Ġgastr onomie
Ġpass ager
we et
ĠprÃ©cip itations
ĠMi ami
Ġaccep tent
Ġ194 9
U B
ĠTru deau
ĠPROF ES
aw a
Al ors
ĠX III
Ġescla ve
Ġcher chait
Ġpince au
Ġcit ation
ard er
C C
Ġtransform Ã©e
ĠastÃ©roÃ¯ de
Ġb ourses
Ġfou illes
ĠV Ã©n
ĠirrÃ© proch
Ġmatern itÃ©
vis tes
Ġemp rise
ĠmÃ¢ les
Ġfavoris ant
Ġconc ret
Ġacc ru
Ġcop ine
Ph ilippe
ĠAndre w
Ġconces sions
Ġb riques
7 3
ĠGalax y
Ġstru ctur
ĠHome Away
ĠC AS
Ġinc ur
Ġrecomm encer
Ġmont rÃ©al
Ġur gent
ĠÅ Ĵ
ĠP ERS
Ġaim able
Ġk ur
Ġrefus ant
ne aux
ĠS Q
Ġsembl aient
ĠÃ©car ts
Ġver dure
Ġrou tine
ĠQu o
Ġre lier
ĠTOU T
Ġdra ps
Ġautomobil istes
Ġvign oble
ĠsÃ©par Ã©e
Ġsur vÃ©
ĠrÃ©glement aires
ĠÃ©pr ouve
Ġf ug
ĠB la
Ġorigin aires
Ġh ome
C es
Ġc uit
lin ge
ĠdÃ©ci dÃ©e
ĠsÃ© lections
ĠÃ©t onne
ĠrÃ© tic
ĠMar co
Ġbou cles
Ġpren ons
s se
ĠS Ã©rie
ER IE
isc ount
Ġchoc s
Ġhum ili
ĠPrin ces
Ġo tages
Ġgri ff
c ast
G US
ĠSch ool
Ġrach eter
Ġsuccessi ves
8 2
Ġoccident ales
d ites
Ġcop ier
Ġplong Ã©
Ġchauss ure
Ġdor Ã©navant
Ġir res
ĠpossÃ©d ant
ĠremÃ©di er
Ġfour chette
en cÃ©
ĠD roits
Ġg age
Ġmonop ole
Ġsympath iques
Ġobs c
ĠSch w
Ġnul s
Ã©rapeu te
Ġf lic
Ġsimpli fier
Ġpropre tÃ©
ĠintÃ©gra lement
v oy
ĠCor ps
Ġacous tique
Ġlaiss Ã©s
Ġan neau
els on
ing ues
DU CTION
Ġsais it
on aise
ĠmÃª lÃ©e
ĠF Ãªte
Ġcont este
ĠfÃ© licitÃ©
ĠpÃ©n ible
ire z
ĠC oun
erse y
Ġcla irs
UL T
Ġlaiss a
Ġaffec tÃ©s
TI E
Ġproje ctions
Ġla vage
Ġreconnaiss ant
Ġhum oris
et t
par able
Ġv om
r ines
ous ses
Ġd oses
ĠcÃ©rÃ©mon ies
ĠFland re
Ġcanc ers
Ġcro yant
d ers
in ge
Ġla st
ĠH avre
ON OM
MP L
os a
Ġin hum
ĠdÃ©but ants
Ġinnov antes
Ġrev u
ĠI X
Ġimp lic
Ġdiplom atiques
Ġte inte
Ġsur pl
Ġbru y
ĠPro t
ĠEd ouard
n ale
Ġm ienne
ĠDÃ©b ut
ĠS ig
Ġinaug uration
Ġjustif iÃ©
Ġb amb
Ġjus tes
Ġvi endront
Ġvain cu
enti eux
Ġvar ient
ĠBar t
Ġser pent
ĠJoh an
ĠConf Ã©dÃ©ration
ĠI CI
ĠspÃ©cific itÃ©s
ĠdÃ©cis ive
ĠY am
Ġver dict
Ġconjoin tement
Ġrent able
Ġextraord inaires
Ġtick et
Ġbord el
ĠRT L
ĠL ife
ĠT ime
ill ade
Ġjurisprud ence
Ġw ifi
ĠR AP
Ã» re
Ġloc alement
ĠdÃ©p is
ĠdÃ©c oul
ĠDes cription
ĠIb rah
Ġv s
Ġdi rai
Ġim min
ĠE tienne
ĠCamer on
Ġenti ers
ĠA ge
ĠTer rit
Ġh el
V I
Ġcre user
7 9
Ġforter esse
Ġvisu aliser
Ġextra ire
Ġgu Ã©rir
ĠC ul
Ġassass inÃ©
Ġh am
Ġcouv rant
Ġdemand ons
Ġtou chÃ©e
Ġregroup ant
t Ãªte
ĠconsidÃ©ra tions
ĠÃ©te indre
Ġconf ormes
Ġinterpel lÃ©
ĠOb tenez
Ġinj uste
ĠP it
ĠF au
l ong
Ġm ers
ĠF ren
Ġtrah ison
if s
Ġtue ur
n ations
20 15
enn y
Ġiv oi
Ġj ac
Ġdi ap
ĠsÃ©rie uses
ĠcÃ¢ bles
ĠÃ©quilib rÃ©e
ĠE mb
ĠAm iens
Ġpromen ades
TI VE
Ġslog an
Ġobs curitÃ©
ĠDiff icile
Ġthe y
ĠcontrÃ´ lÃ©e
Ġp anc
Ġfoss iles
Ġescal iers
ĠSi mp
Ġmod Ã©ration
ĠdÃ©lib Ã©rÃ©
Ġre man
Ġir rÃ©s
ĠP M
Ġcombin aisons
ĠChamp ionnats
ĠC ole
Ġrequ iert
Ġradic aux
Ġpron once
ĠF ro
Ġconviv ial
ĠLa us
ĠsÃ©par Ã©ment
ĠUN ESCO
Ġloin tain
Ġcrois Ã©
Ġiniti Ã©
Ġen lÃ¨vement
ĠAqu itaine
Ġpris ons
ĠWal ter
Ġoccup ait
hÃ© ran
ĠdÃ©b ris
Ġrec ulÃ©
ĠtÃ©lÃ©vis Ã©e
ĠdÃ©sacc ord
Ġ19 18
ĠFIF A
Ġprote cteur
ĠSing ap
ĠprÃ© sidÃ©
ĠR ense
Ġcort Ã¨ge
Ġautob us
ĠSu jets
ou ler
Ġro chers
ĠVol ks
Ġprof itant
Ġpesti cides
Ġcolon iale
ĠexcÃ©d ent
ĠN BA
Ġri de
Ġmar ais
Ġmo tion
ĠdÃ© truis
Ġbr in
Ġindi enne
Ġsemb lÃ©
ĠIn diens
ĠprÃ©c Ã¨de
Ġinstin ct
Ġcon gÃ©s
ĠAR TIC
Ġmanus crits
Ġatt ribue
Ġin jection
ĠgÃ©nÃ© reuse
ĠB oule
ĠJe une
id o
re usement
ĠÃ©quilib rÃ©
Ġtex tile
Ġeng lo
Ġmulti mÃ©dia
h at
Ġmotiv Ã©
ti gn
omm er
Ġapprofond ir
Ġrecouver t
ĠCor an
ck s
ĠC DI
Ġsui vez
ĠEug Ã¨ne
o xe
In vitÃ©
ĠV O
Ġbis cuits
Ġsplen dide
Ã« n
Ġrap atri
d ine
cip linaire
n ers
Ġpar ution
ĠdÃ©velopp Ã©es
Ġch ol
Ġguit ariste
ĠillÃ©g al
Ġinform Ã©s
Ġti ge
Ġdur ablement
Ġcour ageux
Ġnota ble
Ġrembour sements
Ġsynth Ã©tique
ĠXV IIe
ĠtÃ©lÃ© commun
Ġlo ge
Ġrespire r
ĠDO SSIER
Ġal sa
in al
b l
Ã º
Ġap res
Ġannon Ã§ait
Ġav Ã¨nement
ĠL en
c ot
le ttes
ĠF OR
ĠalÃ© atoire
ĠÃ©le veurs
ĠaÃ©ronau tique
ĠEntre prise
Ġaffir m
ĠB un
Ġpseu d
Ġdix iÃ¨me
ĠSta te
ĠH erm
eff ici
Ġprovo quant
P C
Ġpanor ama
ĠK ra
Ġfl ac
Ġb Åĵu
Ġressemb ler
Ġdiscu tÃ©
log ie
Ġgar nis
Ġva che
ophob ie
Ġfond ations
Ġlit re
k an
k ins
Ġespagn ols
h l
Ġbat tue
ĠtrÃ©s orerie
ĠbÃ©nÃ©fici aire
Ġsav on
it ra
ĠIndon Ã©sie
Ġan at
Ġta che
ĠComm une
ill ants
ĠMar ne
D u
ĠT in
Ġret ran
Ġad dition
orp tion
ĠÃ© du
An d
Ġindig Ã¨nes
ĠF ir
Ġmanipul er
ĠN ant
ĠS AL
Ã¯ d
Ġache min
Ġter ri
Ġhall uc
Ġgagn ent
Ġun i
Ġmens onges
ĠsupÃ©ri oritÃ©
ĠIn ves
ĠL ub
Ġo deurs
Ġorganis ateur
Ġbl ond
Ġa ille
Ġassure ur
Ġbass ins
ĠÃ©b ulli
ĠCar aÃ¯
Ġbourgeois ie
Ġdemand Ã©e
ĠindÃ©pendant es
ur rection
endre z
ĠÃ©cou tÃ©
D IC
ĠHub ert
ĠVal ence
Ġautonom es
Ġmerveille use
Ġcru cial
ĠCh ina
ass a
ĠG RAN
Ġatten tivement
ĠBoe ing
Ġchag rin
l antÃ©
ĠFor ces
ĠP el
Ġex tin
Ġchasse ur
p irent
Ġsa ti
Ġreven ue
ĠDie go
Ġdispar us
ĠCons tru
ĠrÃ©cupÃ© rÃ©
id is
Ġrev Ãªtement
ĠK on
Cal ais
y me
ĠÃ©quip Ã©es
Ġexpos Ã©e
ĠO MS
ĠV ik
Ġaigu ille
Ġav Ã©rer
Ġph il
s ax
ĠRoch elle
ĠFin ance
Ġconsid Ã©rant
onne t
ĠPar fait
Ġreconn aissent
Ġdistribu Ã©
c onc
ĠS ON
Ġrespec tueux
Ġinti mes
ĠT ABLE
Ġnostal gie
ĠÃ©bulli tion
ĠdÃ©si rez
av el
f ais
ĠinÃ©v it
if a
ĠV INS
ĠindÃ©pend amment
Ġt elle
J eux
tu m
Ġnota ire
Ġtour b
v Ã©g
ĠprÃ©li minaire
Ġsucc Ã©d
Ġlim itation
Ġabord Ã©
Ġinc om
Ġressor tissants
ĠVer sion
Ġsupp li
Ġauber ge
az e
ag on
tr on
Ġcler gÃ©
fi ance
ĠsÃ© isme
Ġrent rÃ©
Ġla iti
Ġcontinu ant
Ġcap teurs
ĠPh y
ĠprÃ©par Ã©s
ĠAt t
ang a
Ġval idÃ©
Ġcol lier
ĠdÃ©m enti
Ġnota tion
ĠdÃ© dic
ĠM anche
Ġpri ver
ĠAt ta
Ġcondam nÃ©e
Ġav ortement
ĠÃ©di fices
ĠFil m
Ġindire ctement
Ġplac ard
ĠdÃ©couvri rez
Ġexpri mÃ©s
Ġsusp endre
Ġpel oton
Ġprolong Ã©e
Ġre tient
Ġmotiv ations
ĠprÃ© cieuses
Ġaid ant
i at
ĠLec lerc
Ġbouc lier
ĠC OR
ĠtÃ©n Ã¨bres
b at
Ġall ocations
Ġlic ences
Ġex Ã©c
Ġviol entes
ĠdÃ© rog
Ġinhab itu
Ġsyndic ales
Ġm ord
Ġav ancement
Ġgal ax
an ni
Ġinsur rection
ĠO cÃ©an
Ġpatri ar
ĠL ic
Ġanim Ã©s
Ġinf ections
Ġasi atiques
Ġprom u
ĠInternation ale
c tive
par ti
Ġcas ier
Ġpas teur
Ġexcep tionnels
ĠRe ich
vise ur
Ġcol omb
obil ier
Ġterrib les
ĠCON C
z ac
ĠS F
ĠM Ã©n
ĠCH A
Ġconsig nes
Ġso eurs
Ġc Ã¨de
Ġbou e
ĠdiplÃ´ mÃ©
Ġpo chette
ĠÃ©ti ez
ris me
Ġbou gies
Ġjourn alisme
ĠW ol
OU VE
Ġagit ation
me ment
Ġsanc tuaire
Ġbr une
ĠSitu Ã©e
Ġcul tiver
Ġso yons
ĠP ie
Ġb rand
Ġexplo itant
Ġca chÃ©s
ot ti
ĠK iev
onn ait
ĠBach ar
ĠdÃ©mÃ©n age
Ġurg ences
ĠÃ©vo quent
Ġorth ographe
Ġeng in
stan bul
Ġcock tail
ĠV ingt
Ġrab at
ON N
Ġball ons
u al
Ġla pin
Ġentend ait
Ġtac tile
Ġbu teur
Ġno tification
Ġsour iant
Ġcatastro phes
Ġpa quets
ĠrÃ©guli Ã¨res
ĠRousse au
AN TE
vie ws
Ġmo ine
h el
am s
Ġbas que
M AR
V EL
Ġisol Ã©s
Ġinter cep
Ġcra yon
ĠEn ter
Ġhandicap Ã©s
Ġexam in
Ġoppos ent
Ġpon tif
ĠDoc ument
ĠsÃ© lec
ĠB onn
en di
ĠTÃ© hÃ©ran
ib as
Ġpil ier
Ġend ettement
DI TIONS
Ġenvironnement al
Ġpo ire
Ġin Ã©gal
Ġp Ã¨s
ĠLa dy
ĠexÃ©cu tÃ©
ĠhÃ´te l
Ġemp arer
Ġ195 2
Ġhuman itaires
ĠmÃ©diÃ©v ale
ci Ã¨res
Ġplai dÃ©
Ġstatu es
Ġmeur tres
Î ±
Ġsur venu
Ġappar tenait
Ġessay ant
ĠdÃ©bat tre
Ãī ES
Ġph ares
Ġth r
Ġpar ut
Ġprimordi al
Ġmil les
ĠCat alog
Ġacc rÃ©
ĠPaul ine
Ġpor n
ĠC au
vi Ã¨ve
te l
ĠmatÃ©ri elle
Ġmenac Ã©e
Ġparta gÃ©s
Ġfonde ments
Ġred ist
Ġclo che
ĠK u
Ġsitu er
ĠH ACH
Ġexc lure
c tif
si ves
Ġad verse
Ġinst aurer
Ġadj u
ab o
Ġ24 0
Ġinvol ont
Ġrev ivre
Ġus ure
Ġajus tement
Ã© vÃ©
m antes
ĠChar le
ĠcontrÃ´ lÃ©
Ġdonne z
Ġcompren ait
Supp rimer
Ġmou les
Ġren ouveau
Ġquinqu enn
ĠS pi
ori eux
Ġpermis sion
ĠM obile
ĠK ate
Ġpalestin iens
Ġfrapp es
th Ã¨se
ĠintÃ©ri eures
ĠL yn
ĠInterro gÃ©
Ġne veu
Ġb it
Ġapp orts
ĠCrÃ©e z
Ġcar ottes
Ġremplac Ã©e
ĠÃ©cosyst Ã¨me
ĠD OM
gÃ© rez
ĠÃīc osse
ĠBrig itte
Ġ18 70
Ġtox iques
ĠOct obre
Ġsec rÃ©tariat
Ġcaoutch ouc
ĠW ilson
ĠM Ã©tÃ©o
Ġbar res
ĠrÃ©habil itation
ĠfÃ©lic ite
V ER
ĠprÃ©c ommande
ĠrÃ©col ter
ĠmÃª le
Ġcend res
ĠR Ã©m
Ġsucc omb
ĠPerp ignan
ĠProf essionn
Ġsur rÃ©
Ġradi os
Ġdans eurs
ch in
Ġher b
Ġtranspar ente
ĠAn k
Ġinc ite
ĠsÃ©cher esse
Pro vence
D Ãī
Ġag issent
Ġb ontÃ©
M an
ĠCal ais
Ġmatern elles
ĠcoopÃ©ra tive
r ing
Ġbas Ã©s
Ġqu estionnaire
ĠB oris
Ġexpli quait
ĠL er
ĠtraitÃ© es
ĠPRO JET
ĠR OU
Ġren oncÃ©
ĠF Ã©lix
iss a
Ġ193 8
ĠcÃ©ra mique
Ġab att
Ġposition ner
Ġbr uxell
ĠE ast
Ġemb rasser
Ġcro Ã®tre
ci ales
ĠHill ary
ĠG ÃīN
Y ves
ĠÃ©t an
ĠlinÃ© aire
Ġcomp act
Ġcont ours
Ġrect ang
Ġvainque urs
Ġpor no
ĠdÃ©mÃ©n agement
Ġam andes
Ġressemb l
Ġmun itions
Ġsalari ale
Ġbro der
bs p
Ġcombat tant
ĠV illage
Ġarg ile
3 00
Ġn ois
Ġpour rions
ĠIn gÃ©n
Ġemp ar
Ġsyndic ale
ĠR oh
Ġcomp lais
Ġethn ique
Ġfin ales
Ġl ub
Ġartisan at
en cie
ah u
ĠV oyez
ĠsÃ©cur iser
Ġtra itÃ©e
eb do
ĠPr endre
Ġfaibles ses
GUS TATION
Ġi b
ĠFem mes
v as
ĠA pol
ĠrÃ© duisant
Ġfra cture
Ġmilli er
ĠÃ©lector at
Ġpuiss antes
Ġremplac Ã©s
ĠW olf
Ġri deau
AN CES
ĠboÃ® tier
onc Ã©e
ĠI stanbul
ĠdÃ©t ourner
ill ais
z anne
Ġcyc listes
Ġparois si
mbl ay
c ap
ĠÃ©larg issement
Ġsex es
os ses
Ġinfir miÃ¨re
orta ges
Ġb rique
v ois
Ġrejet er
Ġson ne
Ġindividu ellement
ĠSp or
ites se
T h
Ġretourn Ã©
ĠMag h
A Y
ĠnÃ© f
Ġth an
Ġarme ment
ĠA voir
ĠT ak
ĠrÃ©no vÃ©
b en
Ġmention ner
R h
Ġaccord ent
Ġspati al
ĠÃ©lÃ©ment aire
Ġri res
ĠINF ORM
ĠO mar
ĠÃ©colog istes
Ġrem Ã¨de
Ġtou chÃ©es
Ġcar riÃ¨res
ĠM ond
les te
Ġbris Ã©
Ġsign atures
lut en
Ã© lect
Ã£ o
L I
n elles
x ions
op Ã©e
ĠL ieu
ĠC OU
ra g
ph al
Ġram Ã¨ne
ar on
Ã©m en
v Ã©r
ĠY oung
ĠKad hafi
ĠÃ©valu Ã©
Ġn bsp
eb all
ĠBo ok
ĠHACH ETTE
ĠJ ouer
Ġbac calaurÃ©at
ĠSyndic at
ĠÃ©limin Ã©
B E
Ġcou chÃ©
ĠBer cy
8 7
ĠLÃ©g ion
Ġti me
Ġreg istres
ig es
Ġeng ouement
Ġg ale
Ġinstall Ã©es
ĠHam ilton
li ez
ĠE ver
ĠDÃī GUSTATION
Ġexcell entes
Ġvide o
Ġcap su
Ġcommiss ariat
Ġmain tes
Ġscrup ule
ĠCh am
Ġr hum
Ġcompas sion
Ġaffec ter
Ġoccup ants
ĠmÃ©r iter
ĠrÃ©g lages
Ġc uve
Ġfootballe ur
if t
Ġaband onnÃ©e
c ut
ĠisraÃ©li ens
Ġj oign
ĠhÃ© p
ci el
Ġsc an
Ġorient Ã©
ĠVill eneuve
as ter
ĠmagnÃ© tique
Ġass u
ĠrÃ©cur r
B U
Ġa pl
ĠdÃ©pas sent
Ġmout ons
Ġmu tations
ĠlycÃ© ens
ĠrÃ©clam Ã©
Ġcan ne
u Ã©es
Å ¡
ĠLaus anne
Ġacc ab
Ġphilosoph es
Ġcop ain
Ġro cher
ĠU V
j us
ĠchÃ¢ ssis
ul ent
Ġr ing
Ġfrag ments
Ġcompos ante
ti um
ĠA I
ĠspÃ©cific itÃ©
Ġcoff ret
Ġvend ues
ĠrÃ©s umer
Ġch utÃ©
iss able
f u
ĠV ER
Ġsatisfait s
ĠbÃ©nÃ© fique
Ġsinguli Ã¨re
Ġab out
Ġsacri fices
tis sent
ĠmÃ©ta morph
Ġmus culaire
ĠBe ach
Ġnett oy
Ġsal ue
Ġoubli ons
Ġmath Ã©matique
la tÃ©ra
y ers
Ġtrouver ont
ĠR uss
ĠY an
f on
Ġde al
Ġl uy
w agen
Ġb ilatÃ©ra
R Ãī
Ġconvainc us
ab e
ĠdÃ©cr yp
Ġrester ont
mb ert
Ġmariti mes
r itÃ©s
ĠvÃ©gÃ© tal
Ġinter viennent
ĠÃ©qu itÃ©
Ġcrois Ã©s
R IC
Ġrepr ennent
ĠCarre four
Ġdra peaux
ĠrÃ©s ol
m itt
C M
Ġye ar
an Ã§on
ĠSug gÃ©rez
n ot
op s
ĠÃ© ru
ĠS id
ĠÃ©b lou
Ġpersonn aliser
ong o
Ġqu ot
eu es
Ġer ron
ĠC ENT
Ġa isÃ©
20 16
Ġj unior
Ġrass ure
ĠÃ©t onner
p ages
ĠC ER
Ġs m
Ġsil ic
Ġp ige
Ġcant ons
av res
Ġcarre four
Ġbul les
ĠdÃ©p ou
G O
Ġhon orable
Ġdesc endant
let ter
Ġo k
Ġinsta bilitÃ©
Ġtravaill ons
Ġsur vient
ossi ble
ĠmÃ©tropol itaine
Ġcad avre
Ġoptim iste
Riv iÃ¨res
Ġconseill Ã¨re
Ġparle z
Ġd un
Ġcaval erie
Ġcra ignent
Ġappr ennent
ĠSh ow
Ġcontinu a
Ġsou lÃ¨ve
Ġc ire
TEUR S
Ġcomp tables
C on
Ġajou ta
T out
ĠUn is
Ġfil iales
ĠM ak
ĠB ret
ĠÃ©lo igne
Ġex hib
Ġattend ons
Ġsta des
Ġsou cieux
ad y
Ġprol ongement
ĠAP P
ĠDar k
Ġrav ita
Ä ĩ
lis Ã©s
v ag
Ġcha usse
Ġapporter a
g or
ĠT rÃ©
ĠLu cien
p ule
ĠSte f
Ġpure tÃ©
ĠFacul tÃ©
ori el
ĠMe mbre
Ġti rÃ©e
Ġb in
Ġma Ã§
pi ration
ĠgÃ© opoli
ast ers
Ġramen Ã©
Ġcons enti
Ġmen tions
ĠinquiÃ© tant
Ġexam inÃ©
ĠprÃ©c aritÃ©
ĠO f
ĠH ebdomadaire
ol le
Ġj oies
ĠÃ©qu ation
ĠCi el
Ġo lig
EN TE
Ã©c onomique
Ġw ar
Ġstock er
Ġlanc Ã©s
Ġfine ment
ĠCol or
Ġeff ace
ĠV ac
Ġbrace let
ĠAb ou
ĠE tre
ĠrÃ©s olutions
Ġth Ã©rapie
ĠÃ©vac uer
ĠN uit
Ġfant Ã´me
si onne
ĠAbra ham
Ġrequ Ãªtes
ĠCatalog ne
Ġactu alitÃ©s
z abeth
Ġimpri mÃ©s
Ġpi ment
ĠdÃ©but ant
ĠPro v
Ġti rant
B l
ĠH ur
Ġcommun ion
Ġlim itÃ©s
Ġfon te
ĠprÃ©par ent
Ġess a
Ġloup s
ond on
Ġvitam ines
Ġcontin ents
ĠSh er
chn ique
Ġoppos Ã©e
Ġliv rÃ©e
Ġtw o
ĠF M
Ġam ours
ru d
Ġexig ent
Ġde f
Ġaccou chement
resse urs
ĠMar che
ĠCH E
ĠT ap
ĠbÃ©nÃ©fici ant
Ġven ons
K O
Ġprivil Ã¨ges
u an
Ġinc l
ĠC IA
cien nes
Ġv ital
IER S
tra c
Ġtuy au
Ġinfini ment
Ġcou de
Ġhomosex uels
ĠSep tembre
Ġces sent
Ġver rons
ĠTrois iÃ¨me
Ġs tr
ĠVol taire
ig le
Ġincons cient
ĠA A
ĠLab or
ĠD istance
Ġbou ts
Ġcol orÃ©
Ġcons omme
Ġra tio
cÃ© ans
Ġexclus ivitÃ©
ĠW ay
Ġface ttes
Ġir onie
al lÃ©
n euf
Ġmari Ã©s
Ġhorm is
Ġvoy ais
ili a
Ġeng ins
Ġcomp ortent
Ġdis cer
se p
Ġtransp ortÃ©
Ġsign Ã©s
Ġtom ate
ĠA us
ĠJ ason
ĠintÃ©gra l
Ġoffensi f
ath Ã¨que
Ġ192 9
Ġg olfe
Ġli tige
Ġappropri Ã©e
ĠDra gon
Ġblan chi
ĠZ one
ĠÃ©n um
ar ma
Ġrub an
Ġconsci ents
s oci
Ġress us
ĠBro ok
Ġatte ignent
Ġtr Ãªve
Ġcell ulaire
Ġassi ettes
ĠL O
ĠindÃ©si rables
Ġimpar ti
il itÃ©s
ĠLet tre
Ġrenv oy
ash ion
Ġrond es
Ġa ge
Ġg aul
Ġl onge
ĠÃ©t onnÃ©
am an
Ġch Ã¨vre
t ot
que z
Ġ19 17
Ġfrom ages
ĠdÃ©c rite
ĠT RAN
Ġouver tures
Ġapprofond ie
oris Ã©s
Ġlyc Ã©es
ĠN ON
Ġappro p
Ġjal ousie
Ġappli quÃ©es
ĠV III
Ġbrus quement
Ġa pÃ©ri
Ġma ig
Ġfin ira
ĠrÃ©c rÃ©
ĠÃ©li re
ĠAd ri
ĠcrÃ© atrice
Ġaspi rations
Ġexplic ite
ĠfraÃ® ches
ram mes
n al
Ġdesqu elles
ĠâĢ ĳ
tÃ©ri el
ĠF ri
ĠNo tez
Ġestiv ale
rit z
Ġomni prÃ©sent
Ġins Ã©rer
Ġm ay
Ġlongue urs
ĠShang hai
ĠB ec
ĠL iver
ĠBel ge
Ġco effici
z on
ch al
ĠEn d
ĠLangue doc
Ġcons oles
s ay
Ġdiv isÃ©e
ĠPoi tiers
Ġw ork
ĠCent rale
Ġg luten
ĠR and
vid ence
ĠRegarde z
ĠW ell
Ġterr estres
Ġatta chÃ©e
aÃ¯ da
Ġne uro
IE U
ĠXVI e
ĠS as
D P
ia que
tu elles
Ġdom ic
Ġin er
Ġreli ant
ĠO t
ĠdÃ©plac Ã©s
ĠdÃ©li m
j ord
ĠD isc
ĠÃ©cla tÃ©
actÃ©ris tiques
Ġcons istant
Ġaj uster
ĠM oy
Ġchou ette
Ġcr Ã¨che
Ġnaz is
ĠAut our
Ġmag iques
ess a
Ġincontourn ables
qu age
Ġabe illes
Ġesp Ã¨rent
Ġrecue ille
Ġarri vÃ©es
ĠrhÃ© tor
ĠD y
ĠdÃ©sespÃ© rÃ©
ĠPS A
net tes
ĠLo gement
ĠmÃ©l ang
ĠL ind
ĠBay rou
ĠdÃ©ta ille
Ġtempor airement
NE T
Ġruisse au
ĠN iveau
Ġcas ino
Ġintes tin
ac tique
Ġch Ã¨res
ĠapprÃ©ci able
Ġgenti ls
ur ies
ĠfrÃ©qu ences
Ġra ter
eu t
lÃ¨ rent
Ġlong itude
Ġenvir onnements
ĠLe f
ĠdÃ©g agÃ©e
Ġbros se
la te
Ġcle fs
Ġtrouv ais
Ġb ite
Ġti enne
Ġtent ant
Ġh oule
ĠdÃ©clar Ã©e
Ġobser vÃ©e
Ġgre ffe
or o
Ġgagn ants
ĠdÃ©cÃ©d Ã©e
Ġavanc Ã©s
Ġen su
Ġb est
ĠNo ta
Ġradic alement
ĠTre mblay
ĠGold en
ĠpÃ©riph Ã©riques
Ġnor vÃ©g
Ġs que
Ġdis aient
Ġobserv atoire
lo p
Ġti mi
ra p
l antes
Ġpoin tes
Ġtr uff
Ġincen dies
Ġmun i
ĠrÃ©jou it
Ġimp ortation
Ġgar es
ĠB ond
us ions
Ġan tÃ©rieure
tin o
Ġretr ouvez
amÃ©ric ain
ĠLiber tÃ©
ik a
Ġaffec te
ĠF ay
ows ki
Ġci ment
Ġto its
am o
Ġdispar aissent
ĠS ap
Ġbien veill
ĠdÃ©plo ie
ĠMÃ© dic
v ic
UE L
au mes
ĠY e
Ġfer mÃ©es
Ġconseill ons
Ġsour it
os Ã©e
ĠÃ©lo ignÃ©e
ĠPar ibas
Ġjou es
Ġpar venus
Ġta pe
ĠapprÃ©ci Ã©e
ĠB ientÃ´t
Ġconc rets
Ġnour ri
Ġsorti t
ur ations
Ġraccour cis
Ġchar p
Ġrev iens
ĠR EL
ĠCom pÃ©
Ġdev iner
Ġdic tionnaire
Ġrem or
est ri
f action
ĠH exagone
m od
Ġvin tage
ĠD ick
Ġ11 5
Ġimpuiss ance
Å Ĥ
ad ou
Ġinflu encer
ĠcrÃ© atif
ĠdÃ©clen chÃ©
Ġfacul tÃ©s
ie re
TE L
ĠUR L
ĠB uc
Ġac nÃ©
Ġinsupp ortable
Ġconf iant
Ġas tro
ĠSal les
isc op
d le
Ġ10 1
ĠW ild
Ġconc rÃ¨tement
Ġbru te
ĠC yr
ĠCh at
Ġpres crit
Ġpur Ã©e
Ġte intes
ĠW ade
ĠpÃ© t
Ġpro cesseur
vi Ã¨re
Ġcon vi
Ġrecouv re
Ġindig nation
4 00
ĠdÃ©ta illÃ©es
ĠdÃ©tru ite
ĠRÃ©g ime
Ġti rent
ĠfrÃ©qu ents
Ġall Ã©es
ĠO d
ĠcohÃ©r ent
ĠGlo bal
est hÃ©
Ġv igner
ĠredÃ© mar
Com tÃ©
Ġsuff ira
ĠO uti
ĠSte ven
ĠPar ole
termin ation
Ġplant er
ĠdÃ©cro chÃ©
ĠEnf ant
Ġg estionnaires
ĠPÃ©r ou
Ġre lÃ©
ĠJord an
ĠLa ura
Ġaudite urs
Ġsollic iter
Ġrig ide
ĠsÃ©v Ã¨res
Ġcol orÃ©s
Ġ10 5
Ġrassemb lÃ©s
Ġindi quÃ©e
ler oi
oc a
ĠE dition
cha mps
est a
Ġen chant
ĠAn vers
Ġpar v
Ġg Ã¨nes
ĠP P
ĠS FR
Ġ193 3
ĠRiv iÃ¨re
Ġli ce
an k
Ġache vÃ©e
Ġarg entin
n ois
Ġsinc Ã¨rement
Ġsitu ent
g ing
Ġconsoli dation
ĠprÃ©t endu
ĠS und
Ġal so
ĠinconvÃ©nient s
ĠRess ources
ĠH E
ĠContin uer
ĠChe min
Ġindi quÃ©s
ĠC az
Ġ195 1
Ġtal ib
ĠrÃ©col tÃ©
ĠMont re
ĠÃ©lÃ©ment aires
ĠrÃ©sid entiel
Ġanim er
Ġconc oc
Ġfac es
Ġdig ital
Ġfir st
ĠpÃ©riph Ã©rie
ĠMes sieurs
Ġrele vÃ©s
Ġvari Ã©
ĠÃ©mer ger
Ġanim ateurs
Ġcigare ttes
Ġla mb
g ate
ĠÃī douard
Ġemb ry
Ġsuc rÃ©
v aient
ad os
Ġsy l
ĠEs pÃ©
Ġmyst Ã¨res
ĠVÃ©r onique
ES T
Ġinvestig ation
Ġpsych ologiques
Ġchar s
ĠEx pÃ©
ta bilitÃ©
Ġassu jet
Ġregard ent
ĠItal iens
j ette
Ġcan ard
ĠS atur
Ġam ical
Ġhi p
ĠG U
Ġpos sÃ©
Ġrel ati
ĠCro atie
ĠS ouv
ĠdÃ©c oupe
Ġappel Ã©es
Ġes qu
Ġconsul tÃ©
Ġvo le
ĠpÃ© p
tr ons
ĠS tation
ĠSuiv ant
pi des
en ch
ĠHar ris
Ġcompli ces
ĠConse ils
ĠN AS
Ġbru tale
ĠPatri moine
us tes
Ġso ft
Ġsuccessi fs
Ġvari antes
Ġprest ataires
ado xe
Ġdistin ctes
ĠRw anda
ĠCour t
ĠdÃ©ploy Ã©s
Ġrig oureux
ĠC rois
la me
ĠdÃ©p ose
ĠF ais
Ġmit ra
Ġser be
ÃĪ RES
ĠÃī tant
Ġincar ner
Ġmys tique
rais ons
Ġfer ment
Ġag ain
ĠChe v
ĠMai rie
Ġvall Ã©es
Ġac quÃ©
ĠPR OP
Ġpromo teurs
Ġdoul oureuse
Ġregard ait
ĠAn nÃ©e
ĠsÃ©cur isÃ©e
ĠÃ© mettre
Ġexc lut
Ġprest ataire
ĠP ack
Ġatyp ique
ĠA chat
Ġs per
ĠC I
Ġav ou
l ist
ĠAcc omp
c at
ĠC olu
ĠnÃ©g atives
Ġbu zz
Ġinaug urÃ©
ĠS ib
Ã© le
Ġcommiss aires
Ġ193 7
Ġm ouv
Ġg y
Ġvertic ale
ĠcompÃ©t ents
p ot
ĠÃ©c lats
o en
Ã©li en
Ġrecev ra
Ġch al
Ġbombarde ments
Ġur nes
Ġafric aines
ĠpÃ©ri ple
a igne
Ġcalcul Ã©
ĠAr senal
Ġaudi ences
Ġesc ro
ĠmÃ©ch ants
Ġinsta uration
ĠOlymp iques
Ġinvestig ations
Ġitin Ã©raires
ĠaÃ® nÃ©s
ĠI f
ly sÃ©es
i mp
ĠDi am
rone ws
ĠprÃ©c Ã©dÃ©
ĠC itro
pp es
ĠDes tin
ta Ã¯
Ã©ric orde
ĠdÃ©fic its
Ġconstru ites
ĠD ow
ĠopÃ© rÃ©
Ġat terr
20 13
dog an
ĠinÃ©d its
ĠÃ©ch auff
Ġh Ã©li
ĠrafraÃ® ch
ĠG P
Ġlour dement
mÃ© trage
Ġrespect ent
Ġoblig er
ĠrÃ© itÃ©
Ġt endant
ĠRÃ¨g lement
Ġpu ce
Ġpen al
ĠÃ©cla te
ĠV IE
ĠPar adis
Ġsuffis ent
Ġpropos ait
ĠMatth ieu
ĠLa z
az ar
ĠextrÃ©m itÃ©s
Ġca ta
Ġprog ressif
ĠlÃ©gisl ative
Ġneu viÃ¨me
ĠLew is
ĠM oss
ĠdÃ©fensi ve
i di
ĠSingap our
Ġpro ble
Ġcapit aliste
ĠP s
se y
olog y
Ġcul min
ĠM b
end ance
Ġs elle
os te
ĠG auche
Ġvend ent
Ġprovin cial
Ġstopp er
ill ac
Ġmar athon
ĠtÃ© les
ĠA mis
ĠmÃ© g
Ġinter ag
b r
ĠFab rice
Ġinaccep table
Ġper cer
ĠJeunes se
R andonnÃ©e
p lo
Ġinv ente
vi ces
Ġas pire
lo o
SI ONNE
Ġcollis ion
en c
ĠB I
Ġvieilles se
ĠÃ©cra ser
Ġtomb eau
Ġhab iter
ĠdÃ©t est
ac le
ĠCa fÃ©
Ġent r
ĠdÃ©ri ves
ĠVolks wagen
ĠCor n
ĠIn g
ĠC Ã©d
ĠsurvÃ© cu
Ġrep Ã¨re
ĠR ET
Ġ19 19
Ġab rÃ©
ĠMic ro
u ir
ĠsoupÃ§ onnÃ©
Ġali as
ĠÃ©ner gique
Ãī B
Ġlanc ent
ĠDÃ©m ocra
ĠMun icip
ĠmÃ©lo dies
Ġflex ible
phy sique
ĠPa ix
Ġabat tre
Ġpour rai
Ġinstantan Ã©ment
s wick
Ġper vers
Ġdu p
Ġgre cs
Ġreconn ais
Ġdiffus Ã©es
ĠvÃ©tÃ©r inaire
ra tive
ĠChar leroi
ĠdÃ©cide urs
Ġmarchand ise
ĠCd iscount
Ġdur ent
ĠcosmÃ© tiques
Ġtri angle
ĠIbrah im
Ġcondam ne
ĠJ ura
Ġattribu Ã©e
ĠE V
Ġhabit ent
Ġexer cent
Ġpul l
Ġral ly
Ġcontra ires
op es
ĠdÃ©li cieuse
P r
Ġbab y
Ġaccueill ent
ĠE di
Ġlog iques
ĠJ azz
Ġimpri mante
Ġcou tumes
al g
Ġsav aient
ĠprÃ©s umÃ©
Ass ad
Ġlaisser a
Ġgame play
Ġin hÃ©r
ĠFran ces
Ġcad avres
Ġp c
Ġmar ron
Ġchirurg ien
Ġmar ti
Ä ģ
ĠWi i
ĠLum iÃ¨re
Ġcroy ais
Ġtardi ve
ĠStan ley
Ġav ouÃ©
Ġdo wn
ĠEspagn ols
Ġd orÃ©e
ĠMur ray
Ġrenv oi
ĠpÃ©n urie
ĠÃ©c rou
Ġcommen Ã§ant
Ġne f
ĠGab on
Ġmas sifs
rit annique
ac re
ĠInf os
Ġro ches
Ġass um
Ġrej ette
m ers
Ġform ellement
Ġfre e
ĠB and
Ġpro se
ri gue
ĠpÃ©riph Ã©rique
Ġinqui Ã©t
Ġexplo itations
Ġimp un
ĠparallÃ¨ lement
ĠexpÃ©riment Ã©
Ġcont entieux
Ã¨ cle
Ġal pin
Ġfille tte
ĠR ud
Ġat titudes
Ġvol Ã©e
ĠRa phaÃ«l
ĠsÃ©lection nez
ĠR oute
ĠÃ©tique ttes
Ġcut an
ĠPar t
ĠvÃ©gÃ© tale
Ġna tation
ĠE videmment
mis me
Ġb ib
ĠirrÃ©proch able
C omme
f Ã¨res
Ġneutra litÃ©
si ca
ĠrÃ©par ations
Ġmanne quin
Ġv Ã©nÃ©
Ġcas es
ĠSy d
Ġla ment
Ġsa pin
ve d
ĠÃ©c urie
ĠamÃ©n agÃ©e
Ġentour ant
ĠLiver pool
At lantique
Ġbl Ã¢
Ġinclin aison
Ġbous cul
Ġfor cÃ©e
ĠsÃ©par Ã©es
Ġinac cessi
Ġi OS
Ġfru c
Ġj ungle
Ġbas culer
Ġsy mÃ©
ĠP on
ĠRÃ©s istance
Ġsurn ommÃ©
Ġisol Ã©e
Ġpous s
ĠV ice
Ġluc ratif
ï ¬
ĠdÃ©sagrÃ© able
Ġmoyen nant
ĠMan if
ĠmÃ©r itÃ©
O LE
ĠfÃ©min ines
ĠL al
di x
Ġconstitu ant
ĠBrit annique
a a
Ġreven ant
tic itÃ©
Ġambi ante
Ġes pe
ĠdÃ©pos Ã©s
b ant
amb ule
Ġcoun try
Ġd ri
li ens
Ġartif ice
Ġp lier
Ġchois issent
ĠO m
Ġsous cription
atis Ã©e
ĠS omme
Ġp ts
Ġpar se
ĠÃ©le vait
Ġreconn ues
Ġcac ao
Ġconser vant
w ays
G u
v y
ĠprotÃ©g Ã©es
ĠprivilÃ©g iÃ©e
Ġtu Ã©es
ĠGener al
Ġb lu
ĠAcc ord
ĠD auph
Ġmultip liÃ©
Ġnar ration
Ġdiv ise
Ġ190 1
ĠconcrÃ© tiser
Ġti mbre
ĠAN NE
Ġf ossÃ©
ĠÃī T
Ġabord able
ali mentaire
g uerre
Ġvacc ination
ĠKar im
ĠS ad
ĠConc ours
Ġvis Ã©s
ĠCF DT
ĠmÃ©ri di
Ġme urent
P N
ĠcompÃ© tent
Ã¼ n
ven ant
ĠCent ral
gl as
UR ES
itt le
Ġqu es
Ġcouver cle
ĠE qu
ĠO GM
ĠCH AP
ĠNo vembre
Ġrep ortages
fin ales
ĠS ak
Ġdo tÃ©s
ĠVe gas
Ġad os
Ġaccep tÃ©e
Ġs hamp
Ġbro ch
ĠEr dogan
ĠM C
Ġautob i
Ġor al
Ġr ente
Ġsinc Ã©ritÃ©
Ġfl an
Ġcas h
ĠdÃ©pass ant
Ġcondu ites
ĠCou illard
Ġ12 00
y ss
Ġob tenues
Ġmodi fie
ĠG am
Ġinter views
ĠW ater
ro ise
Ġpros titution
Ã©li ens
Ġche ville
Ġus er
ĠS ul
ĠDom in
Ġpers Ã©vÃ©
Ġfre inage
Ġavoc ate
Ġcommun ique
Ġcollab orer
Ġple ure
ĠamÃ©li orÃ©e
ash i
or gie
ĠW o
ĠrÃ©comp enses
Ġcli chÃ©
Ġporter a
ĠGas ton
ĠLamb ert
ĠdÃ©pis tage
Ġri vaux
Ġinqui et
Ġimp ul
i ante
Ġmo che
Ã© o
im er
ĠdÃ©sin tÃ©
Ġp oul
Ġsh ort
Ġord onne
Ġfournit ure
ĠCON DITIONS
p our
ĠEr nest
Ġren fort
ĠintÃ©ress Ã©e
ĠsÃ©lection nÃ©es
Ġimmig rants
ĠPro ph
Ġhon orer
ĠÃ©lÃ¨ vent
ĠexpÃ© di
or ne
ch ants
ten tions
Ġcommun ic
Ġman uels
Ġparc elles
ta ines
ĠÃ©qui per
Rh Ã´ne
ĠEffec tivement
Ġaur as
ĠG ol
ĠEli zabeth
Ã« lle
ĠÃī videmment
Ġdessin ateur
or um
w en
Ġinc itation
Ġfem elles
P y
ĠÃī quipe
Ã¶ r
ĠdÃ© ris
ĠG ord
p ine
av ent
ĠnaÃ¯ ve
ĠItal ien
ĠrÃ©pu tÃ©e
Ġ use
Ġaigu illes
ry s
Ġdisp osÃ©
Ġpi aniste
h n
Ġgrand it
o tion
tern el
Ġsoci alisme
Ġlog er
Ġinv itÃ©e
ĠgÃ©n Ã©rÃ©
ĠD ossi
ch ais
Ġmont rait
ĠdÃ©n omination
Ġj ure
Ġprolong Ã©
Ġsacri fier
ĠCh yp
Ġinterro gÃ©s
Ġa ie
Ġfer ais
ĠPRO G
Ġspecta culaires
Ġprot otype
ĠA wards
jec t
Ġriver ains
Ġrec rÃ©
op ro
ĠAnd y
Ġconvo quÃ©
Ġri pos
Ġgo vern
Ġbre ton
ĠIN ST
a ir
Ġimmer sion
Ġval ait
ĠL ord
ac Ã©
ĠD av
Ġcompatri ote
ĠÃ©car tÃ©
Ġexplic itement
Ġhu mble
ĠCaraÃ¯ bes
ĠOlymp ique
Ġcouver tures
Ġengra is
ĠaÃ©ri ens
Ġsympath isants
tique ment
E E
Ġdiv or
Ġcl oud
Ġtypique ment
Ġalli ances
Ġimmatric ulation
Ġguer riers
Ġpalestin ienne
ĠR oth
ĠgÃ©nÃ© alog
it ures
ate au
D ER
Ġtemp les
z heim
ĠForm ule
ĠNet t
Ġsec our
S L
ĠG ati
Ġassi m
Ġla mpes
Ġcheval iers
Ġreje tÃ©e
Ġprot ester
Ġaur iez
Ġfamili aux
Ġju d
ĠrÃ©alis ateurs
ĠpÃ©ri odique
ĠM iller
Ġpa ci
LE C
Ãī RA
Ġsoix antaine
ĠprÃ©sid entielles
ON E
ĠV ente
ĠBel ges
p on
o ve
ĠC ast
And rÃ©
ĠImp ossible
Ġ23 0
ĠT au
Ġcourt ois
ĠRÃ©s umÃ©
Ġtalent ueux
Ġinscri vent
ĠM aine
ĠdÃ©cor Ã©e
Ġs ill
Ġser rure
Ġrep Ãª
ĠJ i
ĠprÃ© avis
ĠOu ver
ĠalgÃ©ri enne
ENT ATION
ĠGu adel
di men
ĠsuggÃ© rÃ©
f ient
Ġmet ronews
Ġrepro duit
ĠS tr
ĠcomplÃ© tez
v aisselle
ĠD ivers
ĠN oirs
Ġo tage
ĠY Ã©men
ĠFren ch
ac cio
Ġra ll
ĠPromo tion
Ġdra gon
ĠdÃ© teste
Ġp ant
Ġappari tions
ĠprÃ© dic
Ġbar oque
Ġs ic
Ġso ja
ĠAn aly
Ġloc omo
car b
Ġconsoli der
Ġbat tent
f ou
F ER
ĠChar ente
Ġmas ques
Ġpor taient
ĠGar cia
ĠIn n
ĠBri tish
ĠrÃ©pert ori
u itÃ©
Ġap titude
ĠAgn Ã¨s
ĠN OUS
uti le
Ġcivil isations
Ġmaroc ain
ĠrÃ©perc ussions
ĠPROFES SIONNE
Ġdig es
ĠQu alitÃ©
ĠBar th
Ġad orable
Ġfrustra tion
Ġcamar ade
Ġrev int
ond er
Ġrend s
ille ux
ni k
ĠinterprÃ© tations
ĠgÃ©omÃ© trie
ĠAr ist
Ġspr int
ĠlÃ©g alement
ĠN B
Ġun der
Ġc is
Ġsoup Ã§ons
R ouge
ĠP ad
Ġreven ait
Ġpar s
Ġjou it
l ag
Ġbal nÃ©
ĠPhil adel
ĠFas o
ĠL at
Ġcor por
c ard
Ġconj ointe
ĠD urÃ©e
Ġaudiovis uel
an z
ĠI C
ĠdÃ©pos Ã©es
Ġfratern itÃ©
Ġbas Ã©es
Ġpo teau
ĠdÃ©c orer
ĠÃ©le cteur
ĠrÃ©c on
Ġabord Ã©s
ch ot
ĠhÃ©ri tiers
Ġcontempor aines
ĠInst allation
es a
ro v
Ġtr ompÃ©
l uer
Ġ178 9
Ġfra mb
ĠGÃ© orgie
Ġpos Ã©s
Ġconf iture
ĠÃ©lect ri
ĠSt ore
ĠGu Ã©
ĠNot ons
E tienne
ĠCh rÃ©
ĠAub ry
p res
IS ES
ĠrÃ©vÃ© lÃ©e
Ã©n ique
od ore
ang o
Ġhum ilitÃ©
Ġ Ï
inÃ©s ith
ĠDer niÃ¨re
Ġgile ts
u tique
ĠS ES
Ġquit tent
Ġsem elle
ĠBoul ogne
Ġmar x
n iste
Ġsusp ense
ĠPro pri
Ġun anime
ow e
Ġoff rait
iss an
Ġpassionn ant
ÃĪ S
Ġdirec tes
ers bourg
ĠVend Ã©e
ĠdÃ©clar ant
Ġbat teur
Ġdesse in
Ġconser vÃ©s
ĠdÃ©Ã§ us
Ġh ach
an tisme
Ġoff rira
EN E
Ġquoi qu
tro it
Ġberce au
p rop
Ġa ires
ĠrÃ©pand u
Ġcorp us
ouss a
pl ace
Ġrenouvel able
Ġac tives
ĠfÃ©lic iter
Ġmentionn Ã©es
ĠR ick
ĠZ ur
orte z
ĠAl ph
ĠmÃ©lo die
ĠB oh
Ġt umul
Ġintu i
Ġcour amment
ĠfaÃ§ ades
Ġavant ageux
ig i
ol ith
ĠR N
ĠrÃ©g ie
Ġvis er
Ġsurpren ante
tro is
C et
Ġtyp iques
Ã©n agement
ĠPok Ã©mon
Ġtard er
Ġfou dre
Ġp iles
ĠCas ino
Ġbar rages
F S
Ġsi da
Ġ190 5
Ġvuln Ã©ra
Ġadolesc ente
Ġsu p
gra de
Ġmou che
H z
ĠrÃ©alis ent
Ġincons ci
ĠRe y
Ġprot estation
ĠRes ponsable
Ġd une
ĠrÃ©pand ue
ĠMes si
ĠDer nier
ĠV ale
Ġliv raisons
t op
Ġcr us
ĠTer min
ĠcommÃ©m or
ĠfÃ© ti
Î ¿
Ġd al
Ġvi andes
Ġabou tit
F P
ag Ã¨re
Ġcontradict oires
Ġplan Ã¨tes
ĠBos nie
ĠparallÃ¨ les
ĠT roy
Ġcab ane
in ette
ĠÃ©lar gie
Ġf ore
Ġdo ter
Ġcour antes
Ġmeurtri er
ĠAccess oires
Ġsoule ver
ign ants
ĠH ell
it anie
ĠB ack
Ġanne xes
ĠSERV ICES
Ġantib io
em a
Ġsav ants
Ġan tÃ©
ĠdÃ©bar que
Ġpuis siez
Ġvis ions
ĠMar x
Ġdiv iser
Ġra id
Ġv ase
G ES
ch oir
ĠS uis
Ġcoul oirs
Ġbon homme
Ġbreve ts
Ġroule au
ĠvÃ©gÃ©t ales
ĠA J
Ġpers iste
Ġappr enant
Ġsolid itÃ©
ĠDes s
ĠR S
Ġclas ser
20 14
Ġgoth ique
Ġo x
ĠÃ©g out
ou les
Ġin hib
ĠARTIC LE
Ġenti Ã¨res
ĠprÃ© tention
Ġar ro
l Ã¨s
Ġsucc Ã©der
Ġprofond s
ĠÃ©lo ignement
Ġrejoign ent
Ġprofessionn alisme
Ġmar re
oli Ã¨re
ra ires
ĠintÃ©g rante
ĠdÃ©n oncent
Ġanony mes
ten aient
le ments
Ġper mit
Ġso ignÃ©
Ġexhaus tive
Ġliqui des
ct rices
Ġcomb inÃ©
ĠS tal
Ġh and
Ġrequis es
N ord
Ġner fs
Ġanecdo tes
ard es
ĠÃ©p ouvant
ĠE ditions
ĠF un
ĠÃ©lÃ© vation
ĠCh Ã¢
Ġex otiques
ĠdÃ©l oc
Ġinspi rÃ©s
ĠS OU
ĠmÃ©tÃ©or ologiques
ĠAn alyse
us ser
ĠWe ek
Ġil li
Ġconviv iale
Ġrenouvel Ã©
Ġvo eux
id ae
Ġinfluen cÃ©
Ġmal in
L C
Ġjamb on
Ġral entir
Ġkilom Ã¨tre
Ġpersonn alisÃ©e
Ġfrais es
Ġcroy ons
oo ter
ĠCollec tif
ĠnÃ©cess itant
Ġglac es
Ġh onneurs
Ġgramm aire
Ġd rain
Ġaccomp lissement
ts ch
ak o
Ġconver gence
Ġf iss
ĠE lisabeth
Ġexpl ore
Ġmultip lie
Ġtend ent
Ġrev al
ĠArch ite
ĠÃī tienne
ĠEuro pa
Ġdiam ant
ĠÃ©clai rÃ©
Ġdev ance
Ġouv rit
Ġproli f
Ġson de
ĠEnse ignement
Ġtran cher
Ġl ier
Ġinc oh
la teurs
Ġret ards
Ġimprob able
ĠempÃª chent
Ġnation aliste
ĠC it
ĠdÃ©bar ras
Ġfrag ilitÃ©
ĠÃ©pr ouver
Ġexig Ã©
ig uration
Ġweek end
Ġcontra dictions
ĠT OUS
g os
ĠJim my
ĠrÃ©s um
Ġaffront ent
Ġass ais
ĠcomÃ© dienne
ĠdÃ©partement ales
igh ts
zz i
Ġparfait s
v ues
Ġbru talement
Ġcollabor atif
ĠdÃ©p la
ĠM lle
Ġpro lÃ©
Ġsa ou
Ġstric te
ĠBul le
ĠdÃ©lin qu
Ġexp atri
ĠrÃ©ag it
B run
ĠMo Ã¯se
ix e
oph ile
ĠE y
Ġbl ague
Ġpar adoxe
ĠAy rault
Ġplu vi
ouss illon
Ġfes tivitÃ©s
ol it
ĠdÃ©c ap
ĠdÃ©cidÃ© ment
Ġfabule ux
Ġhabitu els
Ġins ister
ĠarchÃ© ologiques
ĠPra gue
Ġser p
ĠtÃ©lÃ©ph oniques
ĠConne c
he re
ĠPL A
Ġsucc Ã¨dent
mar in
ĠL yc
Ġas tre
ĠS ens
Ġfure ur
ĠdÃ©clar ent
Ġentend us
Ġh it
Ġ193 5
Ġen di
Ġderni Ã¨rement
ĠAp res
ĠMaj estÃ©
Ġbas eball
t ch
ĠH autes
ta re
Ġsol des
re aux
en berg
ĠIn dien
Ġbaptis Ã©e
as is
tie use
ĠG amb
T e
ĠrÃ©par ties
Ġplai de
Ġcontinu ellement
Ġoptim al
que ur
oud res
ĠPar tie
Ġaim ais
Ġanc est
Ġbor ne
re ra
Ġannonc Ã©s
ĠIN V
ĠGrÃ©g oire
f ric
ĠPeti ts
ĠSui vez
ĠSoci al
Ġstig m
ĠTra vaux
amÃ©ric aine
Ġref lets
at ori
Ġspontan Ã©ment
ĠF BI
Ġh ack
Ġparc elle
anc ourt
ch eux
Ġsynth Ã©
Ġsuiv ies
Ġmultination ales
Ġn y
bag bo
ĠdÃ©s olÃ©
Ġra ils
Ġpersu ad
Ġ4 000
Ġpla f
20 17
ĠMag azine
Ġconfir ment
Ġdemande ur
ĠlÃ¢ chÃ©
Ġdi ag
ĠconÃ§ oit
ĠH as
D urÃ©e
Ġclass Ã©es
ĠT OUR
Ġpropag ation
tÃ©gra tion
Ġferme tÃ©
ĠQu estion
Ġinsur gÃ©s
rie f
z ig
Ġsauvegard er
Ġ193 4
um i
el Ã©s
Ġrais ins
Ġtend ue
Ġgouver ner
ĠCitro Ã«n
Ġcomp lications
Ġinterven ant
k g
Ġpertin entes
ĠH ou
Ġex istÃ©
Ġserv iteur
Ġexpi ration
om or
Ġnation alistes
Ġantis Ã©m
el i
Ġinten si
ĠAle p
ĠSa chez
Ġpo ker
ĠrÃ©flÃ© chi
ĠrÃ©cu pÃ¨re
Ġoblig Ã©e
Ġpertin ente
Ġemprun ts
Ġst ri
ĠlÃ©giti mes
S tation
az i
Ġv Ã´tre
Ġre desc
ĠrÃ©sist ants
ĠdÃ©couver ts
ad s
Ġv ap
Ġver ront
Ġchar gÃ©es
ic aux
vel ines
Ġr un
Ġs ommaire
Ġenter rÃ©
ĠsÃ© journ
ens Ã©es
ĠsÃ© duction
ĠJ ay
Ġz omb
Ġmentionn Ã©e
Ġl iterie
Ġann uelles
Ġra vie
ĠP enn
Ġdev ises
Ġren aissance
ĠAN N
Ġdess inÃ©
Ġo cÃ©ans
ĠrhÃ©tor ique
Ġj oints
Ġres pecta
ĠM R
ĠpÃ©tro lier
Ġrep rÃ©s
ograph es
a ies
Ġaccueill ante
Ġp aires
Ġdans es
TIF S
ok er
Ġpass ants
b ot
Ġrac iste
Ġimm ort
Ġaccord Ã©s
ĠÃ©phÃ©m Ã¨re
Ġf ief
Ġfer aient
Ġflu ctu
Ġinves tit
Ġdiplom ate
Ġclo cher
or al
ĠP ant
ĠperÃ§ ue
Ġar rog
ĠCH F
Ġsoulig nent
ĠMa xim
ĠprÃ©c ur
us cules
ĠAc tivitÃ©s
ĠInform atique
Ġo h
tis Ã©
Ġaccueill era
LE CT
Ġcub es
Ġle va
ĠtÃ©lÃ©ph onie
ĠApp are
s ance
Ġai mant
Ġno tif
Ġph osph
oigne z
ĠdÃ©li vre
k ets
ĠFer mer
ĠBÃ¢ le
Ġarch iv
Ġrepos ent
qui ers
Ġpan el
Ġcollab ore
ou pÃ©
ĠindÃ© fin
ĠdÃ© pe
ĠBÃ©n in
Ġred oub
Ġdisp u
ĠRet rait
Ġform elle
Ġcorrespond re
Ġla dite
Ġacquis itions
Ġrapp eur
Ġregret tÃ©
Ġg ise
Ġracont ent
Ġincroy ables
ĠR iver
Ġcas cade
ĠB AS
Ġrec ent
ĠDa ily
ĠPro g
oph e
Ġmaxim al
ĠCy ril
ĠdÃ©sig nÃ©s
Ġmaj est
cri vez
an isme
Ġhor loge
Py rÃ©nÃ©es
ĠPar tage
as sent
Ar ticle
Ġtri ang
ĠtÃ©lÃ©commun ications
Ġpassionn Ã©e
ĠK ath
orb onne
Ġinnov ants
ĠAppr enez
Ġtest ament
ĠdÃ©je un
Ġoptimis me
Ġperd ant
el Ã©e
u lique
Ġhospit alisation
ĠprÃ© di
ĠUTIL ISATION
Ġvers Ã©es
Ġineff ic
Ġob tiennent
Ġadmi rable
tir ant
Ġfati guÃ©
or at
ĠEN V
ill ers
Ġbra ve
ar res
Ã©ri ens
Ġsou tenus
ĠEch os
Ġcomp toir
Ġrequ ise
T u
Ġterrib lement
ĠrÃ©cur rent
Ġpromo teur
ĠapprÃ©ci ent
te chnique
ĠF le
Ġcollec ter
ici de
ĠBen oit
rig Ã©e
Ġpl aines
ĠGÃ©n Ã©ra
ĠM AT
ĠrÃ©un issant
ĠN Ã®mes
Ġextin ction
ĠSyd ney
Ġje Ã»
ĠUn ity
ĠGene viÃ¨ve
S ud
onn iÃ¨res
Ġann uaire
ĠdÃ©si reux
Ġjustif ication
Ġtremb lement
mun d
ĠE SS
Ġtransmis es
ĠAl an
Ġ <
ĠpÃ©nit enti
ving t
Ġcaval iers
ĠBou chard
ĠdÃ© tr
ĠIs lande
Ġstagi aires
Q UI
ĠMo der
c ades
ir ts
ĠComp any
om on
Ġinclu ent
Ġci eux
Ġ19 10
Ġlinguis tiques
Ġchau diÃ¨re
ĠpÃ©nÃ© tration
Ġvit re
Ġcollabor ateur
ĠSp ace
Ġtram way
at te
Ġrec ense
dimen sionn
fond ateur
Ġg ib
onom e
Ġma igre
en ko
ol phe
ĠN elson
ĠdÃ© chir
ĠS Ãī
ĠentraÃ®ne urs
ner ie
ĠB IEN
te mp
ĠLim oges
Ġcra quer
ĠR O
arde au
Ġbureau cra
Ġrapport ent
Ġgr illes
ĠDre am
Ġ193 2
ĠinÃ©d ites
ĠDou ble
Ã©n ager
L O
ĠantÃ©ri eures
ĠlÃ©gis lateur
ĠmÃ©dioc re
de rer
apar te
Ġanxi Ã©tÃ©
ĠTur in
Ġci alis
Ġpat te
ĠDe main
Ġvacc ins
ĠMA TI
Ġch en
IS ME
Ġcommis es
ĠAr tis
Ġcompil ation
ĠprivilÃ©g iÃ©s
Ġdescrip tif
Ġs omb
Ġsc in
ĠP ire
Ġperdu es
Ġsoul agement
Ġliqui dation
ĠTch ad
un di
Ġinv itent
ĠR ois
ĠDi ane
ĠJuli ette
Ġcondu its
ĠL igne
par ents
ĠperÃ§ oit
ĠSh aw
Ġtoit ure
ĠrelÃ¢ che
iner ie
Ġo tt
ĠFire fox
ĠdÃ©lib Ã©ration
ĠAnti quitÃ©
Ġpomp es
Ġp ains
D M
og ue
o tisme
ĠÃ©t onnement
ĠBulg arie
Ġesc ale
Ġcab inets
Ġpar oi
Ġp ixels
ĠrÃª vÃ©
Ġattra per
ĠJ OUR
ĠCin Ã©ma
Ġl or
Ġgenti lle
ĠÃ©clat er
ĠV ars
Ġbaign ade
Ġcontra ints
se c
ĠAn nie
ĠGuy ane
ĠchrÃ©tien nes
ĠUti lis
ĠmodÃ© rÃ©e
Ġrenv oyÃ©
ob les
Ã¨ bre
ĠTRA VA
Ġbata illon
Ã©mi tisme
on el
Ġrec omp
p id
Y ork
ĠM oun
Ġsign ataires
ĠrÃ©ac teurs
Ġch antÃ©
Ġpas sif
R oy
Ġappar ences
ĠPar ten
ĠbÃ©nÃ©v ole
Ġobserv ateur
Ġprior itaires
ĠpÃ¨ler inage
Ġarbit raire
Ġcl ois
tÃ© b
di ci
Ġsent ais
ol ir
Ġjoli ment
Ġpist olet
Ġattra it
Ġex t
ĠKen ya
Ġinatt endue
ĠdÃ©ce v
ĠL omb
Ġul tÃ©rieurement
Ġha usses
amb a
Ġarm Ã©n
ĠrÃ© si
Ġambigu Ã¯
ĠrÃ©p ri
Ġjoy euse
ĠprÃ© hist
ĠMÃ© th
ĠirrÃ©s is
ĠT S
T EN
Ġra me
ĠGuadel oupe
ĠB ox
Ġempre intes
Ġcrois Ã©e
Ġent rÃ©s
Ġtravers ent
ĠGir onde
ĠP ac
Ġper ce
Ġnota bles
ĠGe off
Ġh app
Ġmette ur
Ġun ir
Ġpl antÃ©
Ġcaus Ã©s
ĠIdentif ier
el age
ĠComp arer
Ġorgan iques
Ġtr ilog
ĠSpÃ©ci aliste
Ġres titution
ch ou
p ace
Ġvie illard
Ġca chent
ĠR un
est ern
ĠvÃ© cue
ĠinfÃ©ri eures
ĠR usse
ĠV ern
ĠV il
Ġvo leurs
Ġtermin ale
ĠL ie
ĠMagh reb
adi g
Ġoct roi
Ġren ch
Ġk e
Ġcontam ination
ĠCont rÃ´le
A cc
rÃ© ci
Ġrespec tives
Ġarm oire
Ġg Ã¨ne
Ġse ct
Ġmaroc aine
Ġquinquenn at
ĠL OC
ose ph
Ġacquis es
ci aux
ĠB AR
ĠamÃ©n ager
ĠInvitÃ© InvitÃ©
Ġvulg aire
ĠbÃ©nÃ© diction
ĠesthÃ© tiques
Ġfon ciÃ¨re
Ġna vette
ĠmodÃ© lisation
ĠP oit
Ġreli Ã©
ĠM I
ĠprÃ©sent ement
ĠAn der
20 12
k istan
ĠCh em
ĠHÃ´ pital
Ġinsuffis ant
Ġhar ic
ĠAn t
ĠÃ©mancip ation
ĠbÃ¢ t
ĠPL AN
ous in
IT ÃīS
ĠP ois
Ġint ers
om i
ĠL ittle
ĠdÃ©c oule
ĠdÃ©linqu ance
Ġconsac rÃ©es
Ġvit alitÃ©
Ġcit ant
ĠcoÃ©qui pier
ĠhÃ©s itation
Ġs is
ve use
Ġmet al
Ġgard ent
Ġhom olog
ĠStÃ©ph anie
Ġl anter
Ġab olition
ĠJ up
ĠC lin
ĠvÃ©r itÃ©s
ĠP ot
ĠdÃ©v ouement
ĠConserv atoire
ĠSp ir
ĠdÃ©v al
ĠF an
Ġnouv ellement
Ġimp ren
b eau
ĠarchÃ© ologique
ul Ã©es
Ġinc ompÃ©
ĠprÃ©fÃ©rÃ© es
Ġplan Ã©taire
te t
ĠdÃ© tra
ĠMari anne
ĠcrÃ© p
s ch
Ġfin alitÃ©
ĠÃ©v ap
V oici
Ġguer rier
Ġpous sant
Ġremont ent
Ġpr ou
ĠpÃ¢tis serie
Ġterritori al
lin aires
f es
ĠH ul
Ġessay ez
Ġdev rions
ar ien
ĠIndustri e
Ġapais er
Ġinterlocu teurs
ĠYann ick
Ġc ot
Ġinten sif
Ġalig nement
ĠInf o
Ġvo Ã»te
ing o
ĠP lu
ouver ture
ĠP oser
ĠPhilipp ines
Ġvo ila
rÃ©g ation
ĠPrin temps
Ġarticul ation
ĠpÃ©n Ã¨tre
Ġh aleine
Ġcra ins
ĠG ay
ĠDÃ©fin ition
ĠprÃª tes
Ġvoud raient
Ġbes ti
ĠUti lisation
Ġfin is
ĠMondi ale
Ġhym ne
ĠToy ota
ĠN y
ĠTur cs
ille tte
Ġces sez
Ġcalc aire
Ġparent h
Ġinf anti
Ġcit ations
ĠPr usse
ag iste
ĠT HE
ĠdÃ© char
Ġrassemb lÃ©
ĠadhÃ© rer
Ġenvis agÃ©e
Ġrencont rÃ©es
ĠM ES
ĠmÃª lant
ĠBon aparte
ĠÃ©tern itÃ©
Ġassoci ant
Ġinvesti ture
ent al
ab i
Ġk am
Ġpes ant
ĠP EU
ĠschÃ© mas
ĠhÃ©s itent
ĠÃ©limin atoires
ĠCo pÃ©
Ġexplo ite
Ġmer c
Ġillus tra
Ġcol oss
Ġpar itÃ©
ĠNota mment
Ġviv aient
ĠX P
Ã©ri en
ĠDup ont
Ġlac unes
Ġfar ce
Ġdiffus Ã©s
Ġconne xions
r iste
Ġgenti ment
Ã¶ n
Ġeth niques
Ġn ie
Ġorient Ã©e
Ġag irait
i aux
Ġamer tume
Ġac cession
ĠParis iens
ĠBarb ara
ĠS aguen
Ġtrouv ons
ĠmÃ© tab
ĠOb jectifs
ĠRen cont
ti endra
in iÃ¨re
Ġjou issance
Ġcar amel
e ments
Ġban quier
Ġsous tra
ĠÃ©g ales
ui rait
Ġpiv ot
ĠarchÃ© ologie
Ġan od
Ġs unn
Ġm illÃ©
Ġrappel ons
ani um
OS E
Ġfil mer
Ġa ilier
Ġfant Ã´mes
ĠBru ce
Ġamen Ã©s
ĠAlber ta
Ġaustra lien
Ġpav Ã©
ĠBl ues
Ġrac istes
ĠrÃ© tor
Ġcroy ants
Ġutilis ons
Ġju gent
Ġcont ourner
Ġcircul ent
ĠSim one
Ġinscrit es
ĠAr mand
Ġdes igner
Ġnar rateur
Ġtempor aires
Ġparticul aritÃ©s
Ġantis Ã©mitisme
ĠCop enh
ĠS all
Ġinfir miÃ¨res
od a
ĠRe prÃ©sent
ĠUn itÃ©
ĠÃ©l astique
ĠChois ir
ĠdÃ©fensi f
t ente
ĠexpÃ©riment Ã©s
ĠdÃ©ch aÃ®
ĠFin anci
Ġrepous sÃ©
ĠD all
ĠrÃ©comp ensÃ©
ĠE dit
ou z
Ġpres sÃ©
D RE
Ġbuff et
ĠdÃ©licates se
yd ra
Ġall ures
ĠMich Ã¨le
Ġcul inaire
Ġsuper vis
ĠG ames
tor ale
Ġcord on
Ġ18 30
Ġec onom
Ġpenal ty
ĠMoul in
Ġmagist ra
oph one
Ġsub mer
Ġson ger
Ġtuy aux
ĠE U
it ante
Ġenseign Ã©
ĠVer d
ĠL ens
ĠÃī crit
Ġadress ant
Ġs illage
ĠR ugby
ĠP Q
ĠprÃ©voy ait
Ġvis ait
S Ã©
ĠGati neau
Ã©n a
Ġpen che
ĠdÃ©clen chement
Ġrevendic ation
Ġar deur
Ġembar quer
Ġpermet te
Ġcl ou
Ġpun k
rou nd
Ġconten ues
fe ctions
ĠEnf ants
Ġp endu
ĠdÃ©mar rÃ©
Ġgras se
Ġorthod oxe
ĠP ur
ens tein
Ġser r
Ġtrans mise
i Ã¨mes
ĠD RO
ĠH ebdo
Ġfit ness
ran de
Ġjou Ã©e
Ġbl as
m ore
Ã©ra illes
ĠrepÃ© rÃ©
Ġatterr issage
Ġcuis ses
Ġillus ions
Ġhomosex ualitÃ©
ĠdÃ©fav orable
Ġcatastro phique
ĠimpÃ©ra tivement
Ġun ilatÃ©ra
ach i
Ġsp l
Ġabs orption
Ġaff ilÃ©e
ten sion
ĠarrÃª ta
Ġcoup Ã©e
f us
ĠRÃ©ser ve
ĠprÃ©par Ã©e
ĠRecher cher
Ġsal adier
f Ã©rence
Ġaccro chÃ©
ĠG A
Ġmar ion
ĠdÃ©li re
ĠDe ad
H A
k ir
Ġdestin ataire
Ġcompos Ã©es
Ġeu ph
ĠChap elle
ĠA vent
Ġcont estÃ©
ĠBes anÃ§on
ĠdÃ©col le
Ġfam ilier
RI G
w ald
Ġper cu
Ġapp ortÃ©e
Ġarran gements
ĠNam ur
s ante
ro ck
Ġprati quent
Ġprend ront
AU T
Ġe h
Ġpharmace utique
Ġprogram mÃ©e
ĠdÃ© mes
Ġg lam
or iques
Ġchois issant
ĠÃ©lo ignÃ©s
g is
Ġmira cles
Ġini tier
Ġabsent s
ĠC OUR
Ġvi der
IS A
ĠBar Ã§a
ĠAug ustin
Ġban niÃ¨re
Ġcu ite
Ġmena Ã§ant
Ġsyndic al
r ans
ĠprÃ©tend ent
ĠvÃ©ri fiÃ©
MB RE
Ġpoub elle
Ġvi d
ĠH art
Ġg lu
ĠpÃ©n alitÃ©
Ġplai ra
ĠrÃ©form er
u ie
b ury
ĠbrÃ» lÃ©
Ġdr Ã´les
Ġventi lation
c ars
Ġdistribu Ã©s
Ġretra ce
h en
ĠChyp re
Ġital iennes
ĠAd rien
ĠrÃ©nov Ã©e
Ġcur ieuse
t ence
ĠCÃ©d ric
ĠS icile
ĠT ai
Ġ192 8
ĠF aute
k ans
Ġretomb Ã©es
ĠdÃ©b rou
or f
Ġplut ot
ĠE tant
Ġquot as
Ġdistin cts
ĠRec ords
Ġinnov ant
Ġly onnais
Ġform uler
os tÃ©
ĠMaj or
Ġ6 50
ad an
ĠprÃ©cÃ©d ant
Ġaffec tation
Ġcam ouf
Ġcro ss
Ġinstitu tionnel
Ġti Ã¨de
Ġhor log
ĠreprÃ©s ailles
Ġser vis
ĠdÃ©plac Ã©
Ġconc ilier
Ġpatient er
olog iste
ĠBay ern
Ġb ague
Ã¨ ner
o tÃ©
ĠSt one
ĠF ol
Ġemplace ments
Ġregard a
Ġappar ue
en os
je an
ĠEx trait
ĠImm obilier
Ġarran ger
Ġin aper
Ġprov ocation
ĠG bagbo
Ġatte ind
ĠJ EU
Ġacqu iert
Î ½
ano Ã¯
Ġd ressÃ©
ĠB aie
x x
el ier
e arch
ĠD N
Ġcontribu able
Ã¯ v
ĠH ann
ĠS auv
ment aires
Ġval ise
Ġg ou
Ġbien veillance
T RA
ĠK as
ĠespÃ© rait
ĠIs a
Ġpour voir
ĠpÃ© chÃ©s
l ass
Ġre part
Ġsti pul
ui le
ĠE va
ĠsÃ© man
Ġdes criptions
ĠI A
Ġcertif ic
Ġsere inement
ĠD Ã©g
ĠColle ge
Ġra te
h y
Ġmar se
Ġache tÃ©s
ĠSu jet
ĠMc D
Ġa dieu
g g
Ġconv ives
ci us
ĠNi ke
Ġcru el
f le
Ġf Ã©ri
ĠE SP
F in
Ġcap ter
Ġvari ante
ĠEurope an
Ġcre use
J oseph
ĠF S
IE UR
ĠpÃ©tro liÃ¨re
Ġtravers ant
ti ges
Ġrec our
Ġa te
Ġ19 15
Ġno eu
ĠBe at
Ġaugment Ã©e
Ġautom atiques
ĠF uk
eto oth
ĠsÃ© pul
v ate
Ġgra t
tu di
ta che
Ġt elles
M al
Ġemprun tÃ©
omp tion
Ġcal ories
Ġperman ents
l ler
Ġdiagnos ti
oli es
Ġbr iller
ĠdÃ©m o
de f
Ġin ch
ĠVers er
i ants
ĠS AS
ĠarrÃª tent
Ġmyth ologie
pe are
ĠtraÃ® ne
ov ol
Ġt onn
Ġfus sent
Ġvoud ra
ĠprÃ©f Ã©rer
ĠprÃ©sent ations
Ġinnoc ent
quer ie
ĠH S
ĠlÃ© sions
Ġprov oc
ĠH ommes
Ġtra c
ĠenchaÃ® ne
ĠGi ov
ĠNad al
ĠlibÃ©ra lisme
osph Ã¨re
ĠV rai
Ġclas si
Ġcour g
Ġc lique
Ġfon cier
ĠImp rimer
Ġfall ut
Ġet e
ĠH amb
ĠpiÃ©t ons
Ġannonc Ã©es
ĠJen ni
dem ois
Ġsur prend
Ġtub er
dÃ©mocra te
Ġraisonn ables
Ġidenti tÃ©s
ĠsÃ©nÃ©gal ais
Ġincer titudes
Ġinsuffis ante
ĠPUBL IC
An ne
Ġcamb ri
ĠBl oc
Ġilli mitÃ©
ĠIn nov
je ctions
Ġpl Ã©b
li quer
ĠÃ© veil
Ġsyri ens
le cht
Ġdis sÃ©
ĠMod Ã¨le
Ġlib Ã¨re
ĠMartin ique
ĠindÃ© termin
Ġs ci
ĠpÃ¨s ent
Ġfr us
Ã©t ersbourg
hol m
Ġcommun ale
Ġla mes
ĠintÃ©grÃ© es
Ġvit res
DL R
Ġlog is
ĠCH U
Ã© reux
ĠAl len
Ġle vant
Ġjal oux
ĠComment aires
out ons
ĠChris ti
Ġl ondon
cul ation
ynam ique
S cript
Ġajou tÃ©es
ĠM AS
Ä į
Ġdi alog
Ġdisc rÃ¨tement
v ar
Ġr in
Ġam ande
Ġall oc
ĠdÃ©pas sement
Ġ192 5
Ġcr ue
P e
li o
Ġimpos Ã©s
Ġsilic one
S h
ĠN ou
Ġrela te
Ġcontro verse
ĠT ogo
Ġcommun Ã©ment
ĠattÃ©n uer
Ġcouv rent
Ġju meaux
Ġanaly sÃ©
Ġacc Ã¨de
atin g
Ġrev Ãªt
Ġinstitu tionnels
ĠhÃ©licop tÃ¨res
Ġvesti aire
Ġ19 12
ĠdÃ©p ouille
Ġaugment ant
Ġattribu Ã©s
un ier
oi ds
ĠK ris
R ON
Ġsucc Ã©dÃ©
Ġin ven
Ġti rÃ©es
ĠrÃ©con fort
ĠG M
Ġann uellement
Ġbon jour
Ġbrou illard
Ġaccompagn Ã©es
Ġamp h
ĠEuropÃ© en
Ġl os
ÃŃ a
ĠÃ©ro sion
Ġdiscrimin ations
ĠRE P
M e
Ġentra inement
Ã Ł
Ġcorrection nel
ĠdÃ©velopp ant
ĠM ob
ĠÃ©ch elon
h es
ĠprÃ©dÃ© cesseurs
Ġ184 8
ĠrÃ©t ros
ĠPri ce
Ġim agerie
ste in
m estre
Ġling erie
ag Ã¨res
AB IL
ille use
ĠSec ret
ĠprÃ©di lection
ĠMais ons
Ġrecouver te
Ġh old
ath er
Ġnorm ales
Ġdiri gÃ©s
Ġentend ue
Ġent erre
ĠCOMP TE
o lic
Ġrass urant
Ġc ale
Ġtrilog ie
ĠTr ente
ĠdÃ©fini tions
p an
Ġais ance
ĠdÃ©ploy Ã©
Ġf out
Ġauthenti ques
ĠprÃ© side
ĠdÃ©termin Ã©s
Ġchaleure usement
Ġfre ins
ĠINT RO
ĠAr te
Ġcomb iner
ĠDu f
B ien
Ġfus illade
an teur
Ġobses sion
dam es
eur opÃ©
Ġv ant
Ġsouhait s
ĠUl tra
Ġpal p
r antes
Ġsal Ã©e
ab lanc
ti Ã©s
ĠRÃ©ser vez
Ġma ils
ĠO tan
Ġi di
ĠsÃ© di
Ġstand s
Ġchang era
Ġrestri ction
ĠHT ML
Ġtra fi
Ġappli quÃ©s
W A
Ġpartis an
Ġcli ps
ĠFÃ© vrier
ĠJ ersey
ti mes
ac ter
Ġdu chesse
Ġjuge ments
Ġd rones
ch el
Ġinfin ie
Ġb oit
Ġcom prises
ĠTable au
ade au
Ġindi gne
i ane
Ġtou l
Ġ192 4
Ġc rash
t one
ĠGal les
ĠprÃ©f Ã©rez
ĠAnd erson
Ġsuffis ait
Ġanne aux
Ġd ors
Ġindi ens
ĠÃ©p onge
ĠcohÃ©r ente
ĠconÃ§ ues
u ts
ĠD in
Ġconv iennent
ĠprÃ©v oient
ĠMc G
s ages
C omp
Ã§ ante
[...]
